<?xml version="1.0"?>
<MethodSetup Method="MLP::MLPBNN">
  <GeneralInfo>
    <Info name="TMVA Release" value="4.2.1 [262657]"/>
    <Info name="ROOT Release" value="6.06/06 [394758]"/>
    <Info name="Creator" value="pbellos"/>
    <Info name="Date" value="Sat Feb 10 18:15:03 2018"/>
    <Info name="Host" value="Linux lcgapp-slc6-x86-64-27.cern.ch 2.6.32-642.1.1.el6.x86_64 #1 SMP Wed Jun 1 07:47:00 CEST 2016 x86_64 x86_64 x86_64 GNU/Linux"/>
    <Info name="Dir" value="/afs/cern.ch/work/p/pbellos/elmc"/>
    <Info name="Training events" value="2900"/>
    <Info name="TrainingTime" value="1.40293185e+02"/>
    <Info name="AnalysisType" value="Classification"/>
  </GeneralInfo>
  <Options>
    <Option name="NCycles" modified="Yes">1000</Option>
    <Option name="HiddenLayers" modified="Yes">N+10</Option>
    <Option name="NeuronType" modified="Yes">tanh</Option>
    <Option name="RandomSeed" modified="No">1</Option>
    <Option name="EstimatorType" modified="No">CE</Option>
    <Option name="NeuronInputType" modified="No">sum</Option>
    <Option name="V" modified="Yes">False</Option>
    <Option name="VerbosityLevel" modified="No">Default</Option>
    <Option name="VarTransform" modified="Yes">N</Option>
    <Option name="H" modified="Yes">True</Option>
    <Option name="CreateMVAPdfs" modified="No">False</Option>
    <Option name="IgnoreNegWeightsInTraining" modified="No">False</Option>
    <Option name="TrainingMethod" modified="Yes">BFGS</Option>
    <Option name="LearningRate" modified="No">2.000000e-02</Option>
    <Option name="DecayRate" modified="No">1.000000e-02</Option>
    <Option name="TestRate" modified="Yes">5</Option>
    <Option name="EpochMonitoring" modified="No">False</Option>
    <Option name="Sampling" modified="No">1.000000e+00</Option>
    <Option name="SamplingEpoch" modified="No">1.000000e+00</Option>
    <Option name="SamplingImportance" modified="No">1.000000e+00</Option>
    <Option name="SamplingTraining" modified="No">True</Option>
    <Option name="SamplingTesting" modified="No">False</Option>
    <Option name="ResetStep" modified="No">50</Option>
    <Option name="Tau" modified="No">3.000000e+00</Option>
    <Option name="BPMode" modified="No">sequential</Option>
    <Option name="BatchSize" modified="No">-1</Option>
    <Option name="ConvergenceImprove" modified="No">1.000000e-30</Option>
    <Option name="ConvergenceTests" modified="No">-1</Option>
    <Option name="UseRegulator" modified="Yes">True</Option>
    <Option name="UpdateLimit" modified="No">10000</Option>
    <Option name="CalculateErrors" modified="No">False</Option>
    <Option name="WeightRange" modified="No">1.000000e+00</Option>
  </Options>
  <Variables NVar="8">
    <Variable VarIndex="0" Expression="cluster_secondLambda" Label="cluster_secondLambda" Title="cluster_secondLambda" Unit="" Internal="cluster_secondLambda" Type="F" Min="2.62532909e-26" Max="4.17792000e+05"/>
    <Variable VarIndex="1" Expression="cluster_secondR" Label="cluster_secondR" Title="cluster_secondR" Unit="" Internal="cluster_secondR" Type="F" Min="1.34000000e+02" Max="3.43040000e+04"/>
    <Variable VarIndex="2" Expression="cluster_longitudinal" Label="cluster_longitudinal" Title="cluster_longitudinal" Unit="" Internal="cluster_longitudinal" Type="F" Min="2.45286438e-30" Max="9.88281250e-01"/>
    <Variable VarIndex="3" Expression="cluster_lateral" Label="cluster_lateral" Title="cluster_lateral" Unit="" Internal="cluster_lateral" Type="F" Min="2.79541016e-02" Max="9.80468750e-01"/>
    <Variable VarIndex="4" Expression="cluster_centerLambda" Label="cluster_centerLambda" Title="cluster_centerLambda" Unit="" Internal="cluster_centerLambda" Type="F" Min="1.23000000e+02" Max="2.27200000e+03"/>
    <Variable VarIndex="5" Expression="cluster_fracMac" Label="cluster_fracMac" Title="cluster_fracMac" Unit="" Internal="cluster_fracMac" Type="F" Min="7.95898438e-02" Max="8.86718750e-01"/>
    <Variable VarIndex="6" Expression="cluster_track_deta" Label="cluster_track_deta" Title="cluster_track_deta" Unit="" Internal="cluster_track_deta" Type="F" Min="-9.95048285e-02" Max="7.95964897e-02"/>
    <Variable VarIndex="7" Expression="cluster_track_dphi" Label="cluster_track_dphi" Title="cluster_track_dphi" Unit="" Internal="cluster_track_dphi" Type="F" Min="-2.99398899e-02" Max="4.99634743e-02"/>
  </Variables>
  <Spectators NSpec="2">
    <Spectator SpecIndex="0" Expression="cluster_eta" Label="cluster_eta" Title="F" Unit="" Internal="cluster_eta" Type="F" Min="2.50000286e+00" Max="3.19992113e+00"/>
    <Spectator SpecIndex="1" Expression="cluster_pt" Label="cluster_pt" Title="F" Unit="" Internal="cluster_pt" Type="F" Min="1.00043604e+04" Max="1.25098852e+05"/>
  </Spectators>
  <Classes NClass="2">
    <Class Name="Signal" Index="0"/>
    <Class Name="Background" Index="1"/>
  </Classes>
  <Transformations NTransformations="1">
    <Transform Name="Normalize">
      <Selection>
        <Input NInputs="8">
          <Input Type="Variable" Label="cluster_secondLambda" Expression="cluster_secondLambda"/>
          <Input Type="Variable" Label="cluster_secondR" Expression="cluster_secondR"/>
          <Input Type="Variable" Label="cluster_longitudinal" Expression="cluster_longitudinal"/>
          <Input Type="Variable" Label="cluster_lateral" Expression="cluster_lateral"/>
          <Input Type="Variable" Label="cluster_centerLambda" Expression="cluster_centerLambda"/>
          <Input Type="Variable" Label="cluster_fracMac" Expression="cluster_fracMac"/>
          <Input Type="Variable" Label="cluster_track_deta" Expression="cluster_track_deta"/>
          <Input Type="Variable" Label="cluster_track_dphi" Expression="cluster_track_dphi"/>
        </Input>
        <Output NOutputs="8">
          <Output Type="Variable" Label="cluster_secondLambda" Expression="cluster_secondLambda"/>
          <Output Type="Variable" Label="cluster_secondR" Expression="cluster_secondR"/>
          <Output Type="Variable" Label="cluster_longitudinal" Expression="cluster_longitudinal"/>
          <Output Type="Variable" Label="cluster_lateral" Expression="cluster_lateral"/>
          <Output Type="Variable" Label="cluster_centerLambda" Expression="cluster_centerLambda"/>
          <Output Type="Variable" Label="cluster_fracMac" Expression="cluster_fracMac"/>
          <Output Type="Variable" Label="cluster_track_deta" Expression="cluster_track_deta"/>
          <Output Type="Variable" Label="cluster_track_dphi" Expression="cluster_track_dphi"/>
        </Output>
      </Selection>
      <Class ClassIndex="0">
        <Ranges>
          <Range Index="0" Min="2.6253290925755273e-26" Max="9.9840000000000000e+04"/>
          <Range Index="1" Min="1.3400000000000000e+02" Max="8.3200000000000000e+03"/>
          <Range Index="2" Min="2.4528643771715836e-30" Max="9.1796875000000000e-01"/>
          <Range Index="3" Min="2.7954101562500000e-02" Max="9.2187500000000000e-01"/>
          <Range Index="4" Min="1.2300000000000000e+02" Max="7.4800000000000000e+02"/>
          <Range Index="5" Min="1.4746093750000000e-01" Max="8.7890625000000000e-01"/>
          <Range Index="6" Min="-8.1308551132678986e-02" Max="7.0936433970928192e-02"/>
          <Range Index="7" Min="-2.8924345970153809e-02" Max="4.9963474273681641e-02"/>
        </Ranges>
      </Class>
      <Class ClassIndex="1">
        <Ranges>
          <Range Index="0" Min="1.9042968750000000e-01" Max="4.1779200000000000e+05"/>
          <Range Index="1" Min="1.7800000000000000e+02" Max="3.4304000000000000e+04"/>
          <Range Index="2" Min="2.0623207092285156e-05" Max="9.8828125000000000e-01"/>
          <Range Index="3" Min="4.2968750000000000e-02" Max="9.8046875000000000e-01"/>
          <Range Index="4" Min="1.7400000000000000e+02" Max="2.2720000000000000e+03"/>
          <Range Index="5" Min="7.9589843750000000e-02" Max="8.8671875000000000e-01"/>
          <Range Index="6" Min="-9.9504828453063965e-02" Max="7.9596489667892456e-02"/>
          <Range Index="7" Min="-2.9939889907836914e-02" Max="4.9944519996643066e-02"/>
        </Ranges>
      </Class>
      <Class ClassIndex="2">
        <Ranges>
          <Range Index="0" Min="2.6253290925755273e-26" Max="4.1779200000000000e+05"/>
          <Range Index="1" Min="1.3400000000000000e+02" Max="3.4304000000000000e+04"/>
          <Range Index="2" Min="2.4528643771715836e-30" Max="9.8828125000000000e-01"/>
          <Range Index="3" Min="2.7954101562500000e-02" Max="9.8046875000000000e-01"/>
          <Range Index="4" Min="1.2300000000000000e+02" Max="2.2720000000000000e+03"/>
          <Range Index="5" Min="7.9589843750000000e-02" Max="8.8671875000000000e-01"/>
          <Range Index="6" Min="-9.9504828453063965e-02" Max="7.9596489667892456e-02"/>
          <Range Index="7" Min="-2.9939889907836914e-02" Max="4.9963474273681641e-02"/>
        </Ranges>
      </Class>
    </Transform>
  </Transformations>
  <MVAPdfs/>
  <Weights>
    <Layout NLayers="3">
      <Layer Index="0" NNeurons="9">
        <Neuron NSynapses="18">
          -1.3918006499736597e+00 -2.4923282221866773e-02 1.0839539070351839e-01 7.9790488455721054e-01 -6.2960296575696545e-02 -1.3389410427697190e+00 1.2211711140213595e+00 5.5007323314496925e-01 -2.8177343809589765e+00 -3.9215435701161394e-01 3.0289110916963075e-01 2.0518037821578110e-02 1.0286896238730525e+00 1.7894761396638717e-01 -1.2389660486679712e+00 -4.7909727152325426e-01 -2.2278936704069247e-01 7.1425055242173408e-01 
        </Neuron>
        <Neuron NSynapses="18">
          1.3850352254801892e+00 -4.8056501962714417e-02 -1.6844284654368844e+00 -3.9585231677140303e-01 -1.3734666284592337e-01 2.2863043246979999e+00 -2.4850796462388569e+00 -1.1487872580771250e+00 8.8509172539160053e-01 -1.6766202099497027e+00 -5.7972726467000379e-01 3.0400097754579863e-01 -4.5481418349693697e-01 4.9408254089398435e-01 -2.0331221927617888e+00 -3.7426262774329982e-01 -1.8380459454654494e-01 -1.3896622494483737e+00 
        </Neuron>
        <Neuron NSynapses="18">
          2.4835886147591507e-01 -1.3221703304279269e-03 -3.0875892283133255e-01 1.0005034470791350e+00 -6.0531118402421279e-02 1.3683512718636369e-02 5.4310346856585034e-01 7.4374115324795986e-01 -4.0331620445466482e-01 -4.7927219287631317e-01 -1.5894148545768841e-01 -3.2900866316712613e-01 1.0552475198344231e-01 8.8078401916933599e-02 -1.9841402373991193e-01 -5.3953297274699019e-01 -7.5346896630980893e-03 9.4247580684504151e-01 
        </Neuron>
        <Neuron NSynapses="18">
          -2.3663517896356057e-01 -1.8530689360120707e-02 -7.8662034356198152e-01 -6.6212189635380642e-02 -1.2119619607604627e-01 -9.1005255444517208e-01 -1.2360186073283841e+00 1.0315674922559193e+00 -1.2815684029744538e+00 1.0576628595158233e+00 1.0422613640600649e+00 4.6799884695503569e-01 -6.4935612749668981e-01 1.1656031613912635e-01 8.2202618263879190e-01 -9.7296369910308111e-01 -3.7492743436186821e-01 -5.5744930915562019e-01 
        </Neuron>
        <Neuron NSynapses="18">
          7.5048479789609168e-01 -3.3571893546533178e-02 -1.2745890191074388e-01 1.2885245831223099e-01 -2.5566919164526997e-01 -1.0332562845996569e+00 1.4232437951813071e+00 1.3555310786379113e+00 1.7095612671406197e+00 1.2628480161039402e+00 -5.1691201959814970e-01 -4.7243561855850397e-01 -1.0403057127154096e+00 2.2362105525785650e-01 3.5330778197125539e+00 5.3406507480997090e-01 9.8517247985096659e-02 -1.4636324268690912e+00 
        </Neuron>
        <Neuron NSynapses="18">
          1.0953786089858708e+00 4.6471480921319594e-03 9.9818391640987203e-01 -4.3924211162942883e-01 3.2560538112104798e-02 -1.1310178108039851e-01 -8.7306191307415168e-02 -8.2927692218588778e-01 -2.3531502184140277e-01 1.1303057262840192e-01 -7.0994526842051253e-01 -1.5999601905879512e-01 -1.8927983180561891e-01 -6.6503949397235002e-02 7.9988836103636429e-01 2.8765617950296779e-01 1.3507278354609670e-01 -4.2675552082032198e-01 
        </Neuron>
        <Neuron NSynapses="18">
          1.4011026953209169e-01 1.2130481675804631e-02 2.8498617936254284e-01 1.1133191351799538e+00 -1.0062670276177518e-02 -1.1078796463327033e-02 -2.0237458326125530e+00 1.5340155554664532e+00 4.1019854008609574e-01 -1.1402791373318670e+00 1.6468540929547530e+00 4.8052324662965112e-01 5.6355853847418896e-02 1.1526453766551736e-01 1.1505437681136237e+00 1.9835202965131244e+00 -9.5280543372736989e-02 -2.2750128570514274e+00 
        </Neuron>
        <Neuron NSynapses="18">
          4.7898541351290536e-01 9.1872065217388412e-03 -2.0586519108969845e-01 -7.1282842344192543e-01 1.3396914841011048e-01 -2.0205909401283995e+00 -5.1676283391729816e-01 -4.0694064973512500e-01 -3.6489126330001032e-01 5.4926703336006244e-01 4.5036939308543111e-01 -1.2007395281232969e+00 1.8872267457513958e+00 4.3138448595758973e-02 5.0422394198645283e-02 -1.1141223613360779e-01 3.7802904655093439e-01 2.8659972895538399e-02 
        </Neuron>
        <Neuron NSynapses="18">
          2.9218485524635331e-02 2.5385726357382630e-03 -2.3211272887007302e-02 -5.2515367371765771e-02 3.7900205569786086e-02 3.6527588515690934e-02 -9.0778668099926046e-02 -9.1160538327319488e-04 -1.8636864654042382e-02 1.9748254990283754e-02 3.0613577820192570e-02 8.8159009881725193e-03 -6.9773161952928972e-03 8.8368449384345696e-03 5.6247166648613206e-02 -5.6530031877526565e-03 9.5951133089765862e-03 3.4594382325555039e-03 
        </Neuron>
      </Layer>
      <Layer Index="1" NNeurons="19">
        <Neuron NSynapses="1">
          8.3217875971327580e+00 
        </Neuron>
        <Neuron NSynapses="1">
          -1.3512165579258903e-01 
        </Neuron>
        <Neuron NSynapses="1">
          1.0745342588062105e+01 
        </Neuron>
        <Neuron NSynapses="1">
          8.1229357459988698e+00 
        </Neuron>
        <Neuron NSynapses="1">
          -3.0208126466341469e+00 
        </Neuron>
        <Neuron NSynapses="1">
          8.8269340045346159e+00 
        </Neuron>
        <Neuron NSynapses="1">
          -1.2089304831630150e+01 
        </Neuron>
        <Neuron NSynapses="1">
          -5.5251279609857509e+00 
        </Neuron>
        <Neuron NSynapses="1">
          -1.2499019940875328e+01 
        </Neuron>
        <Neuron NSynapses="1">
          9.5664767194627149e+00 
        </Neuron>
        <Neuron NSynapses="1">
          -9.1623773629959331e+00 
        </Neuron>
        <Neuron NSynapses="1">
          5.6632653729605860e+00 
        </Neuron>
        <Neuron NSynapses="1">
          9.9601302983872806e+00 
        </Neuron>
        <Neuron NSynapses="1">
          -1.0191455809405914e+00 
        </Neuron>
        <Neuron NSynapses="1">
          -1.3771426454106585e+01 
        </Neuron>
        <Neuron NSynapses="1">
          6.4271959650715758e+00 
        </Neuron>
        <Neuron NSynapses="1">
          -3.3105439888329680e+00 
        </Neuron>
        <Neuron NSynapses="1">
          -6.5466570019930543e+00 
        </Neuron>
        <Neuron NSynapses="1">
          -4.0637038685830600e+00 
        </Neuron>
      </Layer>
      <Layer Index="2" NNeurons="1">
        <Neuron NSynapses="0"/>
      </Layer>
    </Layout>
    <InverseHessian NElements="32761" NRows="181" NCols="181">
      <Row Index="0">
        2.9884802171248754e+01 3.4863305924000667e+02 -1.2063661808654360e+00 -5.0549755583270581e+00 3.6208602548413609e+00 8.9357147183505981e-01 -1.8234769399603352e+00 1.4223550338493942e+00 -2.4287000646609882e+00 -1.5071949355511487e+00 -1.2065479968854538e+00 -1.2153320774946228e+00 -1.5131835782266116e+00 -2.3345431534795519e+01 -2.0321127760676143e+00 3.9207435929242695e-01 -4.4376516122148416e+01 -3.9382026267559462e+00 -7.5571061675149860e+00 1.2563652199233823e+02 2.4239602609124575e+00 -8.9252098276695491e-01 1.3557514072649340e+01 1.1487072912347933e+00 -2.8238658512177994e-01 2.9831491786228836e-01 9.8099645960890025e-01 5.6567441717744416e-02 1.3384864952338655e+00 -4.1975359736709921e+00 -5.6653243548466903e-01 7.7452600610893853e+01 -6.4246013495344223e-01 -1.4460840076106278e+00 -7.0634043630299859e+00 -2.4743460237102406e+00 -2.0967102018394295e+00 -2.2270852352438393e+02 1.0238950448586548e+00 2.7255685542206026e-01 1.6208288460564379e+01 1.1106888502379469e-01 -1.1032931383520506e-01 -5.7547464477903931e-02 -5.9300785398039091e-01 -3.8641731133334090e-01 -6.7827386332425521e-02 -1.2679383055491550e-01 -1.9546218560672224e-01 -3.0388154626212094e+00 -1.8557522834520862e-01 -5.5702025001881442e-02 -5.3397056854814160e+00 -5.8730577945531037e-01 -7.5533954571834694e-01 -2.4826610209228380e+02 9.9230369103420701e-01 4.4092341593991963e-01 -6.4188800586413919e+00 -3.2293859398194741e-01 2.6921552046613867e-01 -3.7927821771655412e-01 -1.4504036965533906e+00 -4.8514577026092065e-01 3.7867963767412482e-01 -9.2928276758127915e-01 3.7196076104513837e-02 -9.1815692580030117e+01 3.6239520485249466e-01 5.5006075372707031e-01 -1.9019024956966337e+00 1.2312090011467332e+00 -1.1439990427291628e+01 1.7474910463577856e+02 -1.9982259842308410e+00 1.3673826639189777e+00 -4.7664926577374459e+01 -2.0682204671359008e+00 3.4609552285872436e-01 1.7641072919473828e+00 2.6600780740806433e+00 2.7245325473967519e+00 5.6392012576492778e-01 2.8438382040043204e+00 9.2203596791144449e-01 1.3889797338549545e+02 2.6785212950529709e+00 3.7669594816050711e-01 1.1852196806716137e+01 6.0944131142110090e+00 -6.9867531793093045e+00 7.2634520039174697e+02 -8.8992139284649482e-02 4.8332628776830100e-01 -3.3436313925809294e+01 1.1506540142048272e-01 -1.4123080780948327e-01 5.0390023869425615e-01 -6.1384161786101188e-01 -7.7771271654098639e-01 8.3618359901827544e-01 -7.3687902362167257e-01 -3.7710862356891389e-02 1.0925747273360832e+02 3.5647101355816263e-01 -1.0087793663195102e-01 -2.5800173667752242e+00 1.0590172791333350e+00 -6.1458902638487667e-01 2.1487146115257926e+02 -8.0807401743729179e-01 1.1406364583420348e-01 -7.6469824119048013e-01 -7.2232159443695987e-02 2.2407129426184061e-01 -4.2004090550944040e-01 4.6348185208620518e-01 -5.0583536991047195e-01 6.4765455669716276e-01 -5.8297697078954602e-01 -8.1917126308695187e-02 4.5224546197663670e+01 9.0377211857695727e-01 -1.9331005993824260e-01 -7.7816907832005366e-01 1.5573513293436561e+00 -1.7800395035492356e+00 1.6830723342561001e+02 6.9453411505152629e-01 1.1192080624538896e-01 9.5407780948342360e+00 2.7836271206900243e-03 2.0454600600612136e-01 -2.0164901841871108e-01 -5.1201145236256740e-01 6.4788564986221930e-02 -6.3831899226097583e-02 1.7606465862528720e+00 -4.0674824549063521e-01 3.8979682854698318e+01 6.7591582056808375e-02 9.7437322474319965e-02 1.3973905792960785e+01 4.8573053969752700e-02 1.2099283850436283e+01 1.5564845997163275e+01 -1.0821532273756058e+00 -4.3762642732865977e+00 4.4387699276816379e+00 1.0473022946767330e-01 -1.7976903604857131e+00 3.5209355907944051e+00 6.1549499053390999e-01 1.0178351566670181e+00 6.2110645986597168e-01 -2.5845164953807256e+00 -1.1070315969899218e+00 1.0800992703149510e+02 6.7137075713601613e-02 -6.5355040286288890e-01 -5.2244746148471478e+01 -1.5494428367910813e+00 1.1237971118437147e+02 6.2650393744357274e+01 3.5945126885696006e+01 3.8826408211626848e+00 1.9587845837482053e+02 -1.6834986563761092e+00 -9.2139052927001668e+00 -4.3610326946031517e+00 3.7151910895393357e+01 -6.5751666739860699e+00 8.6173919623791706e-01 1.7047554930172488e+01 6.7532581394565687e+00 1.8874827268920745e+02 1.4220873444679265e+01 3.5107646495690830e+00 1.6211244191350926e+02 -9.6996781333676640e+00 -7.4784309388666259e+01 
      </Row>
      <Row Index="1">
        3.4863305815696435e+02 7.4023439386104187e+05 2.9417758530290669e+01 1.1619162532637637e+02 -2.6470860733524984e+04 7.7662094802714620e+01 -2.9968075225661192e+02 -7.4371902805762716e+02 -3.4374674909931105e+02 7.7732960411574197e+01 -2.6594744107946008e+02 7.0812421107999307e+02 -1.0882320559097792e+01 4.3256187611303176e+02 -2.8161041402784520e+02 -3.9791142853014844e+02 9.5565438994437500e+02 -3.1051511900734255e+02 2.3441729331117324e+02 6.8554950097959721e+04 -2.0702571195407000e+02 -3.0347852143939583e+01 2.6692835751191642e+03 -2.2779430035859917e+01 2.8129920486104129e+02 -2.1676273543697206e+02 -2.6870069311288148e+02 1.2527672032482224e+02 -3.7611333327522334e+02 -2.1381383237662976e+02 6.3426430312310487e+01 1.4916131442960455e+04 6.2256933539947539e+01 2.0218361791645748e+01 2.0557585125237638e+03 9.3001877535816789e+01 9.4418241573451382e+00 1.5666247546209564e+04 -3.9699265992112153e+01 -5.5200729151822072e+00 1.0033286936473778e+03 -7.2535751966605941e+00 8.1178022276198938e+00 3.3190812939720658e+01 2.4346707655579891e-01 -1.1821518145022281e+01 -2.5785391386865072e+01 -8.3739859311574065e+01 1.3704279655409270e+01 7.4113651810560430e+02 2.2860052486358278e+01 3.4543975135504290e+00 6.6815535423591314e+01 6.0166674258985033e+01 -1.5469659084481130e+01 4.1435990775369581e+04 3.7604681466018114e+01 -4.2290933257998589e+00 3.3734389217306962e+03 -2.2619017983986254e+00 -2.6371021454698827e+01 3.0114374000205828e+01 2.5891160302977848e+01 -6.3705187964852854e+00 6.2114828079054682e+01 5.2719058178667837e+01 1.2007867750761640e+00 2.5905037391652613e+03 -2.6418010484201773e+01 -3.3971522835330148e+01 6.9308102574090697e+01 -5.3354682053049409e+01 -1.4811582894749290e+02 -2.0918850453441992e+04 2.3245320953610425e+02 2.8666646252887404e+01 5.5067682248976971e+03 -9.0249008505693382e+00 1.2802941165683870e+02 2.5813793411974575e+02 2.8812875815847036e+02 -1.6662279656625145e+00 1.2120308837873927e+02 -3.7364762270407186e+02 -7.9268669275808861e+01 1.1410115615698378e+04 2.1012597784069681e+02 2.9129258478463220e+02 -2.5212925954803595e+03 -1.5201235043928591e+01 9.1543689393453150e+01 -3.5421901942210396e+04 5.1857528415993130e+01 1.5091644541506096e+01 4.8354488292764472e+01 2.9154825505476651e+00 1.9540318910149065e+01 -3.5533991957653484e+01 -3.0327399230050432e+01 -1.9004971025373067e+01 3.2260524953505268e+01 -1.9585900726674311e+01 -2.9090573179512411e+00 -3.0087348387796510e+03 -1.3898075834779320e+01 -2.4478065407256295e+01 -1.5685534514925826e+02 -3.2392358722708508e+01 1.3343078455031567e+00 6.2460986886071760e+03 1.0202627729394775e+01 -5.5527067648433487e+01 7.2083646906236390e+02 -6.6671868070445868e+00 5.6407837496013089e+00 1.4045046975833928e+01 6.0057982410739939e+01 4.9702019987966423e+01 -6.7801136798092330e+00 6.2239495813501549e+01 5.1546732609473338e+00 2.2359759780947020e+03 -2.2612903517945739e+01 -3.0784018892245659e+00 2.1213499833471815e+02 -4.8102969861654586e+01 -1.1937849311321116e+01 -1.7018142193353397e+04 -2.8311035826958364e+01 1.0056379068680513e+01 -2.2335987714867724e+03 -7.8661746388208087e+00 -7.2130437595822343e+00 -6.2917722748789586e+00 1.7503696391025699e+01 -3.3260175037295916e+00 1.5598102692520776e+01 -7.7265161973262494e+01 2.9700794321947313e+01 6.1584655492016282e+02 -5.6211360781400579e+00 -1.2592139805172962e+01 -6.6931882225233494e+02 -2.5044937932641353e-01 3.9764613180639651e+02 6.5852387260836549e+03 4.5926561828555805e+01 1.4969885375468414e+02 -2.1332266222649436e+04 3.6315388885011544e+01 7.7343008438780089e+01 -6.8207149447625125e+02 -3.4401997148861011e+02 1.6711574286778250e+02 -5.1430319702539737e+02 1.0157790229273633e+02 -1.2750064463230501e+01 7.8048232233917952e+03 -1.5126474045893701e+01 -1.0928951226515107e+02 1.2730957864332504e+03 -1.7550582924721425e+02 -1.4888780953631649e+03 -2.2616840074022068e+04 -1.1373227442045027e+03 -1.8088222012083861e+01 -3.7506915130826441e+04 -5.9847631364936994e+01 -3.3959025204394425e+02 3.2505001744000083e+02 1.9182685253447312e+02 2.5106434993417349e+02 -4.2094875792861603e+02 -8.9317580125009226e+02 -3.6017242740615620e+02 5.0939641611624167e+04 -2.9765554410648866e+02 -2.0254613037686795e+01 -1.6047930559927676e+04 4.7070946823545717e+02 -5.7946379683417566e+04 
      </Row>
      <Row Index="2">
        -1.2063661819910083e+00 2.9417757334969110e+01 8.7014273695331461e+00 -6.9526889946434633e-01 -4.9989446191973983e+01 3.0970650885506601e-01 -1.0767167288543811e+00 -5.9632034214158480e+00 -8.2357720011632685e-01 1.0679087191979413e+00 3.4131624980155859e+00 6.2324317822023980e+00 -3.8607767491088368e-01 1.8138378078568689e+02 1.4739343987449853e+00 1.1554061360789523e+00 1.6082031653024771e+01 -1.8692816316964795e+00 2.2935905983623814e+00 -1.9342014484301936e+02 -1.3917233457479044e+00 -2.4338271305399767e-01 2.9712792691845539e+01 1.8156543570281569e-01 -7.0161157351132575e-01 -7.8463154937424107e-01 7.2932340108847760e-01 1.2977660693155304e+00 1.6762987311141060e+00 -1.0947661913916895e+00 -6.5595420911750979e-01 -1.5772118148312906e+01 4.6198635021493423e-01 -3.4356571451545359e-03 -1.7950976523292042e+00 -1.6530526097716014e-01 3.4854989657701502e-01 -6.8684442977573170e+01 -7.2311543526076361e-01 -6.7412641221605105e-02 9.6211876320700682e+00 1.2714298665679864e-02 -3.4125029575461346e-02 3.1531363072630869e-01 -2.9201237851532236e-01 -1.1245267936312967e-01 -1.3873294070690534e-01 -3.9056850683488997e-01 1.0893895482666165e-02 -9.6325892981576189e+00 -1.1154016688445900e-02 -1.2595512422757901e-01 1.0447805580018454e-01 1.7617377111330412e-01 1.8927712628319854e-01 -5.2240440605102002e+01 -7.7680092812069157e-01 2.5447135555365258e-01 -1.1882797126569939e+01 1.8356798182667422e-01 2.4548163880003676e-01 3.3539467101630827e-01 -5.8706607552410417e-01 -5.6060858766568489e-01 -3.7506479000220366e-01 1.9140847876981820e-01 -7.1853342169846873e-02 3.5882995771774404e+01 -1.2394129881541302e-01 -6.3647963474389058e-02 -1.0070918004978960e+01 4.6592478015910779e-02 -5.3799223034137889e-01 7.9027665827470912e+00 -5.5807114795659825e+00 -1.7424656646915038e+00 3.5756102199055228e+01 -5.9871002435182308e-01 1.0302451871763376e+00 -8.4370402878390838e-01 3.7320963336038748e-01 7.5834362005693490e-01 -1.4451036330219624e+00 1.1144558621036835e+00 2.0953065716259145e-01 -8.2326682872625582e+01 -4.4919096907547695e-02 3.1630256981308005e+00 1.9431749034480705e+00 1.1878095091344996e+00 1.3376285760648428e+00 -1.6371159160985059e+02 1.4151091699727050e+00 3.1770659934753143e-01 1.4169886528589108e+01 6.6400137783253529e-02 4.8083547861210718e-02 2.1442133902488603e-01 -1.9241003383324662e-01 -8.0702015637097571e-02 7.2561690661856360e-02 6.3746454863583768e-02 -9.9003418606978477e-02 -3.7147476489322145e+01 -2.3767936953710411e-01 6.7097168469946206e-02 3.2091089572589686e+00 -1.3877093214797676e-01 -1.3631860783173324e-02 5.3408419209993117e+00 7.6676750677066186e-01 -1.8031160824410911e-01 -6.3224351885356889e+00 2.8343799412922269e-02 1.6175526687966971e-01 -2.3103598836527331e-01 9.2009938464366822e-02 2.1407073835825352e-01 -2.3567076224010741e-01 2.1391151832571589e-01 7.9861254091634776e-02 9.7362857601135957e+00 -1.9057140531580280e-01 -1.3035754202351080e-01 -1.8349107195334784e+00 3.7967196187438594e-02 2.2169473613015309e-01 -8.0590314953800984e+01 -4.5409234142319427e-01 8.4330957244917085e-02 1.7152761584360444e+01 1.3515250172718024e-01 7.6482494632590214e-02 -6.2281222902759212e-02 -1.3330388563511525e-01 -1.8004723316508500e-01 -1.6965926880539892e-01 -4.8203379029568803e-02 1.8953974306122287e-01 -2.9894382411673028e+00 6.8037608213888934e-04 -9.5536727421670298e-02 4.9559663257598743e+00 3.7841957500451190e-02 3.8562820491046917e-01 -2.8943948572311058e+00 3.0797669776397036e+00 -2.3531535006604818e+00 -1.1589760231644631e+01 -6.8300067598589143e-02 -7.5283202556834850e-01 -7.1496156539830285e+00 1.5679906968076773e-01 2.7162866239057148e+00 3.4565159117480602e+00 6.1600341875568017e+00 -7.9771977595546939e-01 7.3660165468696079e+01 1.8487144423190482e+00 3.9673899460962971e+00 1.7560372430208499e+01 -8.0326060169057945e-01 -2.3027786634720663e+01 -5.8791987726003157e+01 -2.8836056079151540e+01 3.1963416380711465e+00 -1.1305531274121789e+02 1.4614784412986352e+00 -2.5292043177777330e+00 -6.4011720598129207e-01 1.0855486182762748e+01 4.2100391286979075e+00 -4.4833819567263173e+00 -1.3298135155956938e+00 -3.2774081522891549e+00 1.1090048641771327e+02 -5.7420245558075260e+00 6.1070417231286900e-01 2.1210754299973178e+02 -1.8449727801107496e-01 3.7228606111278147e+01 
      </Row>
      <Row Index="3">
        -5.0549755577197804e+00 1.1619162542461646e+02 -6.9526889874443643e-01 1.3301342601371811e+01 -2.4696478905996127e+01 -5.6772860962387761e-01 1.0680790603089621e-02 1.0488324425630333e+01 2.0893317904917934e+00 2.1813136318008866e+00 -4.2981853641695569e+00 -2.7270583573066398e+00 1.0658788495990916e+00 1.4315746694996346e+01 3.4659578844735200e-01 -4.4986092055956117e-01 1.2181100897337050e+01 7.6653184934331442e-01 3.3353094135917933e+00 -1.7267760112424881e+02 5.7139819348896581e-01 -2.0728315960887000e+00 -4.0859891640782791e+01 -1.8417743850687979e-01 9.1360170307856703e-02 -8.8662844152954046e-01 6.6495810605496114e-02 6.0533525611386985e-01 -2.4625725008647503e+00 -1.8105086644015707e+00 1.4206872396488130e+00 8.6844197075072685e+01 6.1785111365460588e-01 1.1206381289155853e-01 1.5607542419592313e+01 -1.9951146574802348e-02 7.4341032912268035e-01 8.3374851972107137e+01 -1.1773372793682009e-01 3.0323993618355299e-01 -8.3481426705039929e+00 4.7668309802694750e-02 5.7302564611030171e-02 -5.9703364953362792e-01 2.9792598520302183e-01 3.7483042000860811e-01 4.7319985937197256e-01 1.5456979108946745e-01 2.8843157349110693e-02 -8.9593549831069197e+00 1.8926111590156360e-02 -1.5705093429806224e-01 -4.2088881282111362e-01 -9.2558396576666091e-02 4.4974044094122550e-03 -1.9068172366243897e+02 1.1291347022088374e-01 5.5451806110084023e-01 2.4049934553372339e+00 -1.1790002068051487e-01 -1.0505960951871149e-01 1.7648563895504851e-01 -2.8371816818660395e-01 3.9578791983261175e-01 1.0048423066192380e-01 -9.7107242016681639e-02 -2.7659331932527276e-01 2.4736765295325185e+01 -1.4214622307533742e-01 -2.3645752800361999e-01 -7.4494324652817481e+00 2.4508492575474683e-01 -1.5311473280607348e+00 1.8809694957091767e+02 -2.8796149127165180e+00 -5.3897277909526613e+00 -1.3939091086220810e+00 -6.5769108974099999e-01 9.7671335751974930e-01 -1.8870038584385900e+00 -2.0625941574193325e+00 -7.2362125765140595e-01 -1.0471813313321965e-01 1.0172044597874792e+00 -5.9981236137388727e-01 -6.6234920673029194e+01 2.6094060736189484e-01 2.1259849474256276e+00 -7.9630347113455429e+00 3.8944921093905638e-01 1.0660241447451890e+00 -1.4757211431822225e+02 7.5232729041221424e-01 3.0599688237818647e-02 1.1748899527602646e+01 2.0537344412454861e-03 -1.7476919548622050e-01 1.9667776641285739e-01 3.4841507400935834e-02 -2.6962454448069106e-01 -1.5479352111088940e-01 -2.0392144587397243e-01 2.5609938944165807e-02 -1.0048131429688295e+01 7.5444037273775869e-03 -1.5366450020649758e-01 3.1747005073756442e+00 -7.2628506502481482e-03 1.6464141777372019e-02 2.3486531007506596e+02 2.8121923364908824e-01 5.6688285966976804e-01 -2.7038091505266131e+01 3.2660699054395198e-02 -1.9308146563187753e-01 -3.0823400829909270e-01 6.0659638576885067e-01 2.4047659686279088e-02 -6.6362080772015997e-02 -4.4861146047597100e-01 1.4153432385041353e-02 1.5649359836081874e+01 -1.1336514702406411e-01 -1.9937685414202949e-01 3.2615593042251589e-02 5.4407229328434603e-01 4.6545847724415657e-01 1.5714122626918896e+02 -3.1945221395395296e-01 -5.6014699315026995e-01 1.2500641453584613e+01 -2.2555503118698214e-01 -6.7965469787682531e-02 1.0982188023198532e-01 3.1476698312903534e-02 3.9576861797462504e-01 3.6752186782832838e-03 4.2416198043312575e-01 2.2177949319908086e-01 -3.5445761273073849e+01 1.7372600496571300e-02 -1.4218079642750864e-01 6.5279148281538990e-01 2.5969953689728025e-02 -2.9364975712046939e+00 1.4860415204947742e+01 -2.4955678087996196e+00 6.0097555926404116e+00 -5.9659191231894397e+01 -1.2730167260745295e+00 9.9135349286344421e-01 7.7210889453761764e+00 1.8755666581269190e-01 2.2832082636407796e+00 -6.2087461286772632e+00 -3.4154218159724845e+00 1.8450597742520312e+00 2.7625715402908114e+01 1.0921307010090899e+00 1.4689011327955965e+00 2.0872739056621224e+01 8.2055201288304547e-01 -1.4485444023369610e+01 -4.4113706828808951e+01 -1.2169928739918028e+01 -1.7164346266363104e+01 1.9982284643675968e+01 -2.7210860420154859e+00 5.1185281436582528e+00 -1.4265177678549907e+00 -2.6569633783427680e+00 -3.2390461166672568e+00 2.2843221405652301e+00 6.8267571789941357e+00 -3.5901012360131972e+00 -6.8475901622527530e+01 -5.6089648483751187e-01 1.5440424255981817e+00 1.0051557340816431e+02 -3.7899392480203282e+00 -8.6046413316512826e+01 
      </Row>
      <Row Index="4">
        3.6208603519719085e+00 -2.6470860683132451e+04 -4.9989446306643423e+01 -2.4696478917444672e+01 4.8753935512059616e+03 3.2594469765207108e+01 1.5118335918361874e+00 1.7003018280718514e+01 -6.8322957816295897e+00 2.4887138883709543e+01 -1.6833575173602571e+02 -2.5895631974538389e+02 -7.8833527014073610e+00 -6.9064661603391723e+03 -3.0666709752820935e+01 2.7087296561629771e+01 -1.0632393455821029e+03 3.8928104775078396e+01 -2.1998166677346319e+01 3.6647316802611704e+03 1.5619260541521404e+01 4.2549604796638700e+00 1.0004931933347146e+03 -1.2957218598587302e+01 4.1355514758487288e-01 -1.8359864464563692e+01 -1.5542501385301327e+01 -2.1001702612556755e+01 2.3829452030199498e+01 -2.0756967835658884e+01 1.9071105657494989e+01 1.0142735571355215e+03 -4.0211773603435210e+00 -1.8898222272109951e+01 -8.4837451950107919e+01 -1.0138652101329125e+01 -2.9026564333672731e+00 4.0884832579775821e+03 6.5691848456921935e+00 5.7567423167926002e+00 -2.2477673216962569e+02 -1.7357387827443023e+00 -1.6153291836494030e+00 2.4280406362865294e+00 3.2183480332226044e+00 -9.2064993140712073e+00 5.1449208213702793e+00 1.7980435734556131e+01 2.3513483815937386e-01 5.0068137543329260e+02 2.9416160965522060e+00 1.1630371075428279e+00 3.8100596952232252e+01 1.3595591029188447e+00 -6.2300305259755309e+00 4.3138546242715265e+03 -1.7396913721316323e-01 -8.2600642650325327e+00 2.8558839569647546e+02 2.6335766995310497e+00 1.0982140794169115e+00 7.7732965684928041e+00 8.4513720616541761e+00 8.4022772337911089e+00 -7.2101260517492598e+00 -1.8598297647520348e+00 2.0216752206344557e-02 -1.1682418860989540e+02 5.4740816523652924e-01 5.4369993060034689e+00 2.0146310295719016e+02 -4.4522884427927041e+00 -1.5180890949445875e+01 8.8104863812663061e+03 1.6781148129550466e+01 1.8307496694414439e+01 -1.1090745203730232e+03 -1.6040101612536148e+01 6.8017318724130869e+00 7.5152709155817149e+01 6.5219714821345320e-01 -1.3732060418981476e+01 5.6913695705770181e+01 3.3458649039731739e+01 -7.0798117248870653e+00 1.4476278125916276e+03 -6.8462528012461732e+00 -2.9310336487772304e+01 2.9402329809234971e+01 -1.1467447119803516e+01 -3.4200119768775693e+01 2.3196845040348248e+03 -4.3000738368152254e+00 -3.4871162229160624e+00 -3.7667054134897671e+02 1.0619016538759123e+00 3.6780457631903118e+00 -5.5697469627231797e+00 2.0611977310224461e-01 5.7075502949388479e-01 5.1469580864125168e+00 -4.9164997852499512e+00 -4.2330730114011939e-01 4.4884771557643938e+02 2.1306956906247594e+00 4.0196497141916252e+00 -1.1006670886625477e+02 -4.4584116602534252e+00 3.0768428081387342e+00 -2.0327508660682458e+03 -5.9571693801312415e+00 6.0900514438862547e+00 3.9551539237816223e+02 2.1876425728322246e-01 1.5482281786113163e+00 1.3875459153242501e+01 -1.2798603792238854e+01 -6.3543374476734638e+00 -3.3962118268073751e+00 -5.7984410731163161e+00 1.6704929314053096e-03 4.7727593725690997e+02 8.5246627124266139e-01 7.5179448665562632e+00 4.8291682538854985e+01 -1.0694854001677088e+01 -3.2523426491897727e+00 -7.6557202733735667e+03 4.1127763691111801e+00 -1.8586604363209198e+00 -1.8735516164635982e+01 2.6436335146226133e+00 -3.0318679962755057e-01 3.8228574153012063e+00 -1.2034373906787574e+00 -1.6735979804358800e+00 -1.5155387569560506e+00 7.7680163153653510e+00 -6.7441642427465380e+00 1.2243112491762743e+03 5.8539344391141768e-01 1.8284323188998330e+00 -1.9355220060785132e+02 -2.6011112514871332e-01 -2.7668698042247719e+01 -2.7335235804567492e+02 -1.9820234685515800e+01 -6.0123019887822480e+00 3.5914706183691465e+03 5.0385722718229999e+00 7.2381315689595596e+00 6.4029209325180545e+01 -1.9112943022791008e+01 -8.3872698636205030e+00 -9.3374895981641203e+01 -2.3449337088964660e+02 1.8324009486834569e+00 -5.3352325668451285e+03 -3.8314622668820689e+01 -1.5970884860307706e+01 -1.0605922977723067e+03 2.4910766470334750e+01 4.6715699656146171e+02 2.1488515243329857e+02 1.6425530348172651e+02 -6.8867346479813932e+01 6.6287934586701685e+03 3.2554319537712217e+01 -5.2260563909145844e+01 8.9347207396003000e+01 -6.7164042957958799e+01 -8.9460481539142734e+01 -1.2878869401573616e+02 1.3125140809562390e+02 7.9149782029166090e+01 8.3148436023207814e+03 5.0479573502576464e+01 -6.7346967728481104e+01 -5.0411112286193302e+03 7.8169335784927910e+01 3.2523548875493138e+03 
      </Row>
      <Row Index="5">
        8.9357147159433747e-01 7.7662095235493837e+01 3.0970650883546913e-01 -5.6772860932433922e-01 3.2594469727860385e+01 4.6675647887164615e+00 7.2953289401909582e-01 -3.4134283812777118e+00 -7.9475273770555510e-01 1.4056974186325835e+00 -2.1039441881122656e+00 1.3723922376409436e-01 -1.8127124931655128e+00 -9.9948322552069456e+01 -1.5627442813932343e-01 3.2803321213212111e-02 1.0493828339430089e+00 -4.6263880449677108e-02 8.9494832695863891e-02 9.9223224351404724e+00 4.5193563571833067e-01 7.6266581831148750e-01 -9.8894121773653154e+00 -5.2171793586041670e-01 1.2221368925447138e+00 -2.9476583816598612e-01 -7.9078802185072739e-01 -1.2917857309811520e-01 -1.5707092073306408e-01 -6.8001222005904749e-01 4.6138833842250582e-01 3.8713461042429230e+01 2.5932408651623018e-01 -7.1363461626698665e-01 7.8465571252738480e+00 -3.4091057934417845e-01 -1.0898204746300766e-01 1.2073338284885619e+01 7.2473499522067705e-02 1.5572098161126613e-01 -1.6799460757937457e+00 -1.8356398660308551e-01 -1.0577465660633989e-01 2.7594675018164139e-01 -2.9692193475667594e-02 -1.9933693635766683e-01 1.1838399222155717e-02 1.4380535959658947e-01 4.3632736822030095e-02 -3.1802004003350626e-01 2.3110087589129913e-02 -8.5271851489422776e-02 2.2791003277827970e-01 -9.3129647302851490e-02 -2.4363189509026062e-01 -1.7875328485850400e+02 -7.3600240886084996e-03 -3.7034975823510191e-01 1.3405733308019764e+01 2.7265082488560077e-01 -5.5344734325422834e-02 1.7102566487431786e-01 -7.2759739765947323e-02 1.7999571475020501e-02 5.1860263560430504e-02 2.7481266358934464e-01 1.4306447269448802e-01 -1.6710014403753746e+01 -6.3669050971614433e-02 1.2650798734604651e-01 -5.5556813617872169e-01 9.4075526394514067e-02 -6.5847958834522302e-01 1.1310463961304265e+02 -5.4693893130362237e-01 -6.7558438866484627e-01 1.0922961724080411e+00 -1.8359667771332253e+00 4.7445328816899668e-02 8.3897911971131034e-01 1.1183693064391322e+00 -6.7641331845438990e-01 6.4604341981240632e-01 1.4666532984040981e-01 5.9983338652126683e-02 3.2983012742054472e+00 -6.5253478019010203e-01 9.9223644663083310e-01 -1.9845742176748779e+01 8.7286922395609401e-01 -7.3127747958425537e-01 1.2273469485268126e+02 6.7975852129782355e-02 -6.7615028800103352e-02 -8.3977508028543042e+00 1.1140721099884830e-01 8.7117920799286708e-03 -3.2462449427133500e-01 -7.8565209830077337e-02 -3.0772453908943898e-02 2.4439640011423197e-01 -1.2742269937225362e-01 1.6168676682560862e-02 1.2630399015475707e+01 -2.7815235958674578e-02 -5.8942129070551630e-02 -3.0185580340538321e-01 -3.1304391073902899e-02 -2.2198106607573284e-01 -3.2467613890005929e+01 -2.3349331052981734e-01 8.1579240554369700e-02 1.7143112007116486e+00 5.4925773187950444e-02 1.0269483790335437e-01 2.6974463226113088e-01 -3.0013974655810814e-02 6.7856640281213076e-03 4.4125605620450870e-03 -1.2649808422718678e-01 9.8417768259790456e-04 1.8459375712861874e+00 1.4809488186671521e-02 -1.7790668138797372e-03 1.2354854280943481e+00 1.0720056187292498e-01 -2.4397250309535501e-01 2.2588193039296257e+01 3.8779703555852196e-02 -1.4140802033115791e-02 -3.2845878880996064e+00 3.4777652893928124e-01 4.5504683820949091e-02 -4.8485288218981883e-02 1.0188372437593102e-01 -6.5029079541946019e-02 -8.4104152154918857e-02 2.3868119452566083e-01 -2.7411602731976037e-01 1.7991289215498494e+00 2.6855661225180016e-02 6.1768201230323602e-02 2.0655960131412634e+00 -8.3223275170055372e-02 4.2496486493784613e-01 3.9516476857939722e+00 2.5362211222638648e-01 -4.6189561065885154e-01 2.0812461873430330e+01 2.2590458862041931e+00 1.8288301543784684e+00 -2.8961149159064314e+00 -6.0384296985617336e-01 5.6850494263418350e-01 -1.6764423450365038e+00 -1.4814361665385078e-01 -1.3148893709780229e+00 -6.7168134203753539e+01 -4.9373369464574135e-01 1.9985299788711774e-01 -4.8880142149215349e+00 3.1580815067867740e-01 1.1169388608977830e+01 2.0736637588996985e+01 2.0892179675860891e+00 -1.9407811274414506e+00 5.0803587522143580e+01 3.8642440262197368e+00 -3.0046698121589275e+00 3.4572963552189089e+00 2.4541866083734125e+00 1.2171737722900438e+00 -2.0131416243524463e+00 3.3305252023423577e+00 4.4549599608702408e+00 1.3983486128717349e+01 -1.5469584592839858e+00 9.0624746630972197e-02 -1.9215682607185471e+01 -4.3318459970972256e-01 -3.0611642861976318e+01 
      </Row>
      <Row Index="6">
        -1.8234769395834938e+00 -2.9968075226430557e+02 -1.0767167288331425e+00 1.0680790527968664e-02 1.5118336176556735e+00 7.2953289347786210e-01 4.4238295388903754e+00 -1.3432428274507968e-02 2.5336777596705966e+00 9.8241196402154563e-01 -2.1714667240613599e+00 5.8693603996023680e-01 3.7519674645017820e-01 -2.1755259856111948e+00 -1.7603558569941238e+00 -7.3192347576842498e-01 1.1528555611988502e+01 2.7302730604156920e+00 3.9548235766901185e-01 1.7128976610968706e+02 -6.0257487862755965e-01 1.7252755171077150e-01 -1.6433465378093807e+01 5.0575746386504494e-01 -6.3335585381765380e-01 6.2159495667394127e-01 -4.3274575282949168e-01 1.4274958740111110e-01 -2.9661531607237928e+00 4.4602191040989314e-01 -3.5599375805396155e-02 -1.2412951075417071e+01 -1.1267130822648526e+00 -3.0348872996127341e-01 2.0417407279522766e+00 9.0906651071773947e-01 3.5941165789100449e-02 5.2155000331965510e+01 2.2125840691095525e-02 -1.0083015117238339e-01 -1.4392447670780992e+00 -1.8877036192686793e-02 1.5376564420806779e-01 1.0621509211842683e-02 7.0996472784489562e-02 1.4688564751269537e-01 3.3544353827091827e-01 -7.8655786172777686e-02 -1.5668820962015190e-02 3.4828784206584862e+00 -9.7380315887618904e-02 -1.1406102102819811e-01 -7.5014880124500105e-01 -1.0795755772095453e-01 8.4836861526429025e-02 -6.5183377842778611e-01 1.9421203183531208e-01 -1.9927035188309514e-01 8.1549253277801945e+00 -6.7496246718027536e-02 -3.6638182206370573e-01 -3.4089147993601165e-01 3.4046983419613785e-01 -8.4189728133830813e-02 2.5184323196030417e-01 1.3576652418282154e-01 -5.5698843820856117e-02 1.8233493541029748e+01 2.4127436571470684e-01 -6.3160869919330398e-02 -3.3397420781967668e-01 -7.6216200342831872e-02 8.9947728535607396e-02 1.7128003017961699e+00 1.0616873493926318e+00 9.5290328932133617e-01 1.9160195330311630e+01 -2.7518820528260113e-01 -2.9570994469621064e+00 3.3775471355620712e-01 -1.4933462627364822e+00 -2.1367727682455446e+00 3.7688529377189832e+00 -1.5394009296973534e+00 -6.9519733217216473e-01 -5.6278845942357435e+01 2.0474688086924742e+00 -1.6755876875788489e-01 -3.4530022068358459e+00 -1.5837001391544892e+00 -7.3310464416082327e-02 8.6214605802767778e+01 1.5477333251144124e-01 -1.2760313374696289e-01 -6.1547246948894161e+00 -3.0429380815040374e-02 -2.7469436214961718e-01 -1.7414798332721593e-01 2.5127808283327052e-01 1.5204253677339596e-01 -6.6199182255735012e-01 1.0065273458846091e-01 -6.7576463724965063e-02 5.3494083503208705e+00 2.0700755367716969e-01 1.6746819031006749e-03 6.0746960339117884e-01 6.9522524905720695e-02 6.1095053597476703e-02 -1.6425525596331070e+00 8.9784326033680834e-02 -1.2665266419752472e-01 2.2930900841387745e+00 2.3817979260144527e-02 -5.3424504043623022e-01 -8.7172901209320405e-02 9.0852126098577998e-02 1.4702917660252057e-01 2.7237113166614790e-01 -9.5426903880664049e-03 6.5649743377057507e-02 -1.4395152344551752e+01 3.7323632563184234e-01 -8.4599911738232336e-02 3.5363908227212626e-01 8.0142751903371501e-03 1.0100040219769944e-01 -7.3872353447871149e+01 -3.4180703776251764e-02 5.4163526293005637e-02 2.4089403475747169e+00 -3.1529371264790759e-02 -7.4383212462025311e-02 1.7944138790790334e-02 1.7422970826709344e-01 -1.0673727251434895e-01 1.2246436086306819e-02 -5.8163915428676205e-01 9.0770975393129658e-02 1.3033582740999236e+01 1.5379098994389273e-02 2.2499805856571187e-04 -4.0938526676375480e+00 1.3350360344969909e-02 -1.2580583071823181e+00 8.6241507943024089e+00 -6.2754193727782370e-01 1.0664943474592410e+00 -1.8627846257950388e+01 9.1744155593950960e-01 1.1078927995241781e+00 9.6497867698054307e-01 7.2025074717102977e-01 -8.8042906041477265e-01 -9.2198881427774215e-01 -4.3282879644078864e-01 -3.5611590537105364e-01 -5.8276364933664716e+01 -9.2709579758699356e-01 -1.2077767354353235e+00 9.4869268533565254e+00 1.9246136772445475e+00 8.5909600560752608e-01 1.0385955307528533e+01 -5.0096861961736963e+00 1.8828546492241856e+00 4.4507772636601395e+01 -4.6936238839730038e-01 1.1938424278265686e+01 -6.4227937046610517e-01 -1.2612690303331648e+01 6.6871276617265343e+00 1.2035131593982966e+01 -4.7697359515562212e+00 -1.9343033231000391e+00 -1.5663734362725753e+01 9.1259035266328095e+00 9.0177391390566020e-01 -3.6025233356169977e+01 9.2734929531079935e-01 -4.8168617641386810e+01 
      </Row>
      <Row Index="7">
        1.4223550362796986e+00 -7.4371902659078910e+02 -5.9632034204645912e+00 1.0488324426092454e+01 1.7003018236017361e+01 -3.4134283812931190e+00 -1.3432428093038649e-02 4.0012156979642143e+01 -2.7218004243433203e-01 -2.6154327325909814e+00 -1.1788633799234521e+01 -8.1798047258971245e+00 2.1709365605624527e+00 8.2094462519617508e+00 -2.3776962694749786e+00 1.3109571011936487e+00 -5.8776001809718892e+00 4.5582342958016603e-01 6.6527723677689998e-02 1.7713194077662797e+02 -2.6523629913363700e-01 -1.4010431377480996e+00 -7.4839678522335177e+01 4.9853461772150620e-01 -2.9961391717080375e+00 3.8985889299386938e+00 2.2016407965731717e+00 -7.3575782238820508e-01 -1.6580429133023309e+00 1.5549257896034847e+00 9.0175771517770942e-01 8.5531272669632429e+01 1.4522330361701491e-01 1.4611541553581060e+00 1.3863803334824869e+01 -3.0208673687266330e-01 5.8872261465416242e-02 1.0752515746275699e+02 6.2127030280601026e-01 5.8608500945405773e-01 -1.5537411454782708e+01 9.6986366641599084e-02 1.6716057497917136e-01 -1.7846808758238812e+00 3.4149584490763296e-01 6.2390577557065474e-01 1.2038094872836265e+00 -5.8656763093996522e-01 -1.4363663103778984e-01 1.6657774959009984e+01 1.5960959151824156e-01 -3.0034012085928402e-03 -1.8948339458533785e+00 -4.8218465150380502e-02 -1.9149142676953115e-01 1.2103948424627390e+02 7.2896509835370116e-01 1.0656744371310616e+00 -1.6877676308994296e+00 -1.1562277525845739e-01 -3.7176679372038540e-01 -1.1714327634121393e+00 -7.2001388887958095e-01 7.7861682359679096e-01 -7.6492334500917192e-03 5.0434572474837824e-01 4.5463665167651074e-02 -2.1954150697833949e+01 3.6541304488752056e-02 -2.9996702929697056e-01 1.2745910841864539e+01 3.3861760756166326e-01 -1.1148072389662942e+00 -3.0554931480901274e+01 8.5622888241142087e-03 -2.4526439273460454e+00 -7.6382540640018615e+00 1.0529860136794111e+00 3.3277742748218322e+00 -9.5299709496795106e+00 -2.2267762171387657e+00 1.5968075711801577e+00 -2.7997932287559344e+00 -2.4645611165440942e+00 -1.3492996838515126e-02 -3.9008526584194556e+01 2.0626715311182338e+00 -3.2423713892214008e+00 -4.9192905184337476e+00 2.1653054365913129e+00 3.8892370829763001e-01 -1.2857856354646827e+02 8.8429647575052617e-02 -3.2425297126289750e-03 2.2507900314895082e+00 1.0642123949613236e-01 -7.1950815769035614e-01 9.9781014520934752e-01 1.9532233335507643e-01 -2.2304734927683431e-01 -6.7137967381661789e-01 -1.2540334127792097e-02 -2.7013133407017761e-02 1.1972451927539225e+01 3.6646402463054295e-01 1.4004176960040748e-02 8.6847600789059953e-02 1.5063374878583685e-01 -2.5308857598227374e-01 1.7054772365222331e+02 1.8691355624772307e-01 8.2275515893477535e-01 -1.5234909507621861e+01 -7.2974852892101358e-02 -8.9928401031903982e-01 -1.2623172311231003e+00 5.3600885285686672e-01 -4.9404352414800051e-01 6.5089373221099933e-01 -2.0922257565602875e-01 -1.4817527172114764e-02 2.4333438770021072e+01 1.4811604726735362e-02 2.6610043147476459e-01 -2.4937617303919453e+00 -3.4548895520246142e-01 3.1944224155327944e-01 2.2141388723181205e+02 -2.0264444169009556e-02 -4.3465698314047724e-01 -6.1592402842928085e+00 -5.2008106526657483e-01 -4.1218756888708613e-01 1.8826581704829645e-01 -7.5299776378179181e-02 1.2671099878256809e+00 4.0888239585424790e-01 -2.1960770107877199e+00 -2.9591818206250863e-02 -4.7985271032331681e+01 5.8543847138413652e-02 -1.3914890736769714e-02 -6.2594517845156545e+00 1.2332672467567377e-01 8.2492698864502878e-01 -9.7277022646772835e+00 -6.2718345787311849e+00 6.3037093852168580e+00 -4.2821653109711848e+00 -1.9051216841208136e+00 1.9911058597272130e-01 3.4068702229474766e+01 -1.5737729049730109e-01 -1.0584133834553677e+00 -1.4406282658810905e+01 -8.8964855722676610e+00 2.7112924818683934e+00 1.6220109902573611e+01 -1.1652387885180637e-02 -2.7023172053542499e-01 -1.2022430927568617e+01 2.3290292553381708e+00 7.6017055765809971e-02 -9.4819110919693486e+01 5.7757400615427201e+00 -1.3934783327975978e+01 6.9105386640224168e+01 -4.2834234620680895e+00 2.1142624878433423e+01 -1.1009859165474701e+01 6.5093637949735648e+00 -1.4560811206365994e+01 2.0301223390808570e+01 -2.1614854226796041e+01 3.3261366794916114e-01 -2.2516231607883782e+02 8.3866642786287358e+00 -3.0522019426090452e-01 -1.9884266918479724e+02 1.7145497385210788e+00 3.0234277592738124e+01 
      </Row>
      <Row Index="8">
        -2.4287000620761732e+00 -3.4374674947359483e+02 -8.2357720136026824e-01 2.0893317888588285e+00 -6.8322956496978442e+00 -7.9475273800520074e-01 2.5336777589596045e+00 -2.7218004328871026e-01 9.3996273296920840e+00 -6.0957137987911314e-01 -7.2284958779414410e-01 -8.7519286961466891e-01 1.0240516625073428e+00 4.0346240711182062e+01 -8.7833386963500248e-01 -1.1931082547107468e+00 1.0613407547595525e+01 1.4161978630538230e+00 -6.4335972728513902e-01 1.7777633704510231e+02 6.5377683682770904e-01 -3.1564991493413419e-01 -4.6270298784022206e+00 3.4969368862118178e-01 -7.9860483072926769e-01 -4.1222151331923912e-01 -2.5600490311486912e-01 2.4202463139447516e-02 -4.9345034088804363e-01 6.4203205946375741e-01 -3.9408121225368575e-01 -4.1029310894710392e+01 -7.7626932596471954e-01 4.8531725127857417e-02 -5.2444761228955947e+00 1.1257200289631377e+00 1.4581833626832186e-03 5.1843887356837875e+01 1.1444054612084389e-01 -2.6335502692086199e-01 1.0464864690881077e+00 2.2104531008142842e-03 -3.2583323626965643e-02 -4.4650529844925589e-02 4.8134275580680713e-01 4.8736771021241010e-01 1.4041827599221224e-01 3.6435995264009730e-01 -2.1221300012390101e-02 7.3201034961916522e-01 -8.2082242648892925e-02 5.4838806865818747e-02 5.2175038975211752e-01 -9.5964637701318162e-02 4.5839844481904296e-01 -1.3896749263331853e+02 7.4197461814271892e-01 -1.0981188836812913e-02 9.2330599384343817e+00 -3.0454754273135359e-02 8.4289579195266653e-02 -1.9051113983249143e-01 1.3469313274458479e+00 -2.7201834641768152e-01 -9.5651339739440289e-02 1.9222428800136615e-01 1.4372503928909383e-01 5.8755612067364694e+01 6.6974380522325128e-02 -1.7602622871427137e-02 -3.4810967372520460e+00 -1.7475451533453465e-01 -1.4206017409465594e+00 8.0981305334024412e+01 -1.7358135956079210e+00 -8.3666848081800083e-01 1.8692522927299169e+01 3.9890036299727183e-01 -1.3144626380921631e+00 4.8413603849644138e-01 -8.0085636999482084e+00 -1.0193215873444661e+00 8.9788985844495728e-01 -3.0094498547050597e+00 -7.8982672909598328e-01 -8.4137440913799878e+01 1.8902922465439982e+00 8.5664027368924034e-01 -5.0391816711320487e+00 -1.8051401222336416e-01 1.8576049279633450e-01 6.3928851451032763e+01 5.1999789655147088e-01 -2.4597706330386961e-03 -4.2313183146315740e+00 1.3090335756553245e-02 3.7154145134266514e-02 4.7674572969605977e-02 9.1710992875706832e-01 2.3144853495948170e-01 -3.3062267145581137e-01 3.8647270275258938e-02 1.1821141172474750e-01 1.1922161591488932e+01 4.4988976167712982e-02 -5.7883674788562933e-02 3.4482542054322645e+00 5.1606223513410932e-02 2.9835728670626943e-01 9.2333515634045114e+01 1.6833677756932598e-02 2.9913092528849772e-02 -6.7343800723765641e+00 9.5001169923512430e-02 -5.4845505616754844e-02 -2.5633959333069267e-01 -4.1361914895223245e-01 3.4429792852242258e-01 -1.7865955285230939e-02 -1.9472954406778176e-01 -4.8344362692258752e-02 -1.7947860413745250e+01 1.2960150403957765e-01 -7.8242744014793075e-01 1.2742280880661117e+00 3.5069193507061730e-01 6.8448856722302942e-04 -1.1678880251020404e+02 -8.4917805954990350e-02 -4.1616374546987580e-03 1.2499375944875968e+01 1.6885384111346147e-01 -6.9486925996425433e-03 9.8853237568046481e-03 7.4030327847516375e-01 -2.5487257086347126e-01 -1.4622621160900543e-02 3.2451808866940013e-01 -2.4528190762437835e-01 2.4267026864763636e+01 7.0333115801137047e-02 6.4076733808757252e-02 1.5140846245558324e+00 3.9128256715941674e-03 -4.1415779842237974e+00 1.4361528263542766e+01 -2.1174576161749128e+00 1.0157118754032535e+00 -3.5418748123320057e+01 -1.1568044798637356e-01 5.6934991753507691e-01 -5.6599619592663686e-02 1.6297395629795322e+00 -1.4765972753813561e+00 -2.2001783414992479e-01 -3.0057546179836807e+00 -7.9309716982561895e-02 -7.5458816146984049e+01 6.1434866743949990e-02 -3.9292521058260066e-01 4.7198097651816280e+00 2.1088155098448671e+00 8.4441859818089249e-01 3.1772250505225941e-01 -4.0059463537824094e+00 2.3369201286717125e+00 1.1005784667021021e+02 2.1631880256059333e+00 2.4418542328272643e+00 -2.2535840655205579e+00 -4.5916549225141281e+01 1.4066712052532528e+01 1.9321387639812668e+00 3.0322619433339426e+00 3.6144205571843600e+00 8.1681987614240896e+01 4.0048831864367003e+00 3.8640020239337156e+00 6.0209835539738933e+01 -1.4584119646937594e+00 -7.6991199645715938e+01 
      </Row>
      <Row Index="9">
        -1.5071949354528269e+00 7.7732960704760330e+01 1.0679087190636030e+00 2.1813136315984192e+00 2.4887138899648480e+01 1.4056974188149602e+00 9.8241196387185104e-01 -2.6154327321011568e+00 -6.0957138026266633e-01 9.0125315795680212e+00 -3.3790065159627094e+00 -9.8609056405677653e-01 -6.9972769671467816e-01 -2.0035858424852968e+01 -7.1555314046939045e-01 7.6997556516024646e-01 -5.3912953971761617e+00 2.9967509548927884e-01 2.4037803649158671e+00 -2.3053810421315677e+02 4.1230203754331041e-01 -5.2185035331091589e-02 6.3616051655700696e+00 -7.7156841678900090e-01 4.5852287976290840e-01 1.5617726914649732e-01 -1.3285539339490156e+00 1.0141136399426176e+00 -2.3329500095152700e-01 -8.4708833269693296e-01 6.5238742382211956e-01 2.3482547781840175e+00 -1.0489574372891464e+00 -4.6074998525091482e-01 2.4685082263361480e-01 -1.4488592326670364e+00 5.2900194429351044e-01 -6.8962610581025160e+01 -1.0945806947404717e-01 -1.8958870016771674e-02 6.9087305554962271e+00 2.4994355453176912e-02 1.0398563716834480e-02 2.8671353694449636e-01 -1.8022942656233193e-01 -6.1006782278978733e-01 1.7559812219435766e-01 1.3586485188314942e-01 -8.5815125116404101e-03 -1.8048011442568576e+01 -8.0429105164403991e-02 -1.1748412429831409e-01 -2.4420014324183610e+00 4.9061629807162936e-02 -4.3855142065771202e-01 -2.2826431254116170e+02 -1.3664509198413555e-01 -3.3095980607700620e-01 1.3056100851452406e+01 5.9784794069230207e-02 -2.8972538828206815e-02 9.8413069310394077e-02 -2.0907626730579662e-01 -3.2711564841768731e-01 -9.2433438333031859e-02 -7.3238814249431239e-02 -1.7345888046451752e-01 -4.5926533825572662e+00 3.9015373351943711e-01 -5.9491544208828927e-03 -4.9154689461092405e+00 2.8009642636255094e-01 1.1682181222238257e+00 1.1985610246859618e+02 2.2275516203906209e-01 9.2469222090187020e-01 -1.8698957528973903e-01 -3.9209344680394381e-01 -1.1911541121870453e+00 -6.6606944319577377e-01 3.1321962399812895e+00 -5.9756863990530285e+00 3.4872571768276113e+00 2.0198021353691322e+00 -3.3563949650531888e-01 -2.6840720477137985e+01 1.7760647438504216e+00 -4.7639193315391304e-01 -1.2314147036976522e+00 -3.1546401402725799e-01 2.2320754235422810e-01 -7.2092546438084035e+00 -6.1541727604628893e-02 8.1770612717576407e-02 7.0535425519170367e+00 3.6022248344090402e-02 5.9492279580325658e-02 5.8313573381770567e-02 -2.7265442130516238e-01 -9.2229515925504324e-03 1.3303986980163895e-01 -2.6358418645467718e-01 -1.2855978587660905e-01 1.3477739460559945e-01 4.0637267258232973e-01 -5.8831979660887379e-02 -1.7062351483950096e+00 4.5805414238328068e-02 -7.2967220872064836e-03 -3.9257667926753086e+01 1.0761468034614367e-01 -1.2263498700781460e-01 2.1105216375272882e+00 1.1588729340021348e-01 1.1480382454369763e-01 6.4161620980282996e-02 6.9858417556182689e-03 3.9366188803132085e-02 -3.0517461580836880e-01 -1.6130663483826946e-01 -1.7052947137628699e-02 4.8860730033250519e+00 6.0759726030738948e-01 -9.1608823586891930e-02 2.7714935808398877e-01 1.9331253616832966e-01 -1.5554300901996759e-01 -8.7534330527551248e+01 -9.1484814728228503e-03 1.2809794020660525e-01 1.2911490438566489e+00 1.5881114445229566e-01 7.6011763065624224e-02 1.5889852939748081e-01 6.8446503330094971e-02 -3.9297774572133071e-01 -2.3001608757986067e-01 8.1424220980811768e-01 1.4487986357703994e-01 1.9129491953498112e+00 4.3698353274207208e-02 2.5170731508577945e-02 1.2970366282982386e+00 5.9542307781815358e-02 1.9687843786216279e+00 1.1854573628329490e+00 1.6388864021765444e+00 3.1483261207647106e+00 4.8470990547253827e+01 3.6388768767691115e-01 2.9884222692615386e-01 -2.8224155796511656e+00 9.6018117808333714e-01 3.8358768667778191e+00 -2.6280450867367311e-01 1.6511967509571135e-01 -3.7761999005365676e-01 -3.7045774259692706e+01 -4.3416690952932657e-02 -2.7345094550683635e-01 -2.5100199963339116e+00 -1.2715044032658387e+00 -5.5942122209938994e+00 -5.0358494252340115e+01 5.7655930112385434e-01 1.2754655264524750e+00 -8.0521264780948570e+01 1.2856689414086020e+00 -1.8897895744130011e-01 8.7105238787025741e-01 6.6903669289684959e+00 2.1931804480603927e+00 -4.3582747394512973e+00 9.0363781611354828e+00 -2.2436667840230484e+00 -5.2707856857086732e+01 1.7131423444789377e+01 1.0509509154180741e-01 4.5920133354682569e+01 -5.7529616576142528e-02 5.1095207146491113e+01 
      </Row>
      <Row Index="10">
        -1.2065479984758845e+00 -2.6594744423048769e+02 3.4131625003887232e+00 -4.2981853635516512e+00 -1.6833575162834765e+02 -2.1039441882303751e+00 -2.1714667229840265e+00 -1.1788633798807735e+01 -7.2284958357792983e-01 -3.3790065148736157e+00 3.2035789023134676e+01 1.3299148682030625e+01 -1.3874726698974287e+00 3.8707585333331713e+02 5.9958855505793975e+00 6.9455954006462761e-01 4.1380406497335521e+01 -2.4909939603383382e+00 1.4688676146065562e+00 2.4542098697670781e+01 1.1837522937395395e+00 3.6388445885420756e-02 -2.4219940484498288e+01 -4.0047305132016175e-01 -2.5517479301459218e+00 1.6159448687403515e+00 2.9812243000152852e+00 4.2781478304320686e-01 2.0893412990652487e+00 3.6999299778612786e+00 -1.4329675679230500e+00 -5.9027147081848533e+01 8.6485384605400095e-01 2.6937674045387858e+00 -1.0826997424565036e+01 -1.8195190990562464e+00 6.9574499740277296e-02 -1.9032525590004346e+02 -2.0716723703017484e-01 -8.0882027141792046e-01 9.3800700847397565e+00 -1.5676357906312430e-02 3.4012873430223645e-01 1.7307526084210778e-01 -2.0553974072778966e-01 1.7956287461986603e-01 -1.4755531426484780e+00 -1.9196444100973392e-01 1.5215055418961143e-01 -3.5561839582475173e+01 -3.9752112930976868e-01 5.2220268817681048e-01 -4.0518637452145034e-01 -6.8388152434395866e-01 5.2855809219117267e-01 4.0746655562411192e+01 -8.7201169949544521e-02 5.9615660761585243e-01 3.9228155154409095e+00 -4.3730925103329356e-02 8.4485555317101793e-02 -3.1960297527784814e-01 -7.1564912438659234e-01 -4.5511725137004744e-01 2.6843226135898135e-01 -9.6681529003369504e-01 8.1902488818679772e-02 -3.6370154330308928e+01 -2.1929159847410556e-01 3.1455373333565462e-01 6.6148888856795161e+00 8.7143468749009345e-01 1.5149337019806277e+00 -1.6225761285745125e+02 -1.5094106832461052e+00 6.1359679017000568e-01 9.6460475153957823e+00 2.2686793074604559e+00 2.9125884156533730e+00 -3.4030907332841935e+00 -5.0841866315521789e-02 1.8339946540396119e+00 -8.2639480411830348e+00 2.6435187120998682e-01 1.7855844355507857e+00 -4.8958867745971858e+01 -2.2402098025532160e+00 -1.9663456968714594e+00 5.1139563583416390e+00 1.4096440918570510e+00 2.1858347755596563e+00 -2.1920647596173677e+02 -1.0711068062591760e+00 3.8102840044795627e-01 1.0187809017359079e+01 -1.8397510582759757e-01 -3.5740039178398320e-01 4.9252869124680881e-01 -2.5249302910569699e-01 7.5714022573600770e-02 -1.9344552904775822e-01 6.3317476631201108e-01 1.1087233374946415e-01 -1.4024023067543752e+00 -2.7461838660036852e-01 1.0310669064920597e-01 -3.4002025243725154e+00 3.9939070851126640e-01 4.3219357356391047e-01 4.4284513106172572e+00 3.5582923139105355e-02 -5.1856506914440725e-01 -8.2131756534472444e-01 -1.6788158146755042e-01 -7.0817289039550702e-02 -5.2971865590694639e-02 -1.5970736468907312e-01 6.8986194344989138e-01 1.1854386227241775e-02 3.9458911673032709e-01 -1.2954399422190599e-01 3.1033402168629749e+00 -1.2270649348941789e-01 -6.7668916740278462e-01 2.6305633005305609e+00 1.0544469496880102e+00 2.2360739681205849e-01 1.8147603870055391e+01 3.1274335937287329e-01 3.8160682071282054e-01 -2.2521985155620420e+01 4.7169016060947380e-02 -4.5602347929243239e-02 -2.3305773774144253e-01 -3.8511371940686395e-01 3.0768524941935116e-01 2.3501393617776478e-01 1.6589363909929489e+00 8.5428988829228267e-02 -4.2545034221806851e+01 -1.6043225314298604e-01 3.7289988073577890e-02 -2.1352618068001874e+00 -7.7616841361268785e-02 1.0084600030545181e+00 -2.0820730519345489e+01 2.5409869632020698e+00 -3.5749430289031858e+00 -8.8016701969301437e+01 -3.6024150235823793e-01 -1.5925417877439214e+00 -1.3241293737103241e+01 1.9377327910885223e+00 -1.4855073385029895e+00 2.5347002199993355e+01 1.5951061021206849e+01 -7.3226596366083552e-01 3.4060763911413108e+02 4.2551208747799496e+00 1.3926396634912925e+00 3.5976890794687030e+01 -3.7986035602909798e+00 -2.9188186615817131e+01 -7.3724104917290873e+01 1.3181272584250266e+01 1.5742477283635196e+01 -2.7097345683019876e+02 -9.8831482718935604e-02 3.7983048208904098e+00 -3.0914313590798699e+00 1.3680423167381175e+01 7.3146106713732628e-01 8.9806875036591158e+00 1.0387838392215734e+01 1.5470588279348476e+00 -4.3889232314897475e+02 -9.9983883406796963e+00 6.3125098662549561e+00 -1.5003377352376259e+02 -9.9088426387710342e+00 1.5348840226870476e+02 
      </Row>
      <Row Index="11">
        -1.2153320811744286e+00 7.0812420730760368e+02 6.2324317875380748e+00 -2.7270583574190486e+00 -2.5895631964076443e+02 1.3723922143172707e-01 5.8693604227437257e-01 -8.1798047321647775e+00 -8.7519285992860851e-01 -9.8609056467680478e-01 1.3299148685866825e+01 4.1961358825585663e+01 -9.0806849442138937e-01 4.7853428390435948e+02 3.5157798570967467e+00 1.1784356623943593e+00 1.3755141929711357e+02 -5.0081687280136169e+00 -6.4670187114170097e-01 -2.6006262030455002e+02 -1.5669870369798229e+00 3.9705395229979062e-01 1.6756042059535005e+01 9.1163412211741779e-01 -7.4756893296682136e-01 -1.1849157684656747e-01 5.6036160810817093e-01 2.6207924760132402e+00 3.5978773097190708e-01 5.8984894421197396e+00 -2.8567968084315001e+00 -6.3621997809608132e+01 1.3916740460155250e+00 9.6179214445956074e-01 6.3322761244347872e+00 1.6251976575847782e+00 -1.0539491679625845e-01 -1.3494956416408741e+01 -5.2998939442530046e-01 -3.8391666429601889e-01 1.8068700132500055e+01 -4.1140943141768589e-02 -2.1141822114872255e-02 7.6500326445881728e-02 -3.0376442163925049e-01 -8.4094189209629466e-03 -4.4602701871103734e-01 -1.6058165006367802e+00 7.7422914674653648e-02 -3.9593140776491246e+01 -4.2759486323934170e-03 -2.6391420425759338e-01 -8.2330981441368714e+00 5.8460462311926609e-01 7.5762190092681841e-02 -3.6712906273551425e+01 -6.7982866024637190e-01 -2.2940634774820137e-01 4.8307306416914642e+01 -1.0598286166717594e-01 -2.3818466515509953e-01 -2.2332536847952153e-01 -2.2211703214436262e-01 -9.4309599257795351e-01 8.3186377657290222e-01 -3.6043313331141658e-01 1.7704566169129890e-01 -4.8647417634553641e+01 -3.6686459589595088e-01 -4.6334558448319429e-01 1.1042015667714322e+01 -5.9615670674516097e-01 2.3142729757887412e+00 -3.6252280848296141e+02 -1.5579610251634992e+00 -1.5913409281825341e-01 1.3335134942440351e+02 1.1218990784588883e+00 1.5198515221321891e+00 -1.5523394726523252e+00 -3.8660850792546908e-01 -2.3003397044862917e+00 -5.3467038128829518e+00 -2.2687511625589561e+01 1.4505953186882117e+00 -2.2079253618796940e+02 -1.8788800998735344e+00 9.1541786802334646e-01 -6.9430884499804222e+01 5.5120004666215205e-01 -6.8744908376126512e-01 1.9311932817474482e+02 4.3493602437678808e-01 -9.3295200320966387e-03 -4.4164303198950911e+01 1.8943458630969356e-02 -2.2203767700005983e-01 2.8010513074325738e-01 -4.9996132226034662e-02 1.7802103467545535e-01 -2.8830512827519950e-01 -4.7009789669646329e-01 -4.8022679415473662e-01 3.2737630777715871e+01 -2.8294490894135577e-01 -1.1666596352176573e-01 6.4081589207618315e+00 -5.1795783536987094e-01 -3.0416412625738204e-01 -2.2243788201160061e+02 3.4489079816782464e-01 -4.8996029956900866e-01 2.6526438455911617e+01 1.3266657767795806e-01 -3.1408968389437703e-01 -8.6822228287545167e-01 3.7392831266543103e-01 8.8964852319356580e-01 1.0006288547981512e+00 -9.6460608199966158e-02 3.7619022755015769e-01 -5.4316343902963766e+01 -4.5711165031981726e-01 1.3314140745295333e-01 -3.6736530672147367e+00 -8.5267732657594097e-01 1.0121362342396529e+00 -4.2934017778337949e+02 -1.8928399356686068e-01 3.9545968744479842e-01 -2.2404125003231709e+01 -1.1682505654940262e-01 -1.0054717414400854e-01 -2.3645210652929613e-01 1.2433660195438721e-01 -1.6391091323926466e-01 4.3132714445960629e-01 2.0922803583138716e-01 1.7647755856234832e+00 3.3466111339481216e+01 1.2284001045178750e-01 -1.0217767262696895e-01 -2.2730957928133904e+01 3.8255036756149392e-02 2.9178727365029555e-01 -1.1944922592192597e-01 3.8311662304291438e+00 -2.3491942695240722e+00 -1.7217770950601752e+02 1.8644238048826276e+00 1.2281536428542177e+00 -9.3217596407878531e+00 -8.5278848665816476e-01 -9.5987692150655590e-01 8.6097029244584800e+00 2.5911075244664456e+01 -1.9586731473506187e+00 3.4149839213698016e+02 3.0274296538430612e+00 2.7444624681659491e+00 9.0452311558402698e+01 -2.3146663858353431e+00 2.6207989227278290e+00 -1.6738107888766649e+01 -1.5515643276707152e+01 1.1061244822974800e+01 -1.8752350221939957e+02 -1.5825796912040460e+00 4.7196186272726806e+00 -4.5656727550466130e+00 5.0890935790516423e-01 1.3744395661176700e+01 1.5945155110673269e+01 1.4688897199046949e+00 -2.6184090981653071e+01 -2.2616897560534085e+02 -1.0879634438371284e+01 1.9464296522847491e-01 -3.0452430792542327e+02 4.3481984089647128e+00 -1.7605458252892788e+01 
      </Row>
      <Row Index="12">
        -1.5131835785272358e+00 -1.0882320900834927e+01 -3.8607767509262902e-01 1.0658788494600659e+00 -7.8833526722995479e+00 -1.8127124936012846e+00 3.7519674616635756e-01 2.1709365605482240e+00 1.0240516628412453e+00 -6.9972769701474236e-01 -1.3874726695900690e+00 -9.0806849584482574e-01 4.5765450417768569e+00 2.9135041093841593e+01 -7.4903396177375237e-01 -5.8714058272461744e-01 1.3526293868083119e+00 -1.1411973541900049e-01 -1.1487572332898899e-01 -1.0480633666310054e+02 -6.2950486808719253e-01 6.4185444656383026e-02 1.0917200749651363e+01 5.1801863506995494e-01 -6.6108623778460895e-01 7.8631523359353728e-01 2.9802400404577750e-01 1.6002821960290259e-01 1.6101143313244048e-01 8.5254024908538861e-01 2.6752823197681785e-01 -1.3285411968684246e+00 -2.5255495821065721e-01 2.1347266952297084e-01 5.5516387529594802e-01 6.1984367413138441e-01 -2.6543589600294237e-02 7.3687906841059842e+01 -9.1530533060696084e-02 -1.5546983626321914e-01 6.5300474986420354e-01 6.3471347553249013e-02 7.6727958243150846e-02 -4.2634795446534163e-01 9.3751288096012075e-02 2.0337079719636209e-01 1.5962153232551624e-01 -5.1866632866861684e-01 -1.0118941798474604e-01 1.7814281453571288e+00 6.3876193449574764e-03 2.7183386083824423e-03 2.0517961105990334e-01 1.1696917758699241e-01 2.5824701429132496e-01 1.1229604199554529e+02 2.4274897232818127e-01 8.0673648001451548e-02 -5.7485047247695009e+00 -1.2180606237455543e-01 -4.8897247123133383e-02 -3.6025209390016477e-01 1.1983261977481099e-01 -1.9572662886716694e-01 -7.5893852233807735e-02 5.1674894729884802e-01 -3.5563155595745893e-01 1.5109179904545510e+01 1.5174816263912087e-02 -8.3716386382649013e-02 -3.9075715014525576e+00 -1.4899759341939489e-04 -5.1082198662141132e-01 -4.9714457320991059e+01 -1.5181120816618843e-01 -1.2411963927295988e-01 3.4632179898490712e+01 -3.1259104905931467e-01 -6.5401430573551389e-01 -6.8182269978019605e-01 -1.6923536014130784e+00 -4.2911924954884761e-01 4.9076298027313081e-01 -1.1366810735109387e+00 -4.0630042000957127e+00 -7.8071944715413807e+01 4.0926445595087768e-01 -4.6626052587444650e-01 6.4008437245305432e+00 -5.6786714938627059e-01 3.9984627933391947e-01 -7.3256667544211510e+01 1.8267325358163111e-01 1.6289129256803481e-01 2.0159065598189247e+00 -8.7581831958566114e-02 -3.3817860973734071e-02 3.6077108605840424e-01 4.4569639359615040e-02 6.7160163331878575e-03 -8.0982455198261374e-02 -1.1319537135313595e-01 -2.4606103169032600e-01 -1.0117426522896023e+01 5.0413979373523501e-02 1.4702863430684471e-02 6.0033106295580403e+00 -5.8819927982691700e-02 1.6530203438070554e-01 -4.4798927272560562e+01 3.3463080905921316e-01 -1.1690600432466541e-02 3.7846109893504085e+00 8.8339086607803069e-02 -1.8845286148823814e-01 -5.0718273646726919e-01 -7.3222506860103481e-02 1.5107090855336369e-01 9.8357088477726506e-02 8.1531299808550295e-01 1.4224610998763329e-01 4.6140601885630561e-01 -3.2006706687873476e-02 1.4652883755983126e-01 -5.3897801996738224e+00 -1.6828570405967039e-01 -5.4886744044750718e-02 -9.8436879610803643e+01 -1.4359585120336957e-01 1.8659549902727949e-03 1.4090311435523304e+01 -2.8870223305133885e-01 -6.4512993480524000e-02 9.3311610755323710e-02 6.4744615565631311e-02 6.0721315465569192e-02 -8.8175285859604102e-03 -1.2657032230417373e+00 1.1432911341576149e+00 2.0011692003538794e+01 1.2860373494338495e-02 -2.1163471120098976e-02 -5.3465025613397543e+00 1.5700908522773363e-01 -2.0001934557097840e+00 4.9152583625858881e+00 -1.2224893560856864e+00 9.9510552806101416e-01 -1.4802256544391099e+01 -1.5316949829130155e+00 -8.6139857973441192e-01 2.3564360814927388e+00 -2.0726103237404325e-01 -9.1386010885788382e-01 -6.4165477509840063e-01 -1.0517376672322178e+00 1.0298826465602999e+00 -3.5840317072055299e+01 -6.0324741170307683e-01 -7.9921456270286351e-01 4.9116903558362797e+00 3.2137833051692218e-02 -6.1106682908515841e+00 -2.2635321857014880e+01 -6.0884455207501116e+00 1.7801778311971201e+00 -4.9801325332134738e+01 -2.3577429869035669e+00 3.4927774867520416e+00 -4.7625879667102380e+00 -5.3079886539632302e+00 4.1339088099524837e+00 1.1983591702217140e+00 -2.0245983447594536e+01 -1.7243128794286037e+01 9.6569000186898649e+01 1.4527826038244953e+00 -9.0351410227437912e-01 1.0494106087085005e+02 1.0881905932004008e+00 -3.6599819112892511e+01 
      </Row>
      <Row Index="13">
        -2.3345431561913912e+01 4.3256174311798532e+02 1.8138378076408466e+02 1.4315746592351454e+01 -6.9064661483137988e+03 -9.9948322530591255e+01 -2.1755260240397059e+00 8.2094460630002573e+00 4.0346240769104220e+01 -2.0035858408464573e+01 3.8707585315118666e+02 4.7853428316288051e+02 2.9135041045117006e+01 2.0869373032673298e+04 9.2727320222767958e+01 1.4050177687804606e+01 1.7707344285536401e+03 -9.2292308326826969e+01 9.4156332246193642e+01 -1.5427713859609685e+03 -1.1639725446936072e+01 -1.9525363958161371e+01 2.5408676591090657e+03 5.2784155530243293e-02 -6.7931961536066197e+01 7.5215813250482697e+01 8.8024007043193393e+01 3.2179991264491605e+01 4.4174748042109997e+01 4.8335621668139055e+01 -3.9938142740203858e+01 3.0211094552455370e+03 1.4533522936560360e+01 8.2738083417765537e+01 -4.3623021691462060e+02 -6.4321166882844301e+00 1.1233234257162781e+01 -2.9367677358450524e+03 -1.1380101599626812e+01 -1.0660141931497021e+01 9.2500651732296728e+02 3.0336176039855576e+00 2.1811506914527712e-02 -1.1521976888476035e+01 -1.3267570025267219e+01 1.1726036534533154e+01 -1.3215762735121618e+01 -2.8563577189750948e+01 -4.5363299974954234e+00 -5.1186295292592627e+02 -4.8102237001540615e+00 -2.5769931946375646e-01 -1.1063261410824774e+02 -8.6529571569889685e-01 1.6433767145425826e+01 5.5459911539843542e+03 -8.7137037798692063e+00 2.2318770412211126e+01 -5.8695771997725615e+02 4.2003526808167235e+00 7.3270935536634347e+00 -2.2399399889531750e+01 -3.2343621425440269e+01 -1.2128026111757309e+01 2.3643057801391478e+00 1.5612927039511657e+01 4.4525665555235987e+00 2.3980584937716330e+02 -2.3266516044893804e+00 -1.5211378566909707e+01 -2.6879026736407741e+02 1.2558024685014367e+01 6.1944502164315196e+00 -5.1681084160032856e+02 -1.0502211781470211e+02 9.4758864047238944e+00 2.5223568519191940e+03 5.0085796812228921e+01 -3.4928068751177825e+00 -1.5544339612099128e+02 -6.6333883770937376e+00 2.4264983265549947e+01 -1.1424466620958933e+02 -2.4222183228877832e+01 3.8670870830813953e+01 -5.2759433189778210e+03 7.7163946005851471e+00 -1.6897275293875516e+01 7.2505231914060278e+02 -4.6499288427432859e+00 1.0298457061638011e+02 -1.1160587517272254e+04 -1.2728211276269734e+00 1.3657888289287484e+01 4.7836053045710287e+02 3.4100054145945053e+00 -1.4357460966803046e+00 2.0141685454789247e+01 -2.7948987511134114e+00 2.3880751805340585e+00 -8.7554377081769026e+00 1.5881049772155471e+01 -5.2057025158551307e+00 -1.5545327513687503e+03 -6.4235154459289880e+00 -6.4606393783684766e+00 2.4081105744882930e+02 4.7404379348478933e+00 -3.7044097616919767e+00 -5.6590982838528657e+02 1.5554540286608471e+01 -6.2722020040971858e+00 3.8997112814110142e+02 -1.8706299732964617e+00 -2.1744681196646964e+00 -3.4313633291195629e+01 1.7541250199394653e+01 3.4315368245242599e+00 9.9657945703074802e+00 6.3767996967318332e+00 8.1418530797237665e-01 1.7354612986757916e+03 -6.8327603481176586e+00 -9.0426712246130592e+00 -2.3921902844380062e+02 1.0346140299272257e+01 1.0464297675748579e+01 -7.4119371092744204e+03 -7.4164806703674753e+00 3.3262538425313619e+00 1.2783963195366969e+03 -1.6464066184907609e+00 -1.2731208406666616e+00 -2.0646136651703890e+00 -2.4903644890027046e+00 1.0716535189584587e+01 4.7262987513879580e+00 -1.4065481673212162e+01 1.2046914506671328e+01 1.3338595273323647e+03 -8.5802876357960400e-01 -2.7704129263600299e+00 2.2054077182505659e+02 3.8322685666581089e+00 6.4259472009129809e+01 -2.4761571767129499e+02 6.9120624229175775e+01 6.9464227434358889e+00 -4.1177499721587656e+03 -5.1985762405894199e+01 -6.7895229392947599e+01 -5.6091191919474738e+01 1.1490011638064094e+02 3.5283354537493153e+01 3.1459823813349755e+02 4.8616166241788801e+02 2.3182735562400197e+01 1.3258969072394972e+04 1.0797726472638854e+02 7.2525633173078177e+01 2.0751444704502865e+03 -1.0707183767263146e+02 -1.4043727181055292e+03 1.2408580317978708e+03 -1.5207064815911122e+02 1.6496548626745607e+02 6.0598304531700560e+03 1.2040288517235240e+01 5.8848613758985266e+01 -2.6670188148518372e+02 4.3316491914495259e+02 -4.7541273395152196e+01 1.8113410874704948e+02 -1.3618885427128222e+02 -1.3889610705734231e+02 2.5751216713608228e+04 -1.6177861789252165e+02 9.0773241350387764e+01 9.3749590159808085e+03 -1.0624637480327863e+02 3.8904353566041000e+03 
      </Row>
      <Row Index="14">
        -2.0321127764315259e+00 -2.8161041531591178e+02 1.4739343984534632e+00 3.4659578867792140e-01 -3.0666709707464172e+01 -1.5627442788823087e-01 -1.7603558567758715e+00 -2.3776962687759422e+00 -8.7833386908827715e-01 -7.1555313964685918e-01 5.9958855500759922e+00 3.5157798520814101e+00 -7.4903396265672373e-01 9.2727320118627944e+01 7.0508612108970157e+00 2.9361549790773336e+00 1.5321239266153830e+01 1.3752763665350125e+00 1.2184123548254009e+00 1.2758585712984717e+02 1.4449541845370677e+00 -7.6013350855118256e-01 4.1923799815533247e+00 1.6257907929192322e-02 -2.6886867677331905e-01 -5.9829551788274404e-01 7.5302881173186587e-01 -5.0601441852493423e-01 8.8582053563988028e-01 1.5378221576399476e+00 -2.7223557018424355e-01 -5.6676450403569181e+00 3.8722229918283606e+00 1.7537735415819569e+00 1.3166530317711400e+00 -4.2105612332801412e-01 4.5985364432809428e-02 3.7625750379884977e+00 -9.3184200398128178e-02 -1.7693698743563419e-01 3.1378621016191488e-01 1.7942753479254080e-02 -7.3236342332778398e-02 1.6661744273853102e-01 -7.8281303302510361e-02 -5.2129061601083292e-03 -2.6588788687548431e-01 -1.9059527465750409e-01 -2.5165295811071478e-02 -8.5174528820187252e+00 1.8101515962144504e-01 -4.8176015188449148e-02 8.8694775822998606e-01 -7.8234844287761701e-02 -1.9025995815516222e-01 -1.8180164393069325e+02 -3.1753086412940235e-01 5.8403759316118320e-01 4.8596144760870956e+00 4.1005202432537101e-02 2.2557326793058838e-01 1.4069901854298528e-01 -1.4439683231509085e-01 4.3226412375712057e-02 3.8558842700254559e-02 -4.2456479060689840e-02 6.3936277003936809e-02 -2.6158391332464639e+01 -1.0602217715931863e+00 -1.5056546879218305e-01 4.2910795717871708e-01 -1.4877738429127976e-01 9.4426637910506961e-01 1.4225140978312282e+02 -2.5663515643542434e-01 -4.0903387056068130e-01 -2.4396356779219861e+01 -7.2571216984453191e-01 1.9435541635902227e+00 -1.2334352664235211e+00 5.3229637567444676e-01 2.0830176903261717e+00 -2.9572954349519680e+00 1.0533652696559361e+00 6.9616401281789253e-01 1.5577824730360469e+01 -9.4834709338545000e+00 -1.0240093214301589e+00 1.3038966173838509e+00 -2.1427639911023810e+00 4.7611617175593968e-01 -1.6536780142886604e+02 -4.9483195157167809e-01 1.1049204271423463e-01 4.8060840279242623e+00 2.4787689728998641e-02 -5.9323825722316315e-02 1.1308006644466451e-01 -1.3692512869585616e-01 -1.7553163704117597e-01 1.8507403750648477e-01 7.3780407309388174e-02 6.0469288636872343e-02 -7.5159637552466814e+00 -8.6539978292706943e-01 3.6342294220119697e-03 -1.8986670417363900e+00 -4.1154511506646207e-01 1.2891069995950552e-01 -2.6275008240255971e+02 -1.1980045451785237e-01 -9.0527605841828618e-02 1.1446158540565015e+01 -4.5865449513346757e-03 2.6926051798925366e-01 -2.8531804355530488e-03 -1.2289843070867303e-01 -7.0477380524249900e-02 -1.2837949989653907e-01 1.5648252809728214e-01 -8.8745138198412732e-02 -1.0196213235212022e+01 -1.4404261777106000e+00 -2.6277242770888165e-02 -1.1444121675860117e+00 -1.9911111407905738e-01 -3.5203330316835640e-01 -2.4644629461380205e+01 1.3124288510326210e-02 7.1444214867360828e-02 -3.6883936789277811e+00 3.2629536262752119e-02 9.8078682457596086e-02 -1.6050486413769263e-01 -5.1323793902537718e-02 2.9407853974779685e-03 -2.4076146444379276e-02 -4.5381309154082672e-01 -3.4111985319820093e-01 2.2306006183045310e+00 -1.0502780231725579e-01 -2.3280349478196682e-02 2.9625533326076017e+00 -8.6986613120330944e-02 -1.9819751982053224e-01 6.1424182009943138e+00 2.4149693711239211e+00 -7.2498355633601252e-01 -5.6632492218575990e+01 -8.0534358882727020e-01 -2.0538905857646217e-01 -4.0132050525099068e+00 3.5626083762757660e-01 7.8400281737569544e-01 3.8471295389481055e+00 5.8102662554149234e+00 -3.7639249127633717e-01 1.3237758888989680e+02 1.6986269173518351e+00 3.4855600309890677e+00 2.0152440308120724e+01 -9.7496024416927440e-01 -5.8768955149316326e+00 3.7337441896312868e+01 7.2417073000675618e+00 1.9152128995194886e+00 8.2800047544341481e+01 5.4401394895648991e-03 -4.1622519079720091e+00 -7.8248963239333102e-01 3.5670059099468618e+00 -4.5133363762975538e+00 -7.6439158207391600e-01 -4.4318405844379782e+00 4.3145529856576559e+00 8.8591260106475289e+00 -3.7839569482047736e+01 -4.8741121739299587e-01 -3.1099617219472961e+01 -1.6225391356550318e+00 -2.3851593206809365e+01 
      </Row>
      <Row Index="15">
        3.9207436058487755e-01 -3.9791142877366377e+02 1.1554061347608171e+00 -4.4986092089141727e-01 2.7087296645553337e+01 3.2803321946218378e-02 -7.3192347558666648e-01 1.3109571018187014e+00 -1.1931082551196546e+00 7.6997556488565866e-01 6.9455953647490531e-01 1.1784356589986902e+00 -5.8714058302965833e-01 1.4050177566530287e+01 2.9361549784344714e+00 1.1285690127466703e+01 5.3748685546369064e+00 1.2038834853939016e+00 1.1415786539625532e+00 -3.9000434373530680e+01 1.0440616525944897e+00 3.1385643155532783e-01 2.1589053993557421e+01 4.5329544122642057e-01 -1.2517495976480584e+00 -2.6622606162106738e-02 1.1044372493224142e+00 -6.8331112153283424e-01 2.2652457981286078e+00 7.9793613904523930e-01 3.2117331154241896e-02 -1.0488641137276080e+01 9.1122908820327742e-01 3.4822132693725578e+00 -1.9379846158358980e+00 -5.1787851307258381e-01 -7.1144022290893449e-02 -4.3174376127869380e+01 -4.5308171985464885e-02 3.7187329805782113e-02 4.1189215392337388e+00 -6.5259628793899755e-03 -1.3410191257569865e-01 -2.6776348525136662e-02 -2.1529764228994919e-01 -6.7566375496692443e-01 2.6737392543434067e-02 -1.0370610748680519e-01 4.6927122223418126e-02 -1.1242166523786663e+01 2.7580372322581502e-02 -2.6120451857172122e-01 -6.7456941726912634e-01 2.0401987511776148e-01 -2.7624077292558813e-01 -1.9146058307153851e+01 -2.2617483566531149e-01 -6.6212138103826423e-02 7.0690342918848934e+00 -2.3984590499563949e-01 1.1839786528098747e-01 -1.2241513063289836e-01 -1.5129312158545111e-01 3.9932676411470608e-01 1.2547984723546790e-01 -5.0749941113440578e-01 3.5907632999692116e-02 -3.7617263947900724e+01 -4.1011200619690880e-02 -4.6014957195851969e-01 5.1090995656464280e+00 -1.5098641084604786e-01 2.9121612999257918e-02 1.8033841272238348e+02 -4.9444307143412747e-01 2.9828826385705476e-01 -3.5321327301198320e+00 -3.8505150200417304e-01 1.6576193792195411e+00 5.7174975357621660e-01 -7.7721088570915353e-01 1.1644553096281467e+00 -3.4020763105512408e+00 2.2559213551193107e+00 -9.0699099555536078e-01 3.0595121479404014e+01 -1.7037856660579918e+00 -9.9725695196453668e+00 -1.8997904579745487e+01 -1.7584989647372273e+00 1.2336190425659654e-01 -4.5708218245913159e+01 -5.8829601581677504e-01 1.9616777051881584e-01 -3.0522955570518935e+00 6.9589068505802501e-02 1.3251806376408126e-01 -1.2337364648198394e-02 -1.8928027293914229e-01 -1.2930991979951661e-01 1.3705034169687252e-01 -3.1985993666768281e-01 9.4734870916078906e-03 9.2164038377441386e+00 6.9398714211214768e-02 -3.1729578724922325e-02 -1.8589776425267042e+00 -1.2734183384974095e-03 -9.6463439258285932e-02 -1.6100628233549148e+02 1.6216292515228048e-02 2.2931374060972343e-02 1.5257980831310228e+01 -5.5837054255856979e-02 1.0858503895650927e-01 -1.5009546907875904e-01 -1.7269462460451096e-01 -4.3891123572824564e-01 1.3109748288383116e-01 -4.1263416080726312e-02 -4.4397177813574690e-02 1.5556918819723062e+01 -9.9932519562698052e-02 -3.1194347458303184e-02 -2.1800415824524322e-01 -5.0579384603725552e-01 -1.1538775297555784e-01 -2.9958170895923708e+01 4.9358463583081935e-02 4.3110793632532056e-02 -9.8000240393239189e+00 -8.5265210114451234e-02 -1.0273295225115270e-01 8.1320495242074103e-02 -1.2393849997539705e-01 3.2199283865541511e-01 1.9498168509407776e-01 -1.0082558425298060e-01 -1.2968598808123488e-01 8.1822654590960902e+00 3.9170949205297456e-02 6.5448901945100960e-02 -6.2929910181633986e-01 -1.1573062713986498e-01 1.4063323184967427e+00 -1.6452330831780387e+01 1.5937203829480753e+00 1.8471751613918086e-01 7.5042507293519705e+01 9.6120415056807573e-02 -4.0817113261512206e-01 1.8256728047032720e+00 -1.0148945061158676e+00 1.0620039884577457e+00 -3.1945816983226294e-01 3.9911910739007501e+00 -1.3073887486271081e+00 1.5823640722943095e+01 2.1436240699043219e+00 4.9391030046592475e+00 -1.3444715838689381e+01 -3.6652573180806725e-01 -5.0814991292608447e-01 -2.4576453770501473e+01 1.3143313927740351e+01 1.8101014256214683e+00 3.6373976500843511e+01 -2.2922483646002547e+00 -1.1922621920245360e+00 -1.0492545108030900e+00 9.5794882508654737e+00 -1.2324967975225796e+01 3.4509168169654103e-01 1.4494313178762255e+00 7.4466860099528276e-01 4.7008928187725189e+01 2.4410321460199782e+00 -7.5974124967878254e-01 -1.0694320243495400e+02 2.5270571097127128e+00 1.4349738328754512e+02 
      </Row>
      <Row Index="16">
        -4.4376516115144000e+01 9.5565438040052686e+02 1.6082031676452772e+01 1.2181100897176790e+01 -1.0632393458520448e+03 1.0493828203418261e+00 1.1528555623910748e+01 -5.8776002188617618e+00 1.0613407591957042e+01 -5.3912953984455552e+00 4.1380406529815502e+01 1.3755141931960620e+02 1.3526293876541153e+00 1.7707344318601361e+03 1.5321239284295775e+01 5.3748685559405942e+00 9.6086424189629724e+02 -1.0586997737799621e+01 1.9714351411429469e+01 5.9400159068083349e+02 -1.0121125747072238e+01 1.1999733884967785e+01 -2.1772150915575668e+02 2.4847398068975104e+00 3.1378324581733636e+00 8.3002815485369421e+00 3.2097517646875451e+00 1.0588532602132982e+01 -1.0867059876677786e+01 3.6112586881323701e+01 -9.8370221530438187e+00 -2.9817780380194932e+02 6.9540192924452207e+00 6.7399042755658911e+00 1.3626258208335969e+02 5.7615780024654217e+00 3.6523521311833917e-01 2.9653093132429740e+02 -3.3460142452276820e+00 -3.8608639077252613e+00 -5.2679138819286436e+01 1.0965179404869430e-01 -1.4228004724640075e-01 -8.5504092067426352e-01 1.0063186232227073e+00 1.3173989513695901e+00 -6.2789819528372059e-01 -5.6319088415908842e+00 -1.6283219168025242e-01 -8.8444125748670388e+01 -9.1370983047465826e-02 -1.0578983474149677e+00 -3.6121601722856347e+01 3.7352450459960074e+00 -8.9088503112487427e-01 6.9824815924497852e+02 -2.6473327327785228e+00 -1.0125456037357599e+00 4.2141039550664038e+02 7.8208676574065983e-01 -2.0260745249778260e+00 -4.6906984684438839e+00 2.2734063142630605e+00 -4.2653663279551743e+00 3.1609117858229183e+00 -3.5409362006368763e+00 3.3343616559701008e+00 -6.2105437095079616e+01 -1.7171605363892479e+00 -2.5238176422712693e+00 2.3187794373433141e+02 -3.5704262621096223e+00 1.3590409309258845e+01 -1.0495651052406847e+03 -2.9048030979840433e-01 -2.1151922088854263e+01 1.0018717810467891e+02 -1.5324678785318468e+00 1.5941799120419793e+00 -1.6102114925337325e+01 -1.4563882609123539e+01 -1.7659790384775391e+01 -6.3853805358268687e+00 -7.9175840378828383e+01 1.9584158363638053e+00 -4.2326088548207980e+02 -1.0545163351231277e+01 6.9559371024927730e+00 -6.6421887893609573e+02 -1.0677159314081308e+00 1.1721858598580923e+01 -9.2933255072690758e+02 5.8017377144376887e+00 -4.0343934615492572e-01 -1.9330480063284716e+02 2.5709408257965727e-01 -1.6757060918616844e+00 4.9346867353679880e-01 1.2644586499513615e+00 1.2251675570493767e+00 -3.0937118703930340e+00 1.1727779455954401e+00 1.9665457891783111e-01 -4.5530696222383540e+01 -1.2592916426961533e+00 -2.3582448542722645e-01 -2.9951253086662220e+01 -3.0595820585413307e+00 1.9738778768646583e+00 -1.9657307854010185e+02 2.3366560408888688e+00 -2.4117629737639406e+00 1.2793018266150844e+02 1.7057664797306121e-01 -1.3023178910162529e+00 -4.7838107137183989e+00 5.4702013941932648e-01 5.3838104745409456e+00 3.2603672130426276e+00 3.9128631690890794e+00 1.0090269396131100e+00 -4.4657536783591848e+02 -2.2798582882593483e+00 -1.1382337453721902e-01 5.7566042884689139e+01 -8.0311594345057831e+00 4.1375135266724605e+00 -2.9852271632833949e+03 -3.6389828329014478e+00 2.1547878037930972e+00 -2.8268035291630162e+02 1.4417200104009000e+00 -6.6792756986153001e-01 -5.3803117017681978e-01 3.0422691469594265e+00 -1.6363903083288278e+00 9.4206183405202637e-01 -6.7876947405269448e+00 1.4952288886667020e+00 -9.3152338319926230e+01 1.8841552647798343e-01 5.0401527930767687e-02 -2.4376079842294052e+02 -2.4199211087880040e-01 -1.5835105471810110e+01 -5.6247307426826410e+01 9.5584704896136259e+00 2.9869945329894101e+00 -9.0729407805053813e+02 1.0223922123808116e+00 1.5686222413798275e+01 -1.1934117807547977e+01 -1.0229948039103132e-01 -1.2795908281230034e+01 2.6310857127265415e+01 9.5322606423694054e+01 -5.9389575179166272e+00 1.5987383913808176e+03 1.1850868714487405e+01 1.7402862042139382e+01 4.5632265928400921e+02 -1.0129847617065408e+00 -1.9582519667959991e+02 4.4408416258610464e+02 -1.6294984117309491e+02 6.8630397680780789e+01 2.6814384773157853e+03 1.3208233491361625e+01 4.4159152255243555e+01 -2.9681042674238270e+01 -1.1985039315976006e+02 1.0594205018686895e+02 8.5486029904426175e+01 -8.6511851679206529e+01 -2.7066935203117282e+01 -2.1735484963915701e+03 -5.3750912309928026e+01 3.2836757196505459e+00 -6.3092356870114481e+03 4.9837113084098291e+01 1.6272384715010048e+01 
      </Row>
      <Row Index="17">
        -3.9382026261057681e+00 -3.1051511853971181e+02 -1.8692816323432899e+00 7.6653184988813994e-01 3.8928104728595208e+01 -4.6263880765230803e-02 2.7302730597773053e+00 4.5582343154995414e-01 1.4161978615545481e+00 2.9967509638705359e-01 -2.4909939595614379e+00 -5.0081687288078669e+00 -1.1411973608403470e-01 -9.2292308426164880e+01 1.3752763654735847e+00 1.2038834846085023e+00 -1.0586997740788389e+01 1.1537425869259112e+01 -5.6280381618401609e-01 1.5618865336883837e+02 -3.2343478316688468e-01 -1.0493879528171543e-01 -8.3529349386983256e+00 4.3729336875208297e-01 5.4904223144396802e-02 -3.0755562929659175e-01 -2.3765839120501706e-01 -6.5241316293116824e-01 -1.7521175521461112e+00 1.1575492009494832e+00 -2.5804952473807646e-01 -6.5638726523004408e+01 1.1778435481888232e+00 2.0650013101074496e+00 -4.4002927433295866e+00 9.1936700256742365e-01 1.8967166673538982e-01 9.1009997758303584e+01 1.4814110354888865e-01 4.3561640354680402e-02 -1.5842228724684617e+01 -3.9964703494743431e-02 -1.3960370716562970e-01 -4.0165320584917563e-02 1.8488115659988119e-02 4.0900410094570974e-02 1.5470363859075029e-01 2.2718414900781619e-01 5.9899855291066298e-02 2.6046522780850172e+01 1.0810982125813473e-01 8.9853720073639787e-02 3.6724520824275517e+00 -1.0296872712903626e-01 5.0301658202152488e-01 9.3518011860990782e+01 -3.5441456581349406e-01 -1.1973702745738861e-01 -8.4875284021351369e+00 -1.7901246438709559e-01 9.6031646868238882e-02 -2.5645028844282791e-01 7.7025718808587529e-01 3.3713394736887986e-01 7.3853748299761435e-02 -2.8550185371461367e-02 1.7671450083328710e-01 1.3189827182741638e+01 -2.8586870281839938e-01 -4.8781520432664227e-01 5.1397450477658584e+00 -7.3337438552211531e-01 1.1334658470915175e+00 9.9041776612424513e+01 2.5597264375544433e+00 1.1066092720987184e+00 -6.8282180341046583e+01 1.3438107056674875e-01 -2.9099798872860223e+00 2.0531218887741005e+00 -2.8165411626218750e-01 -6.9018225514325682e-01 3.5910473880554115e+00 2.7112860171703765e+00 -3.7142884693679434e-01 4.7532514492118978e+01 -3.8827555532477365e+00 -2.8515669284576699e+00 3.1138073030309872e+01 -8.2580792495797493e+00 1.1183810705338912e+00 -1.2077891273286269e+02 -4.0040530236267802e-02 -5.2325192571284163e-01 1.2204021259328727e+01 -3.3908411931531518e-02 -3.4473098731766072e-02 -4.7144797596366239e-01 3.6591406790987629e-01 3.1207317723729910e-01 -1.3066000801157429e-01 -2.9155633648555224e-02 1.3691179439492010e-01 -2.6978124855450545e+01 -2.6138001296644420e-01 -2.3832673111544023e-01 -3.6863383240948258e+00 -2.4567057332337544e-01 3.5216883921467435e-02 -1.0228979680754438e+02 -3.3559456979723734e-02 -6.7034758240107073e-03 6.2982317097125531e+00 -6.2184573614997303e-02 1.4740840316923079e-01 5.6291514074545274e-02 1.9087418868239883e-01 -1.1101736546155055e-01 -9.6358921875548731e-02 1.6406422685271266e-01 -2.4231273593259023e-02 -4.5496729620568921e+01 -4.2994947765092639e-01 -6.4486781155190442e-01 1.4414608785036211e+00 -7.0374781335000791e-01 -1.7998959786164315e-01 1.0661649712237309e+02 1.0002822406873957e-01 -7.6759849900367147e-02 -1.3018230663319986e+01 8.1263107924935615e-02 4.9322444312942408e-02 -1.1966667215697968e-02 9.7558843673040324e-02 -1.4782980597160100e-02 1.0803883238438061e-02 -1.0607565398761558e+00 -5.2964436091379952e-01 -1.6712343886637928e+01 -4.3977731342429105e-02 -1.4741170926673242e-01 1.1348532336537716e+00 -1.0288370031002676e-01 -3.2336950175938899e+00 1.2298782841424583e+01 5.0247797153833851e-01 1.5668197166387201e+00 -3.7962336293872646e+01 4.4608657816759933e-01 3.8673267629714625e-02 1.9089147328107927e+00 8.5350858102542715e-01 -8.0639005766615579e-01 -6.5054983000139344e-01 -1.2972350036140519e+00 -6.8891853836351613e-01 -5.6775671318066415e+01 -1.2115669260704132e+00 4.8495669664441632e-01 1.6883271168203073e+01 4.9319780987566491e+00 -1.3036506710821243e+01 4.7635185996613473e+01 -3.2708241412916692e+00 -1.9801923890831574e+00 6.4123858350055855e+01 -3.2535049878407563e-01 -5.5965137655980968e-01 4.7087429961898764e-01 -1.6199356760049561e+01 -3.9625147695378082e+00 1.0967191968646013e+00 -8.3018076432579306e+00 6.4996327108803484e+00 -1.4486133093743342e+02 -9.6782824253989475e+00 3.0164123438683959e+00 -1.0424631627626366e+02 4.7507969865773010e+00 -7.4463932646828795e+01 
      </Row>
      <Row Index="18">
        -7.5571061681025054e+00 2.3441729243156465e+02 2.2935905997651926e+00 3.3353094132748042e+00 -2.1998166619803811e+01 8.9494832752456788e-02 3.9548235823125566e-01 6.6527721420174935e-02 -6.4335972538585939e-01 2.4037803654960035e+00 1.4688676131925034e+00 -6.4670187501635690e-01 -1.1487572309388838e-01 9.4156332364890588e+01 1.2184123551501744e+00 1.1415786547770210e+00 1.9714351390665904e+01 -5.6280381645888522e-01 1.8765938136547888e+01 1.7698457281898874e+02 1.7741457913643570e+00 -5.0330559599293445e-01 -2.7967241286558313e+01 -1.1673595097761804e+00 1.7735094566822607e-01 -2.3470518836423548e+00 1.4648875935833339e+00 -5.9744753524503125e-01 -6.1157953734090560e+00 1.2129213137059063e+00 2.0050289330971234e+00 1.4545568352763013e+02 2.8230653607099937e-01 -1.8122827291784906e+00 1.9010514889087307e+01 -6.1044715188560672e-01 1.4582137397210644e+00 1.3257523743936062e+02 -6.8706087703279062e-01 4.7331879445435175e-02 -7.5307110524345386e+00 -6.2751898504237597e-02 2.9930032533772111e-01 3.3542489005602433e-01 -2.4126380823129709e-01 -2.5364655276029147e-01 -8.1102912147341985e-02 -1.7598970145612547e-01 2.1424877391657916e-02 -7.5361969340915760e+00 -3.1758476822709464e-02 -2.5882037517407797e-01 1.7906746170711585e+00 3.7103962755342723e-01 -1.7717291799197108e+00 -1.6584883733890626e+02 -1.4216107983812343e+00 2.1079840759706620e-01 2.4491895735290424e+01 3.1798434515827961e-01 -4.9812489780966929e-01 7.7847194819021581e-01 -8.5268769896190388e-01 8.4616343789069459e-01 7.6995742030480585e-01 1.2134059975708513e+00 3.3733807738925758e-02 -2.5389826732043133e+01 -3.5040619896723268e-01 4.1779445672946314e-01 4.9097350147436529e+00 4.7340405222667789e-02 -2.4235500205456217e+00 -1.7466203605255706e+02 -1.7507461206779307e-01 -2.1633661590451556e+00 1.8971537961464854e+01 1.2698763688880814e+00 1.0976429386591455e+00 -3.1596757480014919e+00 1.2025242365935149e+00 -2.7567883905603496e-01 2.6003856734985509e-01 9.5393217790919671e-01 -1.6527498136206002e+00 -5.8601026603391453e+01 -1.2326703830967345e-01 2.2260053182662592e-01 -3.2094815789148463e+01 -1.6337572539216487e+00 4.6226986236495984e+00 -6.0986045962257037e+02 -1.8898279063194742e-01 1.2001670784061602e-01 2.1266581146729312e+01 7.1526646979225394e-02 -4.3430184821355056e-01 3.1538324316058342e-01 -5.0681151607986785e-01 3.3369517454088005e-02 -4.4370673746035294e-01 1.8417107758858953e-01 -6.6695793034621531e-03 -2.9485405964412113e+01 -3.0234321754878074e-01 4.5950500650726595e-01 -5.6905048869794683e+00 -3.8094701408138937e-01 7.6449980215775071e-01 -4.1812712831975898e+02 4.5085459803957306e-01 2.2149610510088127e-01 3.1745804596177447e+01 9.7881561300329767e-03 -4.5116737152383735e-01 2.3730794421227608e-01 -5.3793406798318594e-02 -5.0646111966163665e-01 1.0824613680790662e-01 5.5541591641557808e-01 4.0525173701621203e-02 -1.5121398855433736e+01 -5.3376636574584713e-01 3.0764158241037620e-01 -2.3456220324181469e+00 -5.8555122331804577e-01 1.2816978394228071e+00 -1.8609542097639985e+02 3.2499789960430903e-02 -8.1038250093102282e-03 -1.5563443592272606e+01 8.0843199393595161e-02 -1.2047922037933606e-01 -4.6600672846416960e-02 -1.1703918038198013e-01 6.1351588979519089e-03 9.6486791732303345e-02 -1.5917640162581392e+00 -1.0094053718800211e-01 2.1994755055520404e+01 -1.5705343361932672e-01 -3.5930985969219009e-02 -3.3388782029929351e+00 4.1348403640891068e-02 6.8065846795940583e+00 2.9568161604845500e+01 4.2739304947027401e+00 8.4132693912070144e-01 -8.9789275446807054e+01 1.1653599927691349e-01 1.5885642635541926e+00 -4.9851078243171756e+00 1.8750308294451137e+00 1.5514951003004525e+00 -3.5592189917401171e+00 1.6657755103766538e+00 1.9768678921080973e-02 2.2826920631259452e+02 1.4100997366947521e+00 -4.4163728250094270e-01 2.3014838732311958e+01 -2.2775308544869413e+00 -7.4755011780752668e+01 1.2689188057235967e+02 -1.1605760626026161e+01 -3.9578090076202415e+00 1.7181570906924856e+02 2.3296298609002406e+00 1.2117416383850745e+01 2.3043650264448328e+00 1.4226589181386050e+01 -9.3424497500623183e+00 1.2405421666633121e+01 -1.3046213540783313e+01 1.2643790386600813e+00 1.3737677005010565e+02 -1.3307653157004808e+01 -2.0952803065398138e+00 -1.6907944778169784e+02 4.7118623516010558e+00 -6.6431116484053419e+01 
      </Row>
      <Row Index="19">
        1.2563652070289453e+02 6.8554950097970635e+04 -1.9342014385227085e+02 -1.7267760067564177e+02 3.6647316510767669e+03 9.9223224855778653e+00 1.7128976658079370e+02 1.7713194011781374e+02 1.7777633755883187e+02 -2.3053810448276386e+02 2.4542100230208746e+01 -2.6006261742830975e+02 -1.0480633618014144e+02 -1.5427713201986007e+03 1.2758585774803259e+02 -3.9000434457850531e+01 5.9400160362035967e+02 1.5618865310683864e+02 1.7698457372984620e+02 8.2296327988527121e+05 -1.9105042812364792e+02 -2.2833521044704895e+02 -2.3377229119298809e+04 2.7307313729461271e+01 -2.0493517089912302e+02 2.7526991173988256e+02 2.3093849415022495e+02 7.1747061364314959e+00 -1.1581149501497755e+02 4.9291772571303477e+02 -1.7349213336574962e+02 2.3104586844186189e+04 1.8653044760950444e+01 -3.4856881870283587e+01 -1.4872724221013759e+03 -2.4069259526591702e+02 -4.5446012348053429e+01 6.0969511343678096e+04 2.0262059387841674e+01 -9.2256215744442649e+00 -1.0742010361963403e+03 8.0772404490913274e-01 -1.8358049514273169e+00 -2.6805352169601335e+01 1.7138891783879430e+01 5.2669921424747727e+01 1.4468931926161755e+01 4.8064541583750341e+01 -3.3359950310742938e+00 9.8067721801007319e+03 -2.4879782155019186e+00 -1.8354106291598633e+00 -1.6234658386223310e+02 -4.4462036740495854e+01 -3.2999914231502061e+01 3.4327538845719413e+04 8.1487185791377954e+01 9.1689981881016791e+01 5.1604109008442301e+03 3.9745022538587392e+01 2.0820291654003444e+01 -4.1278899830090495e+01 -5.4075352647275281e+01 -2.8199207521378405e+01 1.6454373570136340e+01 -6.6382976976042798e+01 2.7028957930641010e+01 1.4517790524884285e+04 -2.2664116513664791e+01 1.6809335802239694e+01 1.1319351085539674e+03 7.6720470475257386e+01 -1.3169517376741445e+02 -2.6311998774198990e+04 1.2879937956608435e+02 2.5722570331930683e+01 5.4425208654197422e+03 -3.9695432276239671e+01 -4.3762312016690203e+01 -3.5558094751318322e+01 -1.7475743579708023e+02 -1.4420557236846642e+02 2.9435215682182547e+02 -2.2326757936630392e+02 2.7031250168712398e+02 3.2033440683334975e+04 -1.9274172145687305e+02 2.8773551292464850e+02 -1.7090150872846571e+03 2.1299321583454343e+02 -1.1934528346796699e+02 -4.3522848936830618e+04 7.6982535971139470e+01 5.0161416639737809e+01 -5.8641343434895794e+02 9.0471577115247328e+00 -2.4037940799807075e+01 7.6502771544616991e+01 -5.1610698812917803e+00 1.3265758581200885e+01 -2.5532554530204152e+01 -9.8689841470422834e-01 1.2940736882979955e+01 -1.5477752560817089e+03 -6.3443570247659494e+01 -6.6579680773422467e+00 -1.1896061096833371e+03 2.9709554648961529e+01 -3.2421289254030398e+01 7.9392214933725001e+04 1.6443835831822753e+01 -1.5835581787029838e+01 -2.1449893516928223e+03 -2.7550519482255851e+00 -2.0806449423932918e+00 -7.1441525760914388e+01 -1.7506005454451561e+00 2.3438242202285437e+01 2.2412392919481135e+01 -1.0082595779856291e+01 -4.0705071323631046e+00 3.5316501292851890e+03 -6.7340213459190522e+01 8.4174569483286632e+00 9.8392135430190865e+02 5.6374667929273144e+01 3.2437129377461865e+01 2.8950677140179185e+04 1.2206412931005445e+01 -1.1745037382209915e+00 -6.1474573021616934e+03 4.2476636728637210e+01 1.3245132731968363e+01 3.5344295906990766e+01 4.9739823263701624e+00 1.5933509610043242e+00 -2.2482838791946506e+01 4.0566004071548605e+01 -7.4064759096420858e+01 -4.0316312283322063e+03 -3.3396877019961670e+00 5.0161357668814048e+00 -6.8068510921169673e+02 -6.4002487215559274e+00 1.4758856200467199e+02 -4.4648394654074618e+03 -2.3743158389438486e+02 -3.5766642698933549e+02 2.0989925933688905e+03 -1.0603070199584010e+00 -5.4660165866072532e+01 4.2812431110592843e+02 2.3727618205061000e+02 -3.3401636823033937e+02 2.0697323902255764e+02 -1.1968861390660095e+01 -2.6547429613708118e+01 -1.1381386381765406e+03 -2.6649147124836588e+01 2.0060229790905032e+02 -3.3550797137503105e+03 6.5312471497302340e+01 1.9750504747958330e+03 -6.2919254819515278e+04 -8.1286995656938961e+02 3.5704513698972005e+02 -9.5144856131696710e+04 4.9678147216646175e+02 7.9647641543608188e+01 -6.2731243212548350e+02 -5.0726904698476812e+02 7.7374950024507655e+02 6.9820560875755473e+02 2.3647000446415041e+02 1.1529379804860982e+03 7.1123024237734950e+04 -2.3574992579412246e+03 8.2251088031262043e+01 -3.8199193091949499e+04 -4.7977741378143128e+02 6.7476569749997216e+03 
      </Row>
      <Row Index="20">
        2.4239602618765219e+00 -2.0702571202808275e+02 -1.3917233459358236e+00 5.7139819324719254e-01 1.5619260559068792e+01 4.5193563551151417e-01 -6.0257487878655325e-01 -2.6523629828086359e-01 6.5377683640464035e-01 4.1230203784521291e-01 1.1837522929708051e+00 -1.5669870389807894e+00 -6.2950486838641062e-01 -1.1639725435134796e+01 1.4449541843499725e+00 1.0440616526728013e+00 -1.0121125756408942e+01 -3.2343478302305911e-01 1.7741457916628436e+00 -1.9105042789341434e+02 9.0309386876245910e+00 1.5786627989094637e-01 1.3260985985125433e+01 -2.7007027214161988e-01 1.3376419894742586e-01 -9.0462557815780709e-01 3.9924533893254688e-01 -1.3403338379873535e+00 2.6335285441571188e-01 1.3223217602330162e-01 -2.7105677296689817e-01 -8.1312027975032350e+00 -4.0366183730699362e-02 -1.3547199037730977e+00 -9.2342573870515707e+00 -4.7928467161127863e-01 -4.2591197723515051e-01 -7.4944205244147213e+01 6.1519473921130974e-01 -1.1012806576007658e-01 5.9043116472552306e+00 -1.6100094160260592e-02 -2.2574408193059031e-02 2.0999579419754955e-01 -6.5247375785002559e-02 -4.6850828057161636e-01 -6.1097426834209316e-02 7.4129226557097405e-01 -2.7950045732010181e-02 -3.7128130398525535e+01 -5.6572150636772685e-02 2.9446502404674918e-02 1.7258212979718608e+00 -3.1017295315584370e-01 -8.0852969872728586e-01 -1.9333625139725450e+02 7.3783655841246887e-01 2.7065162929105751e-02 8.6060914586960422e+00 7.4971642996736795e-02 1.2497886673333367e-01 5.8018951874581504e-02 -3.5609273596690094e-01 5.7450995882331191e-01 3.6951952916993491e-02 4.8690098533225590e-02 3.0076381188678203e-01 -7.9518060067370499e+01 -9.5584094510876849e-02 5.8511106635280663e-01 1.9623034445574450e+00 2.9661519878154052e-01 -2.2969862180129885e+00 1.5122459884426979e+02 -3.0137520962899789e+00 -1.2389037664180904e+00 -6.0102360200605141e+00 -8.5231556273184328e-01 6.8954645099331624e-01 -1.2157007047884290e+00 -3.4561864658844710e-01 1.1965899559405833e+00 -7.7995523204426065e-01 9.7716089785769178e-01 5.0155758388618632e-01 -6.4287338672376720e+01 -9.6261365140450872e-01 8.2915916902730269e-01 3.2975376426816947e+00 1.1315555362679608e+00 -5.5726480550750257e-01 -1.3297326104330864e+01 -2.9981970125225712e+00 1.9775922673396273e-01 -1.0738551210821683e+00 2.0460544759965243e-01 2.6193050847048482e-02 1.1529900823628889e-01 5.7155897303913239e-03 2.8688474395545804e-01 -3.2405784954494976e-02 -9.3573861557454174e-02 -5.6163988683460286e-02 6.4647881958240376e+01 -2.0539496693171094e-02 3.2282539785733699e-02 -6.8280825859354621e-01 2.3833669423979151e-01 3.4114564160979910e-01 -2.3371317765822283e+02 -1.1935619816485046e+00 2.9751226911851358e-01 1.1798838718546692e+01 -5.0709334979378046e-02 2.4007786203566006e-01 2.4014751014268737e-01 -2.2299691592102100e-01 -5.6984303494500621e-01 -1.7401527413056783e-01 -6.8500228927161533e-01 -4.1344653097025452e-02 2.4522321317635090e+01 -1.4170185472889979e-01 -5.4604165471068100e-01 -1.6667297847617171e+00 7.3199829049852316e-01 -5.6924862317837666e-01 -2.5074673353388886e+02 8.1964943517289024e-01 3.0633127505308989e-02 3.5962122443835156e+00 -7.8204549681060817e-02 6.4530768897194710e-02 -1.0001616324512810e-01 2.2196950205264360e-01 2.4744030465507924e-01 3.2759176265983569e-02 9.6697924970978733e-01 -3.5876306753315390e-01 9.3676530691807596e+00 4.4681726906162123e-02 1.3971808067768221e-01 5.5145184942832568e+00 -1.0056180121257813e-01 1.6808435061475953e+00 2.0656823426471362e+00 1.9321067415200437e+00 -3.5282219734100484e-01 -2.1080672910503246e+01 -5.9581336846445554e-01 2.3019529808212544e-01 -2.1763930449927180e+00 8.3108561348775079e-01 1.7291319932568749e-01 6.0336741211637201e-01 -4.0868830979037929e-02 -5.1115088807402520e-01 2.1274785891127031e+01 4.9227616817445735e-01 4.4137135858893650e-01 -4.1962701779953768e+00 -1.2062943757380573e-01 1.3323242744303542e+01 -6.8541105854579683e+01 6.9334574307299235e+01 3.3005591147039226e+00 -1.3259130270741935e+00 1.4314938094619833e-01 -3.0022309102464870e+00 -4.9855985953667092e-01 -8.3753940879684086e-01 -1.0021544530379678e+01 -6.6993791741145614e-03 1.6428593652841528e+01 5.5576018405158152e+00 -4.6849870920021672e+01 -5.0474525604340883e+00 3.7692294297046445e+00 6.0017759177577453e+01 -5.9735469320795467e+00 -7.0266312352968015e+01 
      </Row>
      <Row Index="21">
        -8.9252098214447750e-01 -3.0347851995086060e+01 -2.4338271339838205e-01 -2.0728315959917514e+00 4.2549604871331450e+00 7.6266581791697230e-01 1.7252755190153590e-01 -1.4010431376364432e+00 -3.1564991408433135e-01 -5.2185035566336080e-02 3.6388445191247343e-02 3.9705395234033980e-01 6.4185444848224860e-02 -1.9525363916187068e+01 -7.6013350852590289e-01 3.1385643131757357e-01 1.1999733890388486e+01 -1.0493879483117519e-01 -5.0330559603116842e-01 -2.2833521067578198e+02 1.5786628020425386e-01 8.2317609370474507e+00 1.6527690304372378e+00 -2.0145569046591139e-01 -1.0053481259062069e-01 4.6692148005306455e+00 -1.3547835269746283e-01 -5.0591979864035519e-02 5.8761191330314566e-01 2.5948048656077893e+00 1.8224860632736214e-01 6.2080079233825520e+00 4.0200312151265488e-01 1.1427027478071607e+00 1.0024097337472305e+01 -1.2945403237108422e+00 -2.7267635327802753e-01 -2.9250993748746339e+00 -1.4355824520855420e-01 -1.2772543137081938e-01 -1.7639815732654558e+00 -4.6807839812182540e-02 -9.0536196986366890e-02 -1.3272587320253482e-01 -3.3717386124906101e-02 -5.5129727420180630e-01 2.2584298235404160e-01 -1.8556625753978206e-01 6.6768465544220737e-02 -2.1560696471004390e+00 -2.7221497955306317e-02 7.7750918561858701e-02 1.8865450196324747e+00 3.0170943467486183e-01 2.0666875876536928e-01 9.2057432003956350e+01 -3.1391145421420852e-01 -2.9890293772835328e+00 6.9908103731747913e+00 1.4116334234436378e-01 9.7489573384858252e-02 -6.5960197340121329e-01 2.8530560530903298e-01 -5.5837266344536174e-01 -4.6830656624639566e-01 6.7748869504505649e-02 1.0681776606815356e-01 -2.1624899901724589e+01 3.7607132640592941e-02 -1.8191886170886429e-01 3.1027320275985506e+00 -2.4088327992250044e-01 1.1245280193453571e+00 8.7749568999771711e+01 -1.4486195353863964e+00 -4.2624985033807619e+00 1.4200902824906784e+01 -5.2074692100920084e-01 8.3467088752738128e-01 -2.2836616118858073e+00 -5.5391924851589813e-01 -7.2246743497017607e-01 -1.7038988334489504e+00 -1.0709171545063894e+00 -8.1199797770757032e-02 -6.7009429103605697e+01 -4.8841499900959540e-03 -1.7525246849790381e+00 -1.1828819341310325e+01 3.4542112110284040e-01 3.5300722582023336e-01 4.4610988590962691e+01 2.5382720913272483e-02 2.0712035108175986e-02 -3.9897502014241315e+00 -2.5355034629570561e-02 -2.1903131933079578e-02 -5.8665427673668491e-01 -4.7519685510055809e-02 6.5811107851317618e-01 -5.3880727078836621e-02 -9.2330669340895843e-02 7.8856000235696180e-02 -9.0645992565404612e+00 6.2091431488054544e-02 -6.1241192551791501e-02 1.2396615734185912e-01 -6.9747386909611034e-02 6.5108428941578644e-02 -1.0177049679030944e+02 -3.0354380606222620e-01 -2.9317167645762443e-01 6.8950426510756460e+00 4.3275272775559204e-02 1.3397819575994774e-01 4.7747420285648845e-01 -9.7495262090303736e-02 5.7710525888626263e-01 -2.7544216390034393e-01 5.8250353483322814e-01 2.5048709723721252e-02 -1.7507347216981515e+01 8.8686945467062517e-02 -9.3512331922533498e-02 1.3621773422140908e+00 -6.3668059973506852e-01 2.4434809987242143e-01 -1.1495642509482906e+02 6.2756501846489954e-02 9.3358007465419432e-02 -2.1331490055991527e+00 2.5337488422964438e-01 1.8673391843649648e-02 4.1117056204276514e-01 1.7535019681901273e-01 -7.0239356902199943e-02 -2.3462129853213565e-01 -7.5058066256277556e-01 4.1862037894721205e-02 1.7519856284062676e+01 5.2559981123877386e-02 6.6567797089587280e-02 -3.8239649812834982e+00 -7.9651315277649015e-02 -5.5413088383331921e-01 -7.1438278764623675e-01 -1.2107854887552474e+00 1.7390329321616402e+00 1.0511037934391585e+01 -6.7370663285462040e-03 9.0570536372332722e-01 7.7121656672959382e-01 -1.0718860976453153e+00 -1.2283122779770843e+00 -1.0308547207053218e+00 1.7486645473362112e+00 2.0423881279026590e-01 -8.5775806940996333e+01 -4.4244350167379509e-01 -2.2127730296385417e-01 9.0869189866437203e+00 -4.7004208947947557e-01 -6.6649541113187141e+00 -3.6120408741741315e+01 -2.3453774226360817e+00 6.9788596913259662e+00 6.4555578715214494e+01 2.9375189832213735e+00 2.1196105976859414e-01 6.7820093147667873e+00 -3.5992274295197202e+00 1.8003659127668978e+01 -2.6171917885918106e+00 -1.1252018414327402e+01 -6.6399792501400157e-02 -2.6494218340183586e+01 2.4430042715142335e+00 3.6248043445573330e-01 -8.7377596158805574e+01 4.5267886578203287e+00 -2.7981874340550178e+01 
      </Row>
      <Row Index="22">
        1.3557514163164488e+01 2.6692835495994459e+03 2.9712792521257306e+01 -4.0859891768577143e+01 1.0004932014308029e+03 -9.8894121161116644e+00 -1.6433465470602819e+01 -7.4839678650295099e+01 -4.6270300673710949e+00 6.3616051324954697e+00 -2.4219940677339387e+01 1.6756041460248952e+01 1.0917200678129007e+01 2.5408676444965881e+03 4.1923800602864363e+00 2.1589053985092846e+01 -2.1772151103849052e+02 -8.3529348092126803e+00 -2.7967241448590951e+01 -2.3377229115308386e+04 1.3260985967361750e+01 1.6527689814634385e+00 6.3598082920087227e+03 -2.3727260482540729e+01 -1.4473345260731861e+01 -1.4570735568108470e+01 -1.4941412651065786e+01 -1.7003852021981345e+01 4.2845063632011509e+01 -1.0988209569555939e+02 -1.1447501652596369e+01 1.3753703078191336e+03 1.5082651445354998e+01 4.3519887024295670e+01 -1.0227413571346689e+03 3.4941848593857003e+01 -4.2803521014477166e+00 4.6097927452307176e+03 1.7971168933922570e+00 -2.4945899330812153e+00 5.7450155559264158e+02 -2.1037332250520921e+00 -3.6288206538446457e+00 1.1965684833100827e+00 -1.6314911841282087e+00 -8.8733621643822502e+00 -4.7593429263907829e+00 -2.9392742162201051e+00 -2.0103640820990276e+00 1.6108585317152514e+02 3.4224479605686944e+00 2.9924632174419985e+00 2.6137402236712759e+01 4.1437598532803381e+00 -2.8337020170895357e+00 1.4279176226103862e+04 -2.5416334688095503e+00 4.1970823816016134e-01 -6.2841680767394223e+02 3.7047441991823096e+00 8.2334961053848890e+00 2.0791421247736253e-01 6.6908533021726662e+00 5.2634449329984472e+00 -7.6576235220768467e+00 3.4479280906168057e+01 7.3725588811429281e+00 3.6571194782271414e+02 -5.5938645450092626e+00 -6.8825780363534168e+00 -5.3056033868165997e+01 -1.4499229619526773e+01 -1.3284748226183609e+01 1.6241025126185566e+04 5.2747716230837636e+00 4.6743387201075095e+01 7.4269030725105040e+02 1.1035314880983016e+01 -1.9652852320315112e+01 8.7953331542237805e+01 8.7070598471771632e+00 2.9511119751299425e+01 5.5028326374997199e+01 5.7920177972632985e+00 -8.4191998760078945e-01 5.7473443477872070e+02 -2.2891493792000972e+00 -4.1106562477947314e+01 4.5093893691664721e+02 -3.9027286387711143e+01 2.0388045283773391e+00 1.6811755446091638e+02 -1.6644622366584642e+01 6.0793724934001148e-02 -2.5167566262852657e+02 2.4074931150241135e+00 8.2076023922627428e+00 -4.3020747750480552e+00 1.4268292286729394e+00 1.5006562971750768e+00 8.1495801281128024e+00 4.4391946967256910e+00 -1.6523828452056857e+00 -9.2763702490713831e+02 -5.3262345397045658e+00 -1.7408457158418118e+00 1.3201426330504540e+02 -9.3790815561136114e+00 2.8641081565115201e-01 -8.1449399353757435e+03 -2.9296125844039125e+00 -6.9681713936579759e-01 1.1402577635423072e+03 4.3761660671668423e-03 7.1365002573249967e+00 4.6022438402477430e+00 -6.1544686163882307e+00 -1.1839431606842162e+01 -6.9299338766177243e+00 7.7961396528138227e+00 -6.0083200404621873e-01 1.7860510828715051e+03 -6.3224692085555532e+00 -3.4063750768038972e+00 -2.1774892789433818e+02 -8.2232951175636195e+00 -1.3580665468281035e+01 -1.6776650021734655e+04 2.8092707323481250e+00 2.8565376218568930e+00 1.0718755324086414e+03 2.9570167708522810e+00 -8.0949066946910819e-01 5.9828556278977052e-01 -8.8730177043575820e-01 -2.6932729253957586e+00 2.9248344626550988e+00 -1.9357142218049603e+01 -4.5498958000200673e+00 3.5517860536803646e+03 -4.1374825327176801e-01 -8.6500601009383082e-01 1.7079309217077432e+02 4.2743809858541226e-01 -3.1051997023446347e+01 -5.7102505771160941e+02 3.5970883018598101e+01 4.1485386847189645e+00 2.7664710225542135e+03 -2.3640913831970213e+01 -4.9140679412737526e+01 -9.6635438803045872e+00 -9.2823160341171711e+00 1.7948390977851602e+01 5.6436894885656145e+01 -7.3508280180193807e+01 -3.6227026514173417e+00 9.0278392875104146e+01 1.4626278056599659e+01 2.5173942069877114e+01 -5.2772921913790265e+02 -4.7373214564760140e+00 2.3486362602885947e+01 5.5552127326790014e+02 2.6132258289083484e+02 8.1200494994018300e+01 8.6274324668431909e+03 5.6513737266286626e+01 -1.7197917793247223e+02 1.7916880462121298e+00 -3.9819667113935381e+01 -1.8666043965037517e+02 -2.2270994017979859e+02 -1.3707682996416179e+02 4.8992114103333734e+01 3.6403373992379587e+04 -1.1326754450913631e+02 -5.3437299580973558e+00 6.6652167922520466e+03 4.5891862825585633e+01 6.0130772375138040e+03 
      </Row>
      <Row Index="23">
        1.1487072901239344e+00 -2.2779430073615572e+01 1.8156543700689687e-01 -1.8417743754497362e-01 -1.2957218639507026e+01 -5.2171793636129471e-01 5.0575746443882641e-01 4.9853461842346347e-01 3.4969369044881871e-01 -7.7156841678145760e-01 -4.0047305059560756e-01 9.1163412547709188e-01 5.1801863573713458e-01 5.2784289824010955e-02 1.6257907804644603e-02 4.5329544151505952e-01 2.4847398183324190e+00 4.3729336805140478e-01 -1.1673595088378481e+00 2.7307313426986070e+01 -2.7007027188095978e-01 -2.0145569006379277e-01 -2.3727260426641376e+01 5.7227096960054800e+00 3.6865347655889114e-02 -1.4561787707067346e+00 4.7656429131776640e-01 1.1361829475502574e+00 -8.8965222769187491e-01 2.4988331923775995e+00 -1.8959820548768151e+00 -4.5155341808930451e+01 1.0257338539814147e+00 9.3840205784241115e-01 1.1820255764984388e+01 -7.5568985944593736e-01 1.1866000129252763e-02 -9.8755182066667935e+00 -8.5628503538477951e-02 -9.1235070808550311e-02 -1.0520576636673225e+00 1.8964894681869118e-01 6.4762119726416018e-03 -2.0183427535255655e-01 -1.1360137825853250e-01 -2.6994625027156405e-03 1.4455441995384810e-01 3.4513029531080491e-01 7.3297915970385596e-03 -3.5220614517434240e-01 1.4808472634216925e-02 -3.4506549123659705e-02 -7.1669938829230118e-01 -6.4746444158415239e-02 4.1913421022909958e-01 -1.2066957510018173e+02 -2.3627989403191663e-01 7.8739009881932415e-02 5.6956140070567809e+00 -1.3393325416002493e+00 3.1208448094993207e-02 1.0074254435822461e-01 7.9873336607412054e-02 -3.0309189467964659e-01 1.8936899393923312e-01 -1.2580218943266086e+00 -5.0774589033205941e-01 1.1287475508204242e+01 -1.2532410497953181e-01 -2.3443746814804564e-01 -7.5137331883853014e+00 1.3301172982215795e-01 -5.1832051207954977e-02 -7.6308627522122435e+01 -3.2699664334673267e-01 3.6059504057978753e-02 -4.4947039250821419e+00 -3.6310496568286372e+00 -7.9160377667870585e-01 6.2414815105852228e-01 -9.9220578126265280e-02 -7.5551162862976962e-01 1.0851084411447465e+00 -1.7539564233889617e+00 -1.9940520739609729e-01 1.4533888284749954e+01 -3.2093024973249001e-01 -1.7233250841883657e-01 -2.5217499387734854e+00 6.6083740058826734e-01 2.2262896735869814e-01 1.3190022543964233e+01 3.9128463581331219e-01 6.8542195364539538e-02 2.9406533418003873e+00 -6.9238781353847756e-02 4.8604134500465079e-03 2.4535704539574787e-01 -4.6045418954117207e-02 -9.1158877885097855e-02 6.8586193156638942e-02 -6.3517908617236857e-02 -3.4093818467971948e-01 2.2298498844841887e+00 -1.1494573807535827e-01 -3.4906364541289814e-02 -3.7690123784559848e-01 1.1984068686409263e-01 2.7836456880319105e-02 6.5040569568881850e+01 1.0558621534557933e-01 2.6358347864851778e-02 -1.0547263429064982e+01 -1.0677806026838585e-01 -4.4794661899057786e-02 -3.4396356054288718e-01 -6.5507767087531130e-02 1.2312344142905224e-01 3.4545599066845512e-02 -3.4107804102304684e-01 1.2751601541776347e-01 -9.6948513382833159e+00 -9.7354569325225904e-03 2.0175441650404125e-01 -1.8508483045068225e-01 1.4422513048026372e-01 1.1270666292517625e-01 8.4188501281607984e+01 -1.5585007638448367e-01 3.3180619849531467e-02 -1.5768909612861890e+00 -9.4526654913773367e-01 6.1771371432256778e-02 5.0359365372347281e-02 8.1982536245826049e-02 1.5101597036093706e-02 -5.2710562102095793e-02 4.1708227753296967e-02 7.1597090196878632e-01 -1.9024745636400205e+01 3.2636136583893027e-02 9.9726827703592896e-02 -2.3873670489678664e+00 -8.8763074583515511e-02 -1.5022504174389884e-02 -3.1755896262959027e+00 -5.5943650686982593e-03 -3.0430119321036952e-01 -2.6562757262977769e+01 1.6409366922773940e+00 -1.8769273352528504e-01 -1.6143759449137279e-01 6.9641423671388303e-01 -4.1591191858189536e-01 -9.8537054353975473e-02 1.8361156940522714e+00 -1.2567479610074273e+00 6.4829241518800078e+00 6.2017669917991070e-01 1.1824171379229798e+00 1.2750910875843982e+01 1.7445319404198711e-01 -1.8775893820543956e+00 -4.5917156855401515e+01 -7.4974686384125153e+00 1.4418578429000157e+00 -1.6778069752450483e+02 -1.3057588621641457e+01 -2.0971028929304669e-01 -3.1984523131011380e+00 -2.5903960792489655e-01 1.4992779687178381e+00 -3.3634798809612221e-01 7.6211360940335791e+00 -1.3343249548764192e+01 -2.1972385356763095e+02 -2.2467763481183312e+00 -1.5017893092106136e+00 4.9237882091271430e+01 -6.1993418216809704e-01 -1.8345769425721251e+01 
      </Row>
      <Row Index="24">
        -2.8238658643667625e-01 2.8129920478880484e+02 -7.0161157278325270e-01 9.1360171131784629e-02 4.1355508564976673e-01 1.2221368923302363e+00 -6.3335585328872757e-01 -2.9961391710424290e+00 -7.9860483001818094e-01 4.5852287976969541e-01 -2.5517479279774431e+00 -7.4756892949918086e-01 -6.6108623738232297e-01 -6.7931961478258842e+01 -2.6886867626638417e-01 -1.2517495977897861e+00 3.1378324730279559e+00 5.4904222779672010e-02 1.7735094703265875e-01 -2.0493517095921729e+02 1.3376419939301837e-01 -1.0053481230442468e-01 -1.4473345338025371e+01 3.6865347990250069e-02 8.6827530066433134e+00 2.3901705134545717e-02 -5.2451068811171453e-01 5.6912773016706275e-01 -1.5723619495070740e-01 5.7389406305685586e-01 1.0794171586323593e-01 4.8016184505479529e+01 6.8247003138975804e-02 -4.5452840179491694e-01 5.8055231181648601e+00 1.4249825546090467e+00 7.3072072596333637e-02 -9.9855722285674400e+00 4.4544459214794996e-02 1.0552841395519996e-01 -7.7851820971973318e-01 3.3649616518685463e-02 -3.7930128115902284e-01 2.7722311759769735e-01 8.9853293884929561e-02 9.8266132190871602e-02 -4.8599318531759222e-01 2.1947941682487923e-01 -5.1765347567122900e-02 -5.0421709730619586e+00 8.8564300688797629e-02 -1.3048360890468730e-01 9.6039576652948777e-01 -1.0103812555391374e-02 2.0546001883585774e-01 -1.7365163074012770e+01 3.9755870196558973e-01 -6.6315670951897859e-02 -7.0878822844719309e+00 5.7687064093951079e-02 -1.4529945196698507e-01 3.3488834468893280e-01 3.0621113585059326e-02 3.1232048700525400e-02 2.7580895891399848e-01 1.7349372294499510e-02 1.4290781030464766e-01 -3.4570990389958198e+00 1.6768174736128555e-01 2.6119629612924758e-02 -1.2032644851154695e+00 -1.2265439940490334e-01 1.1227903622345434e+00 4.5133228551602393e+01 1.7670418374625587e+00 4.4314273919648706e-02 5.9534248283873410e+00 -5.1808780506652319e-01 -4.5850359575880155e+00 2.3341770391184680e-01 1.6584217661410037e+00 -2.8115499661958870e-01 1.9604307368234453e+00 -6.4880576100407006e-01 7.7140680882814294e-01 8.5274549304396796e-01 -1.2587923644100873e+00 2.0241163448008921e+00 -4.2239004218803178e+00 -1.0703070326526563e+00 4.1927823430535299e-01 -1.2807947498563227e+01 -1.0936983254756083e-01 -2.0237605700690509e-01 3.2535516420433730e-02 1.8209190128821162e-03 5.4327350368686211e-01 -3.4964518390860511e-01 1.3332051178787943e-01 8.1193178871876603e-02 1.2521811059936283e+00 1.3062583175003950e-01 1.2059526204333834e-01 9.5726057195143923e+00 -1.0638322683027571e-01 -1.7536633937166200e-03 7.5967054636242826e-01 1.6890722801568764e-01 -6.5991254694315771e-02 -1.0394765485905856e+02 -1.0086953759474682e-01 2.1788642835642072e-01 2.8644791798936886e+00 9.2172937710340019e-04 1.1016937587897431e+00 5.3776411998734064e-01 -8.2845103756605004e-02 -3.1254735411547818e-01 -6.0285445538760030e-01 -5.5661360355864983e-02 -2.4005496272216792e-02 -4.5441857117613864e+00 -2.4181938180927701e-01 3.2373131106214181e-01 -1.4926545819792314e-01 1.0447346700708710e-01 1.3983603044993398e-01 -1.9989657168965508e+01 1.9057118630556280e-01 -1.9382657677347570e-01 1.1434726004688400e+00 1.6864421401861568e-01 3.2581277458102426e-01 -1.9074220485990989e-01 8.8736784883423750e-02 -1.0141889096162811e-01 -2.4720904744858174e-01 1.8404640095559088e-01 -2.4863091322105468e-01 1.0412949156090026e+00 4.3361932715631324e-02 1.5028386269631219e-01 5.3918866587196712e+00 -7.4810044704018530e-02 8.7556622606592571e-01 1.4868041719232679e+00 7.8269096005481442e-01 -9.6921417752955374e-02 -2.3681729544596521e+01 7.6571470972232758e-01 3.0173358037314428e+00 -3.0029322570873775e+00 3.0595699760479717e-01 8.5509886975532101e-01 -1.7359025968788009e+00 -6.6529581927478443e-01 1.0105768639026447e-01 2.5044053128689114e+00 -1.2414134823112781e+00 1.8693694306833097e-01 6.5247316299670661e+00 4.2361319572353873e-01 -3.8086916935793838e+00 -7.8335239882746777e+00 6.0716793276448797e+00 -3.4677015129600193e+00 -1.0509135886801200e+01 2.1196862685246742e+00 -2.4289879856705927e+01 4.1640313371343822e+00 4.8480303054965623e-01 -1.6568276001599318e+00 -2.2612759120605130e+01 2.1666501586032325e+00 4.4524745344100722e+00 -2.9988258010448394e+01 -6.9005246719603051e+00 -1.8435833326187616e+00 6.8452518351518705e+01 -1.8596824672568104e+00 -7.7222696751051657e+01 
      </Row>
      <Row Index="25">
        2.9831491805973037e-01 -2.1676273579654182e+02 -7.8463155039668042e-01 -8.8662844185709178e-01 -1.8359864395608177e+01 -2.9476583799100542e-01 6.2159495683605481e-01 3.8985889297478318e+00 -4.1222151291735309e-01 1.5617726898031387e-01 1.6159448673128716e+00 -1.1849157983949365e-01 7.8631523336003672e-01 7.5215813202159779e+01 -5.9829551764477773e-01 -2.6622606045212605e-02 8.3002815484062982e+00 -3.0755562812069875e-01 -2.3470518844518384e+00 2.7526991160004843e+02 -9.0462557823456247e-01 4.6692148006340108e+00 -1.4570735530088196e+01 -1.4561787712720011e+00 2.3901704725834527e-02 1.3218727903620866e+01 7.0031998394007222e-01 -1.8472286955157133e+00 6.6722341726315004e-01 2.5048297407564997e+00 9.3949201513739211e-01 4.8397115409336109e+01 -7.2601392482051041e-01 9.4011838320657937e-01 -7.9313698854933445e-02 -3.4162435413841488e+00 -6.0588818554360269e-02 8.7410287645894869e-04 2.8805637172881382e-01 -4.4713137091882982e-01 2.3708406021138231e+00 1.4841460852007271e-03 -1.4845314999222814e-02 -5.4655995544749558e-01 -1.4407336523876435e-02 -1.7000098431791244e-01 2.3748961915689926e-01 -5.5294849543298508e-01 -9.2633620466384528e-02 6.8116126520795541e+00 -1.3390705437986772e-01 -1.5389112831173515e-02 -1.3605756654951993e+00 -4.4068311688932937e-02 5.4504357306263529e-01 1.4346554631480944e+02 9.5861616555471851e-01 -7.9520215227143920e-01 -8.6278270865012434e+00 2.7648399604175200e-01 5.1184116085921050e-02 -3.4537138899650310e+00 -1.1130371419702152e-01 -4.2582113687809009e-01 -4.9423333057378471e-01 2.1378004793363492e-02 -5.7646977846828540e-02 1.0493852998519548e+00 3.2560441939143803e-01 -6.5888612012399150e-03 2.8641741252435908e+00 7.9847056725587984e-01 4.4478738508610893e-01 -1.2140439595032019e+02 -1.9779703736082517e+00 -8.0508789246845147e-01 2.7020529920960268e+01 2.9154723987711284e-01 -2.0427863381897537e-01 -9.3529119734971751e+00 -1.4947614255107194e-01 1.4643011773872383e+00 -1.2295011717050737e+00 7.6898584109623358e-01 -5.2246014325542944e-01 -6.0347854076254208e+01 1.4583010559265044e+00 2.8243725120568164e-01 6.2431350594239516e+00 2.9337163446903238e+00 3.7603465767711103e-01 -9.0255299130568019e+01 -2.6360466290837475e-01 2.2831070398652997e-01 2.5529981923099072e+00 4.2020129755951097e-03 -2.7418006559441466e-01 7.6494887108724363e-01 9.3359205840678749e-02 1.1959054830915805e-01 -2.5517071319860740e-01 -7.2443031360009291e-02 1.6168103127576772e-02 9.5984734079607392e-01 1.0624160828353588e-01 -1.1574586473151571e-01 9.5371804905075530e-01 3.5485785784658597e-01 3.1260792419293182e-01 3.4559396242698185e+01 2.4637308286486181e-01 -1.8308863804375830e-01 6.8692783392694992e+00 1.0703664575895724e-01 1.1432514616979006e-01 -1.2825023961960103e+00 2.6442758527965315e-01 1.2510295660499599e-01 -7.5159060599517602e-02 5.6681754476003088e-01 -1.0573408158570108e-01 2.0726043381941206e+01 2.0698710781433735e-01 -1.6355261599040105e-01 -4.4459960164456280e+00 -1.3033999423180301e-01 7.3599121929416575e-02 1.3258934543857947e+01 1.9109413011497800e-01 3.5756818383920752e-01 6.1535389465760275e+00 1.7907168276740787e-01 8.6576543850221857e-02 1.4362085049324549e-01 -1.3668406341193783e-02 -2.0179065660180351e-02 -2.8031633414134838e-01 -1.1143469127251908e+00 -2.0079859960659974e-03 1.3031480885219441e+01 1.2098861774380110e-01 3.6641049949287657e-02 -7.6974425380870493e-01 1.0386394894643480e-01 -1.4459232171529603e+00 -3.5815038777091672e+00 -3.7736344491117055e+00 2.8109120329408093e+00 1.8415134936997635e+01 -1.3861118165071917e+00 5.1424119061038798e-01 8.0346241643861074e+00 2.8275732192913454e-02 -4.3677030500984459e-01 1.3182988600588457e+00 2.8058346372498177e+00 1.1222524918614032e+00 -6.0144009361063304e+01 2.1934619726878141e-01 1.0421425958885480e+00 3.2522928360587091e+00 -6.0099583564356673e-01 -3.0255075639818898e+00 4.7536390622302541e+01 1.0492400324235806e+01 1.4737010645266736e+01 1.0841447246342668e+02 2.3147717726937032e+00 2.5378707099281446e+00 -1.3009605030047970e+01 4.7810573546733908e+00 8.2476270881887022e+00 2.0228137987079808e+00 -1.7889923527648158e+01 1.4786578937534500e-01 1.5415597676317094e+02 4.1409044766300767e+00 3.0811133324863675e+00 -2.5961040397883163e+01 2.5709499577049044e-01 2.1641590749892547e+01 
      </Row>
      <Row Index="26">
        9.8099646000560348e-01 -2.6870069338083277e+02 7.2932340104411009e-01 6.6495810479897610e-02 -1.5542501360566156e+01 -7.9078802154240879e-01 -4.3274575287177269e-01 2.2016407960879825e+00 -2.5600490309919599e-01 -1.3285539337842671e+00 2.9812242993413527e+00 5.6036160629710885e-01 2.9802400362497239e-01 8.8024007018858043e+01 7.5302881167612357e-01 1.1044372494899788e+00 3.2097517602025105e+00 -2.3765839122489163e-01 1.4648875936771981e+00 2.3093849407178411e+02 3.9924533855897754e-01 -1.3547835284801274e-01 -1.4941412643053553e+01 4.7656429124000937e-01 -5.2451068822516511e-01 7.0031998369591719e-01 2.9096948030673921e+00 4.8675083634986649e-01 7.9010928484352705e-01 9.6327379992610118e-01 1.9798603480766780e-01 4.0873359897729337e+01 1.4531913348981740e-01 9.4783911501466511e-01 1.9082716356568574e+00 -1.5518443320092958e+00 -9.8000102974751258e-03 -9.0029957737120228e+00 1.6078908608161635e-02 -5.8617956361122880e-02 -1.1401101650223466e+00 7.4534463238336360e-03 5.0107526977086758e-03 -2.1361808256160680e-01 -5.5283613654254465e-02 2.8609279336175469e-01 -7.6073715465443906e-02 -2.0145093884970033e-01 2.7824450534481744e-03 5.7290066080525639e+00 -5.2373729170417577e-02 6.6826191011765526e-02 -6.0325981894766989e-01 -7.7231465761308890e-02 -2.8292910505031799e-02 -1.2166105926835449e+01 9.0547389206833362e-02 3.6514661933401393e-01 2.3741772763105367e+00 -7.3221438108602932e-02 4.1812966793671844e-02 -2.1062244852133460e-01 -7.4142948631737282e-01 -2.4592710671829360e-01 -2.7834176705038516e-02 -1.7349802534673497e-01 -1.0211730136279004e-01 3.4430061890956161e+00 2.7253301875406366e-02 -1.5484744915902571e-01 3.9189996668246918e+00 3.0037025558899449e-01 -8.7739584503226031e-01 7.0690777331597303e+01 -1.5251340186895084e+00 -7.6560670446074486e-01 -1.8753050870843836e+01 1.1401924967662580e-01 6.1318926609740765e-01 -1.4374985102469915e+00 -1.3577134309681909e+00 2.7473160633702787e-01 -1.5335082785817935e+00 1.5093752042296289e+00 1.6077233759308207e-01 6.2385184319594664e+00 -5.6369891932251948e-02 -1.3676944916492975e+00 5.2295887600955338e+00 5.1515612061309257e-01 5.1611681457983305e-01 -1.3283536401044267e+02 3.7308241018511690e-01 1.7903102066452670e-01 4.0861180873730500e+00 3.4645234376242035e-02 -8.3543871927382440e-02 2.7845577389233656e-01 -1.5330857653027030e-01 1.4255800882339270e-02 4.8499352384225425e-02 -2.2438585241342568e-02 -7.9444197855107479e-02 4.1995376001425839e+00 -1.4369584570251261e-02 1.2081280568426100e-01 -2.5064407888862421e+00 1.6020979927683301e-01 -1.4155467302303837e-01 2.2401078816165487e+01 6.1688533032383308e-02 3.8025216203617457e-02 -1.1011158253872289e-01 -4.6442622622128032e-02 -5.1231056066447067e-02 -2.9134365797907225e-01 1.1286045032048941e-01 1.7609008772687529e-01 1.1909305212414267e-01 1.0492935805084336e-01 3.8161302720049403e-03 1.0851517973349317e+01 -7.3625141518318005e-02 1.5223994675467800e-01 9.0953840403320108e-01 -5.8904711708559349e-02 5.1946513774616607e-02 7.4243967728624256e+01 3.0195034140040544e-02 5.4030242687394647e-02 -3.4434134745630427e+00 -2.6123340000183681e-02 -1.4309678430562897e-02 3.1471949350374118e-02 -2.2528833805187076e-01 1.6550993718720156e-01 -1.4827157733512841e-02 -2.4657610536255170e-01 2.7272290696992663e-02 -5.0663528974385823e+00 9.2190635071613958e-03 7.8967771296205962e-03 -2.7216151961694912e+00 -9.8368982770247193e-03 1.4882128859397703e+00 4.2484520798932834e-01 -1.1513854470617657e-01 -7.9893752792599093e-01 -1.3051372037903757e+01 -2.2122949070558739e-01 -3.5645229134846013e-01 1.5136090115953742e+00 1.2016477791560565e+00 -5.4064551522195381e-01 2.2837975978577321e+00 2.6371058843539448e+00 6.2849746803992401e-01 8.6118698810691072e+01 9.1483809493546919e-01 7.7304936773103761e-01 5.9451283732063764e+00 -1.1819388232158141e+00 -5.6638335018042589e+00 5.3451284996615207e+01 -8.6848608317187015e-01 1.5959531086574135e+00 8.8111739658702618e+01 -7.2359270767243089e-01 6.5928569507742463e-01 -3.2460260428744316e+00 9.1193965904698686e+00 1.9931938262813524e+00 1.5259186995428617e+00 -3.8197451740293289e+00 -3.8095842378579903e-01 5.0979710488830634e+01 -1.4730583817890519e+00 -9.3531413920298778e-01 -9.4725366034342812e+01 5.3653238094050337e-01 5.7485900342806843e+01 
      </Row>
      <Row Index="27">
        5.6567441698816334e-02 1.2527672022058067e+02 1.2977660699841862e+00 6.0533525660724585e-01 -2.1001702637944508e+01 -1.2917857316513870e-01 1.4274958777703964e-01 -7.3575782255815114e-01 2.4202464276037894e-02 1.0141136394089316e+00 4.2781478418201146e-01 2.6207924786336125e+00 1.6002821996788819e-01 3.2179991344102113e+01 -5.0601441796342328e-01 -6.8331112130386584e-01 1.0588532614155664e+01 -6.5241316350897671e-01 -5.9744753420600061e-01 7.1747059801665429e+00 -1.3403338378780372e+00 -5.0591979863143455e-02 -1.7003852009575041e+01 1.1361829475723655e+00 5.6912773011976991e-01 -1.8472286953197670e+00 4.8675083649775025e-01 8.0744523440643423e+00 2.2954707471624441e-01 -6.6598634164277981e-01 -7.0549625159528384e-01 4.1928135608061510e+01 4.3733143522369783e-01 2.1428102351864426e+00 6.6355455127626035e+00 9.0840293595695376e-01 -1.5474579819357603e-01 1.1310492601825461e+01 -5.3296837503200867e-01 -5.4839336705045572e-01 -1.0985820207534509e+00 5.6413975375528239e-02 6.4732015883610036e-03 -3.0610161035101457e-01 -3.0565311152871592e-02 6.7248711791738935e-01 1.4962660691359805e-02 2.8795647770045329e-01 4.6154955755303567e-02 -4.4333267741457814e+00 6.1009709490220013e-02 5.2504812042617463e-02 -1.3871649108135484e+00 9.6678529809338012e-02 5.3771013775862109e-01 -1.7178855859201130e+02 3.2977011625369057e-01 2.2067114364241636e-02 1.7087910467007045e+01 -2.2446030989614574e-01 2.0756227057016685e-02 1.5581607245533391e-01 -3.8325484141197641e-01 -2.8595128874861189e+00 -1.6045473174946423e-01 -5.6293102362500658e-01 -2.2510589285876498e-01 5.1203419175152305e+01 1.9003920853356104e-01 -8.4887952393636334e-01 -4.5201097208143404e+00 -2.7875430450390437e-01 8.1319496908205302e-01 8.5759788326313043e+01 6.0091580135619904e-01 -1.7774702000583438e+00 1.1803572030396232e+01 -4.3314563958595376e-01 -3.1208933175262654e-01 -4.5376869923861118e-01 2.0193424587460118e-01 -7.7614875370880556e+00 9.8436313699519395e-01 -3.2437607440997893e+00 2.9028509643838118e-01 -7.5519210639753496e+00 6.0141918027925145e-01 -1.0682872418263738e+00 -1.7447245292573896e+01 -6.9749661690574394e-02 -1.0249739591466783e-01 9.4616713636616311e+01 1.2068511219466329e+00 3.1730262385548436e-01 -3.3793058043985904e+00 -3.8351859793909093e-02 8.9471670803867198e-02 2.6181182924423985e-01 5.2071446411424666e-02 8.2472879756575052e-02 1.7651554657789070e-01 2.0173539844916655e-02 -8.5140145726282229e-02 -1.1210991231082499e+01 2.6115798450283279e-01 -1.1307522892892430e-01 -5.8454925078078901e-01 -1.0361190292775080e-01 -5.6498636421969017e-01 2.1451496346306928e+02 1.0026547251197115e-01 -3.1866124310249455e-01 -2.1803385866468460e+01 7.0582182180224953e-02 -5.3527853229915934e-02 -4.7465613864599560e-01 2.8604636316049059e-01 1.8346188680600211e+00 -8.0231395810130834e-02 -3.5709006146569156e-01 3.9001869285065438e-02 7.4152360944912425e+00 1.7332803985036613e-01 2.1931641713918015e-01 5.1995209008219661e+00 -9.5457125903546367e-02 3.6212753895166727e-01 9.1662042797002002e+01 -2.3153392993013555e-01 3.5853905665501262e-01 4.1266573359967396e-01 -1.4231618424030934e-01 8.4993094542542447e-02 2.1633686306432853e-01 -8.3862740104347095e-03 -6.5158272726517563e-01 -3.2441448811730567e-01 1.1492066905824201e+00 3.5559048612080080e-01 -1.9765778939034334e+01 6.2448220666737247e-02 -1.2314114212595212e-01 -5.5148202199909324e+00 1.6148619221196459e-01 1.9940076362852632e-01 1.2087536784693548e+01 9.3796632560467652e-01 -1.0200579445429070e+00 1.2170470026845733e+01 6.0182592802606261e-01 3.4165980722620826e-01 -2.7067129427885321e+00 6.5408757210838298e-01 8.2490756538165932e-01 1.4908797591511196e+00 -1.1107525699077823e+00 -1.1816596766433740e-01 2.2255057594788489e+01 4.7405225671948376e-01 3.6731146589936436e-01 1.2560411259560968e+00 2.8760396170100022e-01 1.7618337229588192e+00 2.4264401275637034e+01 -2.0278378519785733e+01 1.0614201707964696e+01 -4.6531060855342517e+01 -2.4768054773054118e+00 -6.7623312636533761e-01 -3.8915241767336650e+00 1.8963096751117723e+00 3.4752885465055591e+01 -5.8250748549831517e+00 1.3655355746124428e+01 -5.2588328951614614e+00 -1.2084835336623811e+00 1.0000477374465756e+01 -2.3531723522841768e+00 -4.6030816826388943e+01 6.5956696795563485e-01 8.1196374578704848e+01 
      </Row>
      <Row Index="28">
        1.3384864966935699e+00 -3.7611333326389115e+02 1.6762987287380078e+00 -2.4625725015082884e+00 2.3829452084964185e+01 -1.5707092011266510e-01 -2.9661531612224130e+00 -1.6580429117213247e+00 -4.9345034276979316e-01 -2.3329500165464090e-01 2.0893412982548010e+00 3.5978773024662392e-01 1.6101143223804915e-01 4.4174747867087547e+01 8.8582053560841378e-01 2.2652457982454193e+00 -1.0867059859803099e+01 -1.7521175514246541e+00 -6.1157953739534321e+00 -1.1581149449929222e+02 2.6335285444187412e-01 5.8761191338018370e-01 4.2845063545242446e+01 -8.8965222750677819e-01 -1.5723619436980751e-01 6.6722341662628626e-01 7.9010928506998845e-01 2.2954707539318875e-01 1.1301737004108105e+01 1.1148288150178054e+00 -3.5575260301537637e-01 -7.6148794360661810e+01 1.0317153700800274e-01 9.0572782720489187e-01 -1.7379475905877840e+01 -1.2197497869734590e+00 -6.2734258700967316e-01 -1.3377983523642843e+02 1.8715799440168057e-01 -2.1454504773636174e-01 1.3744213005317796e+01 -2.7069723352923430e-02 -5.0282111401855234e-01 -2.6650350429690356e-01 4.2228235394404109e-02 -2.4417866564942100e-02 -4.6310243715004923e-01 1.7309808480837208e-01 7.6725702184801417e-02 -1.4848577641401157e+01 6.1334273592147132e-02 1.9356594608504896e-01 -1.6630692909301792e+00 6.0563528306623482e-02 5.4983485143142730e-01 1.4301803576291621e+02 5.0208350750003561e-01 2.5307278196741390e-01 -5.6272333417208102e+00 5.2896694711357384e-02 7.2491918321910265e-01 -1.2610981868206039e-01 -1.0076468392953619e-01 -6.2394739597746773e-01 -1.1027560362739735e+00 -7.9594217736625794e-01 -8.1354554855638486e-02 1.2882418455086308e+01 2.4078477663146658e-01 -4.0260274177392574e-01 3.9321770249716321e+00 1.0249799815041524e-01 1.0876943984821519e+00 2.7098087609406377e+01 -3.4652905691226419e+00 4.7282520322924892e-01 9.2979264123863956e+00 -5.0327601853160275e-01 2.0701264530056385e+00 8.8067322068607332e-02 -1.1943431063022876e+00 -9.2583448906172494e-01 -5.2276697729539405e+00 -3.6074507633728048e-02 2.7230984195489505e-01 -5.9513897572765970e+01 -7.3141928371269938e-01 -2.9519853286865074e+00 1.0760893762921363e+01 1.0762700006313164e+00 -6.3792386055504591e-01 1.3939800075222468e+02 -1.6527786579041668e-02 3.7480915928767544e-01 -6.2171406003124936e+00 8.7525168682359267e-02 8.9766592168888337e-01 3.4759055111672876e-01 5.0050046586269881e-02 2.8336215487781147e-02 1.2734271208093588e+00 -1.1273853149253332e-01 -1.4124290096526027e-01 -3.2579419181206721e+00 2.1006035778695453e-01 -1.5231695084288699e-01 1.3758010112020269e-01 1.3851923209043188e-01 -5.3853697388834831e-01 1.9222069267968145e+01 -2.1530173896576343e-01 -2.6670975068961933e-02 -1.5345077515322316e+00 -1.6373605793507287e-02 7.3789878143023202e-01 -2.0192839169268628e-01 -3.1458650227330237e-01 1.6199920210319507e-01 -4.6715204161887414e-01 -1.3898253534771626e-01 -1.3372056881717186e-02 1.6025791944310441e+01 1.6294792791805851e-01 4.1696375800077590e-01 8.5263448728329649e-01 -3.0313047995463799e-01 -3.9522504402536890e-01 -1.3807910117870532e+02 -2.2024898254406011e-02 1.4077756948370990e-01 5.2073275882716814e+00 -1.2496416382342801e-01 6.9594076316049136e-02 7.5900067603107857e-02 -1.2382887468992074e-01 -4.0378630282177613e-02 -9.8365779574407952e-02 8.4555728606109426e-01 3.7230906713590173e-01 6.0335546550435843e+00 1.0418003744924453e-01 3.9761197663326919e-02 -6.3346846252808673e+00 4.5671092597078911e-02 -3.3704261793303734e+00 -1.8873804795346587e+01 -1.6475013022005114e+00 -1.5245156131816737e+00 1.1404493074955437e+02 -1.4177681345058981e+00 -1.4064116324504781e+00 -1.0380657507432256e+00 -7.9212539567839635e-01 -9.5755187413589260e-01 6.6768805906824822e+00 1.1459151921501878e+00 2.0346666411969605e-01 -1.3318598496958998e+02 2.8732648897802615e-01 4.9852908289795650e-01 -2.4178482171652675e+01 -1.5372098652082946e+00 1.5243306225786181e+01 -8.4203860632340820e+01 7.2103720586232640e+00 8.3509662662181121e+00 -5.1131450657131850e+01 -1.3124675016441643e+00 -2.1490574341526699e+01 -3.8873667215349101e+00 2.7724882159992044e+00 4.8892652810265584e+00 -2.8229159545236932e+01 6.5807733400281805e+00 -4.8204933984503668e+00 3.4564888413896554e+01 8.2219257299454966e+00 -4.1345273573635097e+00 -4.9920290332099093e+01 2.0234940816590852e+00 1.8583090603929458e+02 
      </Row>
      <Row Index="29">
        -4.1975359747180265e+00 -2.1381383288181041e+02 -1.0947661891089897e+00 -1.8105086621256561e+00 -2.0756967911742557e+01 -6.8001222137360351e-01 4.4602191263498858e-01 1.5549257889457877e+00 6.4203206501652299e-01 -8.4708833293139385e-01 3.6999299797545326e+00 5.8984894457797026e+00 8.5254025009544054e-01 4.8335621977638134e+01 1.5378221585817065e+00 7.9793613830030186e-01 3.6112586902973817e+01 1.1575492017868227e+00 1.2129213171221176e+00 4.9291772432602261e+02 1.3223217683603022e-01 2.5948048657750422e+00 -1.0988209561113462e+02 2.4988331926338629e+00 5.7389406150942612e-01 2.5048297407725419e+00 9.6327380054263800e-01 -6.6598634276072488e-01 1.1148288117351679e+00 2.0880893518057295e+01 -1.7013837152564071e+00 9.1568440130912720e+01 -7.2024083365476846e-02 -1.5535138406719380e+00 5.2603419209478723e+01 -1.4172298387484334e+00 1.1838245424654348e-01 1.7768773514717091e+02 -1.5950053030140676e-01 5.1586836144988268e-02 -1.1660227003083317e+01 7.3586516662452778e-02 -7.6190428808379174e-02 1.4603662504907466e-02 5.1786163111386896e-02 -1.2589533835514446e-01 -5.2901143269483995e-02 -2.7596687444292295e-01 -4.6851662158212209e-02 5.3301611752444042e+00 4.9969357792461977e-02 6.2620147951309157e-03 4.9441660106439977e-01 5.5411491407880575e-01 7.2764471014731669e-01 -1.6241057937738344e+02 -8.5000163439217502e-01 -7.4137410330938802e-01 6.7700322937312038e+01 -6.4952607605859214e-01 -4.5551375871096866e-01 -4.6601732595974710e-01 4.5874693497014069e-01 -3.5092223734706324e-01 3.2577027857948337e-01 -1.9841929265450857e+00 -2.1556350762093965e-01 -5.1770187211870841e+01 -7.2129984435643446e-02 1.9727356676756358e-01 1.0358956855887335e+01 -3.0659043615757103e-01 2.3282941455737798e+00 -1.6082915130761162e+02 4.9913943539530559e-01 -4.3672894709703425e-01 3.9495558634758254e+01 -1.1489230379822533e+00 2.2654291244322780e+00 -3.0387952158107887e+00 -1.1402877537546701e+00 -3.0456164051492509e+00 -5.0811588054485526e+00 -1.5170352985718667e+01 -8.6430708068613038e-01 -1.4919620607363476e+02 -1.4269129360486068e+00 -1.8106266313758210e+00 -4.6407909024421016e+01 -1.2969214429298286e+00 1.3323752731411682e+00 -1.9086951763535180e+02 4.3991754956726192e-01 9.3207406371789148e-03 -1.8559295372385144e+01 -9.9561401327331600e-03 6.4275741043502421e-02 -1.2639659073871989e-03 -7.8682326881554521e-03 1.0687660517630143e-01 -1.1467563723243757e-02 -6.6599474985954643e-02 -3.7472446779483237e-01 2.3857503363403460e+01 -9.1595162409072395e-02 3.8865276372289892e-01 -1.7202768237355235e+00 -4.6697249646606387e-01 9.4810789528779083e-01 -2.4021759758750366e+02 1.0494777979494785e-01 1.1645962575571100e-02 2.8046272523512620e+01 -1.7500177127193856e-01 -3.9373722864857541e-01 -7.8018993696471639e-02 -5.7722763891769691e-01 6.6347344807474506e-01 5.3501635642066958e-01 1.3673421309497793e+00 3.7704600217698830e-01 -7.2055337395341482e+01 -2.8017268277994095e-01 9.4411709642923825e-01 8.5729082065089557e-01 -1.7816878249056993e+00 2.6058209208884642e-01 -3.9172815301706470e+02 -3.4648957076005438e-01 -6.4522442291874427e-03 -3.3508134367695710e+01 -3.8931387271743034e-01 -2.1905542475058121e-01 1.4964463315361343e-01 3.2073497404576568e-01 -9.0172722258899884e-02 4.5573248572580383e-01 -3.1879494767816681e+00 9.1623000898997020e-01 4.7726466353010657e+01 5.0674255207103447e-02 1.2221670144669398e-01 -2.0975992062796273e+01 9.1353528965246511e-02 -1.1588740518929277e+00 2.7602596873024140e+01 2.6637571528610415e-01 1.7026795639954384e-01 -1.2089686700424075e+02 6.3973978007577514e-01 2.9397455163213735e+00 1.0427036708224620e+00 5.5133219038356163e-01 -4.3760926471434836e+00 3.0415396420280238e-02 1.1526426457433821e+01 -1.4931844478029683e+00 8.0498099337352102e+01 8.6364463472389907e-02 -2.1505732538755016e+00 4.6006475737219617e+01 -3.7916487911213870e-01 -2.4363790325619327e+01 1.4275705360100324e+02 -1.6124578497312037e+01 3.3371437723076500e+00 8.5634779933472657e+01 -7.1766745897082274e+00 5.2162228433097120e+00 2.3659715677706572e-01 -9.5991097146541264e+00 1.0786818665867667e+01 5.9830369452794727e+00 -3.2576169778063466e+01 -1.7166882764352067e+01 -2.6311961480073467e+02 -5.4485361486029547e+00 -6.0939856493548952e+00 -4.9786388134307475e+02 1.2069488021126464e+01 -1.2017032946062626e+02 
      </Row>
      <Row Index="30">
        -5.6653243543585308e-01 6.3426430424396244e+01 -6.5595420949444583e-01 1.4206872397584762e+00 1.9071105662375800e+01 4.6138833850547961e-01 -3.5599375750719066e-02 9.0175771540050753e-01 -3.9408121222525327e-01 6.5238742372055514e-01 -1.4329675685074887e+00 -2.8567968085786757e+00 2.6752823203443965e-01 -3.9938142770316709e+01 -2.7223557025305994e-01 3.2117330912752540e-02 -9.8370221476121564e+00 -2.5804952440223305e-01 2.0050289326995157e+00 -1.7349213363829674e+02 -2.7105677281753782e-01 1.8224860644252386e-01 -1.1447501663926131e+01 -1.8959820547564523e+00 1.0794171578292899e-01 9.3949201503024837e-01 1.9798603471144546e-01 -7.0549625177062047e-01 -3.5575260291030408e-01 -1.7013837149968980e+00 4.0881417444726376e+00 6.5034252987906811e+01 -4.6769041423970670e-01 -6.9205088056016240e-01 1.7098610306447689e+01 2.3766296827824496e-01 2.0475293247176640e-01 2.0376490756828829e+01 -6.7260761426933158e-02 8.1956717528298473e-02 -1.7551902544533018e+00 -2.8011610625122502e-02 2.8179570023179057e-02 -9.0641135213493151e-02 4.5171393662795670e-02 4.7148731201076294e-02 2.2276056755988602e-01 -3.8239900228863244e-01 4.8661559018205430e-02 4.7151048002693541e+00 2.7014544255930389e-03 -7.5432233800257001e-02 -1.6495305583282804e-01 -4.2164210763534271e-02 -3.0117156154188152e-01 7.5752708369743374e+01 -1.0599355662316157e-01 -7.7466814674381240e-02 -1.6807695555652762e+00 6.9864557638039670e-02 -1.2125742426191501e-01 -1.7621620414745465e-01 -1.8526436886695419e-01 2.2383853390794622e-01 -1.3390240065533021e-02 2.3029817763058699e-01 -5.4006440889524132e-01 -1.2839367562675591e+01 1.0758702678248805e-01 1.1787006709209447e-01 -1.3403110262335953e+00 2.7717961511743949e-02 -1.1308169503523879e+00 6.8398570259884892e+01 -4.3556490526597602e-02 -2.0347181499031697e-01 1.4329300690947576e+01 3.8520181386221858e-01 7.5057143331862386e-01 -9.0798697363568515e-01 1.2315966151878521e-01 9.4041635629102360e-01 -5.5499977039268156e-01 2.4736419258911830e+00 -2.0758008411447877e+00 -3.6555686454289493e+01 -8.5808633178561661e-02 1.4550575133519922e-01 -4.2912020428069244e+00 -2.9988603933496583e-01 -3.7992562794858464e-01 2.6234657629115830e+01 2.4322115573807404e-01 -4.3532033203845355e-02 -5.5296922463782501e+00 -7.4851224000825584e-02 -1.6846486969973284e-01 -4.7887003316742671e-02 -1.5046836319568813e-01 -1.2297552429063369e-01 -5.4335643522055221e-02 -2.0388414705432675e-01 1.2869526864036851e-01 6.8938464292174935e+00 6.8487272917285069e-02 7.2815146829244060e-02 1.4887003612384719e+00 -5.2685323691061547e-02 -3.7948640560467872e-02 -3.7623670457409425e+01 1.6865025984295245e-01 -2.8533603176898292e-02 8.3989368047034674e-01 2.9911559426296697e-02 -6.6677724049002407e-02 -7.1041858637856586e-02 9.1877919443794392e-02 -8.7459580549414995e-02 1.8474412671650953e-02 2.0868514799333127e-01 -5.0182563952399201e-02 1.3895968384054997e+01 -1.5367118909543728e-02 2.2093191223475905e-01 -9.0056816767572023e-01 1.2656330287346082e-01 3.7450041453908484e-01 -1.7511426103579346e+01 -1.3259427272526580e-01 -3.8192734893005564e-04 4.1836219216576787e+00 -6.0111468289439252e-02 -1.8525877676317193e-02 7.9395346190696436e-02 -1.1407240074422628e-01 1.0858534279815651e-01 -2.4323755135569058e-04 -4.2639349693293482e-01 -8.5202901316991486e-02 1.3531846465840871e+01 -3.7352370083583719e-03 1.8629818532131609e-02 9.0308610499505892e-02 1.0517356230738351e-02 3.9086783071447373e-01 4.0933926078050860e+00 -6.7077767436454838e-01 1.3684748953591914e+00 1.3653832939475208e+01 -8.8693314545935142e-01 7.6219813673568648e-01 9.5933049570447437e-01 -9.8760701832787234e-02 9.0564936113816952e-01 -2.0984320430967021e+00 -2.3290802813101612e+00 2.1686205321624561e+00 -1.8810487944657943e+01 -7.2641871052717810e-01 -4.8016947453570347e-01 -3.4901249964909002e+00 -3.9066902440305773e-01 2.9180944490789464e+00 -1.5608371101386158e+01 -5.5621536418152857e+00 -3.0080307024967166e+00 6.6492376249084430e+01 -1.0331376908909746e+00 2.2150943311505169e+00 -4.9712261969510507e-02 5.3058728320624926e+00 -1.7445534171727313e+00 1.8973971111629293e+00 -7.3787052997542659e+00 1.5781118948957840e-01 6.9737781910812316e+01 3.3749491612898908e-01 -1.1666623023787466e+00 3.2013489802085076e+00 -9.6246562447791828e-01 -7.9188266703987580e+00 
      </Row>
      <Row Index="31">
        7.7452600638658083e+01 1.4916131397227960e+04 -1.5772118389885401e+01 8.6844196937479936e+01 1.0142735669001237e+03 3.8713461142473598e+01 -1.2412951123317292e+01 8.5531272402310094e+01 -4.1029311061412429e+01 2.3482547476505027e+00 -5.9027147341730881e+01 -6.3621998813874143e+01 -1.3285412795028950e+00 3.0211094276270187e+03 -5.6676449333195968e+00 -1.0488641234113899e+01 -2.9817780700784226e+02 -6.5638726212459545e+01 1.4545568321899296e+02 2.3104586828155148e+04 -8.1312028477021983e+00 6.2080078462761339e+00 1.3753702984066945e+03 -4.5155341832555308e+01 4.8016184572415114e+01 4.8397115319161735e+01 4.0873359848970409e+01 4.1928135524511788e+01 -7.6148794281550707e+01 9.1568439964034638e+01 6.5034253013648083e+01 2.3407907557172126e+04 1.3629252715040893e+01 2.5231484038210915e+01 6.1728816534074281e+02 -7.1996534971154034e+01 1.7520284819417853e+01 7.2619669364252677e+03 -7.5677226202611543e+00 4.1682059330962034e+00 5.3425318817419884e+02 -4.5760293825919787e+00 3.3542295994156390e+00 -1.0446816359230718e+01 5.3788078347962376e-01 6.3869382486099937e+00 1.6271337941832220e-01 6.0673495293727662e+00 -3.9582836331868676e+00 1.2397271822411938e+03 1.6911031046196170e+00 -3.6696384632630812e+00 -2.4503379367010325e-01 -6.5537717771896098e+00 -5.4097103885044362e-01 -9.7111823217817346e+02 -1.7396980326471805e+01 -6.1585067610627364e+00 5.0404053709451705e+02 1.4312441917332592e+01 -1.7898314817088430e+01 -9.7457708470130910e-02 -2.0345582947133892e+01 -7.3116007708463577e+00 2.3145211011564925e+01 4.0412971976806773e+00 -1.2500461894424575e+00 -8.0384109997551911e+02 -1.0128421781000752e+00 -5.7194424887121045e+00 -5.9445221076825192e+02 2.5182725854067364e+01 -9.4513890300088846e+01 1.1922966725034985e+04 -3.8083330388668607e+01 -7.3269329164327502e+01 3.2820958958467882e+03 8.6988863945875536e+00 9.2573802834911959e+01 -1.0437295313102624e+02 1.9886598225075588e+01 -6.0475096227628988e+01 -1.3256185723841043e+02 -5.9158653025318714e+01 -1.0212754609623659e+01 -5.5479495137033900e+03 2.0188923709708433e+01 -3.4717676207616307e+01 -4.9811924530345323e+02 9.5492724532296066e+01 -1.4770246311302619e+01 -3.5765469709671379e+02 2.8530985844349072e+01 4.6515849977986647e+00 -7.7772144711318606e+02 2.1132045227019951e+00 -1.4254840672765567e-01 1.1739678033490868e+01 -5.2490308956155918e+00 -1.2755204326102707e+01 9.8839554472552322e+00 4.3481275527947432e+00 4.1665392165593538e+00 -5.4259992144048442e+02 5.8668192950304476e+00 -3.6996995807783648e+00 2.6706501600478413e+02 3.4324150979383758e+00 3.0438319447702042e+00 4.0986051526946003e+03 9.0943215475933812e+00 7.8776005807134473e+00 7.9967851491718761e+02 1.6255704583074420e+00 -2.1465702279926290e+01 -1.2697997132683625e+00 1.2142717293111280e+01 9.8326478723671418e+00 2.3354145834523479e+01 -1.4044940066631447e+01 3.0717161572529328e-01 5.2970889231468436e+03 -1.4038761055704603e+00 1.4244774293020100e+01 -2.1916721346181060e+02 8.0539269226437877e+00 1.4577606652423995e+01 -1.4111573563760696e+04 -1.1225651478007023e+01 -7.3167127727780894e+00 2.8486000002377423e+03 1.1264440003499431e+01 -3.0938948633197469e+00 4.7908281370080203e+00 2.5930169795725453e+00 1.3245144016752690e+01 -1.8593811600749746e+00 1.3889654366848617e+01 -1.3891472895111633e+01 6.0484018836383984e+03 -3.8683861326965285e-01 9.1076552708311986e-01 3.4361701916652567e+02 4.6418446400397784e+00 1.3499825776012028e+02 6.8381149877354346e+02 -4.1899422388072992e+01 2.1039197460623257e+01 -9.2762079467464696e+02 9.7742643740963331e-01 1.1280946540557441e+02 3.3429434887955040e+01 1.0821631145670278e+01 -1.5726027942641167e+01 -2.4880883794883081e+02 -2.1405387436560488e+01 4.2663792192912297e+01 4.7159417347328599e+03 2.4738538118747925e+01 -2.3242593268019448e+01 1.6627419838723654e+01 -5.1108966698619568e+01 8.4525604595087543e+01 1.5252578490389402e+04 -6.7118770109817842e+02 -1.8333292935320151e+02 4.3865230548277534e+04 1.5731331577277570e+02 1.6572976518593896e+02 -2.0132704798322791e+01 4.0303797929781183e+02 1.2888782317927669e+02 1.1223354349755880e+02 2.2065124964974711e+02 2.2177269611513748e+02 7.5637230980985769e+04 8.1603935165024723e+01 -5.2449239388442265e+01 1.1238785644869236e+04 -8.4105119226694455e+01 -1.2384768904043258e+03 
      </Row>
      <Row Index="32">
        -6.4246013427893434e-01 6.2256933177636341e+01 4.6198634958647905e-01 6.1785111375625412e-01 -4.0211773618684195e+00 2.5932408671202478e-01 -1.1267130824778415e+00 1.4522330410220677e-01 -7.7626932631511958e-01 -1.0489574371626047e+00 8.6485384695892353e-01 1.3916740450882612e+00 -2.5255495905465852e-01 1.4533522861261947e+01 3.8722229923243550e+00 9.1122908823863658e-01 6.9540192967740584e+00 1.1778435486797525e+00 2.8230653637873782e-01 1.8653044658011595e+01 -4.0366183536506589e-02 4.0200312126208587e-01 1.5082651347474153e+01 1.0257338542273500e+00 6.8247003377380100e-02 -7.2601392546261811e-01 1.4531913365830101e-01 4.3733143540028319e-01 1.0317153646841357e-01 -7.2024082554999147e-02 -4.6769041437569830e-01 1.3629252612006528e+01 5.7780735863931696e+00 3.4642154584509619e+00 1.8792621621281549e+00 8.3743328234638703e-01 -6.6745466379267454e-02 6.9537776004588821e+01 -1.2161406393312924e-01 3.8539069982868268e-02 -5.0258258710341988e+00 1.1950014737055970e-02 -6.2353891989129585e-02 1.0710919688810244e-02 -9.8020295616593894e-03 1.7779847389980015e-02 -6.8386366769769558e-02 -1.9583851859859808e-01 1.7001766846192201e-03 7.4690896480856388e+00 3.6156783079084087e-01 2.3135738330207212e-03 7.7171849071179266e-01 7.1075080724551931e-03 5.8193950636486136e-02 1.9141922211420663e+00 -2.4151436421222350e-01 -2.9217693379640197e-02 -1.3879786857164760e+00 -9.1356699026404975e-02 2.2120342878160598e-01 1.3005034403619664e-01 4.5430250655312809e-02 1.1049017239248185e-01 3.1321422117436271e-02 1.2233620665500501e-01 5.9359103546332115e-02 4.1444475704465180e+00 -1.3440032803534090e+00 -4.9138945454342009e-01 2.8186406407977422e+00 -4.0295425119687228e-01 -1.8271108940305758e-01 4.6600428344698429e+01 -6.0896699195579285e-01 -9.0107428804052514e-01 -2.6121962482608946e+01 -1.1581672896436590e+00 1.1765230049547508e+00 2.8477404675615037e-01 1.0357241293762831e-01 1.0260803648115684e+00 -1.4076773205264499e+00 -1.3065758837884306e-01 1.0887719490623806e+00 1.2340740535744175e+00 -9.4376765562566476e+00 -1.9180518276113439e+00 7.4719395403983881e+00 -3.1976232609406314e+00 2.8769547217023439e-01 -1.1260432842579947e+02 1.7366802812901172e-01 -8.9845582234206578e-02 -3.4501105662905656e+00 1.2147381961260195e-02 3.0009887051022588e-02 -1.0104453313732653e-01 -1.0395892978823928e-01 -6.0947716696750531e-02 2.4202396214162647e-01 -4.1042118082066870e-02 -1.3329722621450983e-02 -6.5357452263539066e+00 -8.5484725899313008e-01 -1.0158227303395664e-01 -7.4896851146446974e-01 -4.5118433453951456e-01 1.0645353006033975e-01 -1.3927326414170727e+02 -4.2927763855120649e-02 1.1884540779304759e-02 5.1926509252366699e+00 -2.9959585228666208e-02 1.9887989350262458e-01 9.1377758735711828e-02 -5.6436301396689981e-02 -5.4579498264694104e-03 -9.8814634282859970e-02 1.7288075700128536e-01 4.1885028017954670e-02 -9.8944747957312025e+00 -1.4206893401525318e+00 1.2541445382444216e-01 5.5851686446308335e-02 -3.1154801092204176e-01 1.3671957823603809e-02 7.3526737407083189e+01 -1.1415370220670940e-01 -2.3610800120916764e-02 -6.0082314853401826e+00 2.3201502174741595e-02 5.7011990801949075e-02 7.8191457823066912e-03 -6.7242991718200862e-02 1.5390315265067012e-02 -2.2301987621980324e-02 -8.0179304300897503e-01 -5.3926505327747343e-02 -3.6621212117752386e+00 -9.0860851714559029e-02 -6.8587567241602643e-02 -2.8467359482177450e+00 -4.7560766034006274e-02 -6.4550685499962857e-01 8.4908531648748138e+00 1.2227193371027845e-02 1.1324003525213344e-01 -1.3327503670110445e+01 1.0482247764495822e-01 -3.2389859488339279e-03 -3.1207925455305663e-01 -5.5541746235779965e-01 4.2737331530909950e-01 -4.3690249872840359e-01 1.2711464718435637e+00 3.0683520476556803e-01 9.3101776641533700e+00 3.7040375509433920e-01 2.2916525939144381e+00 1.5757795135559306e+01 -9.4230875818529136e-01 -2.5139160310775637e+00 4.8341476720225231e+01 -4.8617180932843240e+00 -1.8779056869378223e+00 7.0798325505143822e+01 -2.6498564460001006e-01 -3.9191451112733127e+00 9.5940161994652051e-01 1.4481033350816310e+00 -2.2044458736108705e+00 -2.2787074310066480e+00 -7.2454260992764006e+00 -1.7699760754017291e-01 4.3403202974752219e+01 -3.6613550603045411e+01 -1.6683559676366215e+00 -8.3161545107347024e+01 -7.4483478769419609e-01 -3.4806899569569190e+00 
      </Row>
      <Row Index="33">
        -1.4460840057595683e+00 2.0218361399396485e+01 -3.4356586566633429e-03 1.1206381190732273e-01 -1.8898222197543639e+01 -7.1363461548299423e-01 -3.0348873094070389e-01 1.4611541549010343e+00 4.8531723479719610e-02 -4.6074998562218428e-01 2.6937674035769472e+00 9.6179214109537803e-01 2.1347266837770273e-01 8.2738083294333080e+01 1.7537735422765683e+00 3.4822132698612891e+00 6.7399042711676636e+00 2.0650013103083360e+00 -1.8122827296970969e+00 -3.4856881506866671e+01 -1.3547199040826527e+00 1.1427027472287314e+00 4.3519887014502061e+01 9.3840205729300274e-01 -4.5452840105733650e-01 9.4011838254051927e-01 9.4783911519564990e-01 2.1428102355636773e+00 9.0572782756982784e-01 -1.5535138403182458e+00 -6.9205088043144980e-01 2.5231484130248241e+01 3.4642154591797150e+00 1.3270540285354588e+01 -1.6928168878162140e+01 5.7322763589736092e-02 -1.6362249895177089e-01 4.6078226203867807e+01 -1.1192084502960786e-01 7.0157082073925459e-02 -9.2364455525751277e-01 4.7041313442187198e-02 -5.6744265011940145e-02 -1.4389789817605594e-01 -5.4622058102526821e-02 -2.9555841156448923e-02 -4.5744675791682558e-02 -3.1610416682609965e-01 1.0852221035222046e-02 1.1687794669667221e+01 2.2702825965141807e-01 2.6611893920092805e-01 -1.4683484007323597e+00 1.6514829820267174e-01 3.3443286463703714e-01 5.7456902851709955e+01 1.6391585553540367e-02 -1.5841852862256015e-01 -5.4087093283347372e+00 -1.9947078058019940e-01 1.2318680649157357e-01 -4.1304376893743466e-01 9.4562604597531574e-02 -5.0219946254387160e-01 4.4797144763535357e-02 3.0455869668643115e-01 3.0282693182172693e-02 1.3389162186863842e+01 -2.8692253921979927e-01 -2.4294185819798617e+00 3.8847058094890716e+00 -2.1401425652002956e-01 1.3306055195930655e+00 1.9858115836483836e+02 9.9542814712302985e-01 -4.0289276158536858e-01 -3.0892459766208493e+01 -6.9949879856814334e-03 2.5743056847093876e-01 -1.4204153408883724e-01 -1.2471271684339342e+00 -6.1400205132484431e-01 -1.3513106927444785e+00 1.3808971618440851e+00 8.8206082342351388e-01 2.2986619084911837e+01 -3.6465442737577476e+00 -1.1462321385820342e+01 1.8264085328658162e+01 -3.1511038865358030e+00 9.4198696310634633e-01 -2.0702840006347955e+01 -3.5707770424401908e-01 6.5870160499150288e-02 3.1505084733165027e+00 -3.0766795449321052e-02 1.5442491541170966e-01 7.9176957220889521e-02 1.9545431686470960e-01 -1.2678065820311821e-01 1.8641388885307464e-01 1.5986405183157948e-01 -1.2876171242390599e-02 -3.4885538432695647e+01 9.8581419951843732e-03 -4.6649285030803778e-01 -2.2064677839964979e+00 -1.5503170090294258e-01 1.5566395957012702e-01 6.2808536961069862e+01 4.6501491227518166e-01 1.9404935649720911e-01 -4.0949091002217557e+00 1.0227653811945459e-02 1.8001387886043574e-01 -1.5112745404250089e-02 4.0462547023582651e-01 2.2961918795781022e-02 -2.2616890266772316e-01 2.6037933418168174e-01 -8.6137009156203093e-02 4.1623526701806725e+01 -3.9690420838815477e-01 -3.2643363416408633e-01 7.5828353249431557e-01 -8.1204922066864393e-01 -4.7343837389334301e-02 2.5723876936040051e+02 -1.1298341662315714e-01 4.7498794625674634e-02 -5.3962318611012385e+00 4.1783161764694654e-03 3.7318875981462440e-03 2.0887073691341129e-02 7.6599118636973842e-02 3.5230452120244182e-01 -1.6458386561011551e-01 -3.1465766137202422e-01 7.8901483945127637e-02 -1.8533850153727879e+01 -4.2436031267630459e-02 -1.4224326017092298e-01 -1.1047242112197111e+00 6.3079213812642365e-02 -2.2038669063770318e+00 -1.2654450690513102e+01 -7.9289010193021614e-01 7.8453463708926541e-01 4.7293052653838728e+01 1.4873474376047024e-01 -5.3868795464799968e-01 2.2109355829197135e+00 -2.9142913504230955e-01 8.8692694070411049e-01 2.2472258154241489e+00 4.9685955977238749e-01 4.6127651240837686e-01 5.2904689788122141e+00 1.4647554142912500e+00 5.0808067349942050e+00 5.2113380259154711e+00 -7.9957120470464549e-02 -8.3526192455532779e+00 3.2886928629160849e+01 1.5721400957109921e-01 1.2242133816831853e+00 7.8912440508350059e+01 -7.4782686319730374e-01 -5.5778466506586533e-01 -2.1053345933318681e+00 -2.1751042963424991e+00 -3.2322758363328745e+00 -4.6977772772731043e+00 -5.1840183162219660e+00 -5.9429228215441299e-01 2.0577262802680389e+02 9.1502277711049373e-01 1.0163123548398154e+00 -6.9705611054297023e+01 2.5752294654990706e+00 1.5928740774580274e+02 
      </Row>
      <Row Index="34">
        -7.0634043684221703e+00 2.0557585158391244e+03 -1.7950976278345854e+00 1.5607542441782973e+01 -8.4837453283480670e+01 7.8465571111695311e+00 2.0417407450331773e+00 1.3863803334437652e+01 -5.2444760760344824e+00 2.4685082261711511e-01 -1.0826997400542275e+01 6.3322761957804303e+00 5.5516388666231187e-01 -4.3623021399551959e+02 1.3166530309097446e+00 -1.9379846247216221e+00 1.3626258237053051e+02 -4.4002927464566994e+00 1.9010514912640957e+01 -1.4872724348184702e+03 -9.2342573770994996e+00 1.0024097340908456e+01 -1.0227413566095447e+03 1.1820255771679626e+01 5.8055231072599121e+00 -7.9313698542406996e-02 1.9082716369098696e+00 6.6355455057188806e+00 -1.7379475930216479e+01 5.2603419205555006e+01 1.7098610300400289e+01 6.1728816530381880e+02 1.8792621511858960e+00 -1.6928168879411743e+01 6.8159399030440886e+02 -1.0346388410734232e+01 3.0159879681419248e+00 4.0078169421344899e+02 -2.7710843149946811e+00 1.5300196069227638e+00 -1.3464763362435684e+02 3.7081298271146312e-01 7.2801317017325839e-02 -1.7681256370955203e+00 -3.4617878226822907e-01 1.0482345704514886e+00 4.0534003957883353e+00 -4.3849940611842653e-01 3.8512193517759608e-01 5.2338792505046101e+01 -1.4819582340323878e-02 -1.3121497770869359e+00 -1.7003018088140834e+01 6.7398761403063645e-01 2.2210255520901683e+00 -6.4754162612463847e+02 -6.1878184201411841e+00 -3.7814110462110708e+00 3.9253247984481243e+02 -2.4045440230922281e+00 -1.9972556544242210e+00 -1.6129673332429775e+00 -8.0178270369830340e-01 -2.4754593102010443e+00 6.7694104488487028e-01 -1.2558999566990266e+01 -4.2859486247236873e+00 -3.9899015539987511e+02 -1.0464615466178286e+00 2.2673326283276367e+00 2.8291970168961335e+01 1.2578306114172164e+00 -9.9978263628084676e+00 3.5699521153962064e+02 -2.9780010573245441e-01 -9.7833237001385278e+00 6.3952635617888475e+01 -1.2751235407128890e+01 1.2543385856958700e+01 -1.9427646842388150e+01 3.6260833013667053e+00 5.9935718507898716e+00 -1.7012539387086161e+01 -3.2505462689081241e+01 -1.0907830150783127e+01 -6.3014508995435665e+02 -5.3320660355511045e+00 1.7431314058362144e+01 -4.2280927630090889e+02 7.9906296292525774e+00 -1.3176591163178952e+00 -5.9544723252105837e+02 8.3815417547619919e+00 -9.9262458064396242e-01 -1.4243010883322734e+02 -6.0546195682086257e-01 -2.4009384903743012e+00 4.1166739075498526e-01 -2.0819207347798434e+00 -2.0082156772293653e+00 -1.9149592401209929e+00 -2.0093054892823314e+00 1.7989715393681371e-01 2.2147449202677498e+02 -7.7933664926744028e-01 1.3868608365522670e+00 -6.6251374662134310e-01 -1.0493055997577088e+00 2.5864410738984702e+00 5.4807747015919449e+02 2.2604331374737399e+00 2.9476010438273414e-01 -7.8330275676856274e+01 -3.9297366545861223e-01 -2.0049807579949857e+00 -4.2315704602851074e+00 3.6165274980226059e-01 5.0536771687478144e+00 3.0782460699069816e+00 -7.8012660902899444e-01 7.1213676555325645e-01 -1.9434326661113010e+02 -1.3203795578913944e+00 4.6749286412600668e+00 4.1665480759969995e+01 -1.7282694380825205e+00 5.7637849597118951e+00 -1.2650100866520033e+03 -4.6879583579414685e+00 -2.4327210586511683e-01 -1.7448828289771745e+02 -1.9103261180432867e+00 -1.8600174167272598e-01 1.0795486091906810e+00 -2.0107888278694819e-01 1.0694180602026968e+00 -3.1322946544281649e-01 1.7984291763341957e+00 4.5272117229341688e+00 -2.0618243787625855e+02 1.9760066709446278e-01 8.6215092397973780e-01 -1.4866134615959484e+02 -2.8236141826789662e-01 4.4993849388627236e+00 2.0879109228177367e+02 -1.3878895975296501e+00 1.5589493892134106e+01 -8.3963660112481432e+02 7.3149023441097611e+00 1.9113448336319909e+01 -2.4091358331489161e+00 -2.1633441318891400e-01 1.1482416664167832e+01 -3.9261508953582059e+01 2.3430735628782976e+01 7.1626143241437887e+00 3.2450955518182570e+02 -1.5164644544624366e+00 -1.7023420707960781e+00 3.6558528171476758e+02 -6.0780897930280560e+00 -5.4519664833872298e+01 -4.2779243945943222e+01 -1.9523979120890249e+02 -3.8641910057546966e+01 8.9949938620122907e+02 -3.2608613845463424e+01 4.5614981681530452e+01 -1.5522685301341994e+01 5.4343775566098564e+01 5.7846817433899297e+01 6.3519259584743217e+01 1.2161139804494269e+01 -6.7231810407742159e+01 -3.9981553408039076e+03 -5.1641346498882285e+01 -2.3934292642921832e+01 -3.4752513076552773e+03 1.2010217179213939e+01 -1.4101828634923941e+03 
      </Row>
      <Row Index="35">
        -2.4743460235206736e+00 9.3001877119827370e+01 -1.6530526158391801e-01 -1.9951146855980470e-02 -1.0138652051578642e+01 -3.4091057964452509e-01 9.0906651044704212e-01 -3.0208673620471282e-01 1.1257200290352500e+00 -1.4488592328852286e+00 -1.8195190996900372e+00 1.6251976552232963e+00 6.1984367423118714e-01 -6.4321166859446421e+00 -4.2105612277754428e-01 -5.1787851260152706e-01 5.7615779949825470e+00 9.1936700340242117e-01 -6.1044715234728386e-01 -2.4069259571722827e+02 -4.7928467092010363e-01 -1.2945403237923696e+00 3.4941848655055189e+01 -7.5568986035746299e-01 1.4249825544182508e+00 -3.4162435409294387e+00 -1.5518443317279274e+00 9.0840293563741703e-01 -1.2197497857721411e+00 -1.4172298392623985e+00 2.3766296843850865e-01 -7.1996534898399432e+01 8.3743328305102538e-01 5.7322764414143149e-02 -1.0346388419843088e+01 9.9176816009284412e+00 -1.3725886400124487e-01 2.8037450986898946e+01 -6.2893049641961851e-02 4.0835813107717112e-02 2.7340463094071303e+00 -7.6869138890897748e-02 1.1544855102155341e-01 2.2591383959685907e-02 5.6526384950757680e-02 -2.0553697409581052e-02 5.9369652771848448e-02 -1.3538970381190535e-01 3.9019813722412117e-02 -1.1242886459350871e+00 1.1832394181563388e-01 -1.1285837899618345e-01 8.2925836995053581e-01 -2.4764973371252985e-01 2.4066489976910077e-01 1.7302970782377028e+02 4.4420531022268683e-01 2.1412344149485646e-02 -2.1504587133705190e+01 1.4899262282468673e-01 -3.3643000490941066e-01 5.6727613112319730e-01 6.2163315904721661e-01 3.5926808277700595e-01 4.0550720196013046e-01 1.0049227411718391e+00 1.3645974677964112e-01 1.7750345077548157e+01 -3.9450162536099831e-01 3.0370663158659994e-02 -3.5893381073465824e+00 -1.5674054435370106e+00 9.6583704475913756e-01 -7.4289691224114193e+01 1.3179023513062964e+00 2.9619467650249587e-01 5.0474837452639939e+01 1.0448119181916127e+00 -1.5169715453505823e+00 2.3762341052826086e+00 -1.2066546908855027e+00 1.5267929294112383e+00 1.4040133128177934e-01 -1.2714097242392612e+00 -3.3798684026408227e-01 -5.1594763417917008e+01 -1.7356844694210873e+00 -1.0175752147908959e-01 1.5894838341331763e-02 -5.8926210006939881e+00 4.0382976759991224e-01 7.0861900462330965e+01 -7.7564117434093327e-01 -9.3765682411620865e-02 -6.5854615983188367e+00 -1.0017035628231916e-01 1.7280919562359287e-01 -2.3012005563627980e-01 3.2891188076286904e-01 1.4513846702031477e-01 -4.2759517876202402e-01 5.5648500262457945e-01 9.8040808966380205e-02 -3.0340464352047052e+00 -2.9133843385783353e-01 -4.8884496580313685e-02 7.3397201429530163e+00 -2.7488754299557749e-01 2.3007907494024948e-01 -5.1309878155056666e+01 -2.4316091061874712e-01 3.6642913727819693e-02 3.3625316924610349e+00 -2.6658675594957160e-02 -2.0555790674464625e-01 2.2059579647451308e-01 -1.9829712586931070e-01 -4.5268305446007884e-01 4.0438183057749200e-01 2.2856419122262459e-01 6.1328264338863521e-02 -1.0867165710770804e+01 -5.3953941666505767e-01 3.5922668030782035e-02 -3.9152005884184629e+00 6.3421453371016234e-01 1.5734786391626304e-01 -4.4283339866693154e+00 3.2969045918369577e-03 -9.2146284098277853e-02 1.1113645550482826e+01 1.3645428105986568e-02 -9.3728841031881061e-02 -9.4478026430717676e-03 1.0302517674682911e-01 2.0752983659528138e-01 3.1594898107745628e-01 -7.7086362877483161e-01 1.2371293318621035e-01 9.4620311293676611e+00 -1.2683862519456954e-01 -7.2409424816568674e-02 2.9135477625350692e+00 1.1810463398626680e-02 -2.3764841650764854e+00 -1.2777791190267038e+00 -9.3450610198093087e-02 -9.4262580972719467e-01 1.9658909639573281e+01 -1.5806581630150779e-01 8.1520330395291107e-01 -1.2917428462903686e+00 -1.3613120520307558e+00 1.0172034808609147e+00 -2.7383797528283131e+00 -8.0523572412457556e-01 4.8534180856800968e-01 -8.7570777725974565e+01 -1.5646632305104275e+00 -5.1744964597228105e-01 -1.9070792636850769e+00 3.9968268372342668e+00 -4.1147216150608656e+00 -6.1310035260399353e+01 7.3968561501545729e+00 -2.3505910766518312e+00 -1.2272724288533979e+02 1.2983965829317441e+00 1.5666462682748925e+00 1.9101506291725077e+00 -1.1945752909516150e+01 -6.1442305058503441e+00 5.0477372104137892e+00 -7.4305964113965111e+00 -1.6935115248108445e+00 5.6344899416241660e+01 -1.1181848315509058e+01 -3.7584882063401537e-01 1.9183447390221235e+02 -6.0163851664205659e+00 -2.8801074444922442e+01 
      </Row>
      <Row Index="36">
        -2.0967102020843602e+00 9.4418239740960672e+00 3.4854989645864093e-01 7.4341032907661286e-01 -2.9026564085204649e+00 -1.0898204730528038e-01 3.5941165829339997e-02 5.8872261592541004e-02 1.4581836145639154e-03 5.2900194438841663e-01 6.9574498997953427e-02 -1.0539491790100747e-01 -2.6543589582906757e-02 1.1233234241724219e+01 4.5985364239611283e-02 -7.1144021962593104e-02 3.6523521012346660e-01 1.8967166667634094e-01 1.4582137393564332e+00 -4.5446012463212448e+01 -4.2591197725296842e-01 -2.7267635311768279e-01 -4.2803520778359028e+00 1.1865999919004576e-02 7.3072072429223978e-02 -6.0588818329073812e-02 -9.8000103414816742e-03 -1.5474579821273959e-01 -6.2734258646471119e-01 1.1838245383496160e-01 2.0475293259587229e-01 1.7520284852194685e+01 -6.6745466333339443e-02 -1.6362249867350376e-01 3.0159879650393915e+00 -1.3725886387491515e-01 6.5411207011785855e-01 1.2319696706822146e+01 -1.1534659869644109e-02 4.3559153266396422e-02 -2.1349310267831711e-01 1.1559654879559320e-02 2.7570643058727938e-02 1.5210203731708546e-02 2.0836820456937029e-02 -1.1034443612081425e-02 8.1949961074313557e-02 1.9047903368501172e-02 -1.0037107287722767e-02 4.3631795593190992e+00 -6.3608359560088316e-03 -3.4901052842518911e-02 -4.3261346964893033e-01 -8.9257341178633487e-03 1.8187771591993140e-02 1.9129916886219160e+01 -1.5973587724700394e-01 -4.4591004495228445e-02 -2.5567605803534050e+00 -3.0965375922251015e-02 -7.2990685131165634e-02 9.9619347353463672e-02 3.1741969271441718e-02 2.0499571091803501e-01 3.3042159444340857e-02 -7.9068661928063305e-02 -5.5185911337253812e-02 5.2966074772826293e+00 8.5793680219861182e-03 -1.4260242004975665e-02 -2.7514391678756178e+00 4.9879988227695404e-03 2.4539959902979550e-01 -4.5365914376265529e+01 1.4173898560467003e-03 8.0939909128311949e-03 6.9870117440221895e+00 1.9204188416883164e-01 2.7863781130970133e-01 -1.8855054430622917e-01 1.5096561954208712e-01 6.2179056285996660e-02 -4.4449213284935801e-01 9.5362199518484925e-01 -3.2154123385009045e-02 -1.2041926354814562e+01 3.9343849431427086e-01 1.1591861700821378e-01 1.7008527024411615e+00 2.2861569950115457e-02 9.3521354698892500e-01 -1.3325692200815647e+02 6.7147107152491656e-02 -1.1664708448052541e-01 8.4409116768818340e+00 -2.2762113154715227e-02 -4.8310656930709683e-02 -2.3266911048501038e-02 4.8961992274280386e-02 -5.7211868896785756e-02 -5.6252168306819339e-02 -5.8943471472326703e-02 1.5834093842809413e-02 -1.0351266104534334e+01 1.0373188603492772e-02 1.7444958590455723e-02 -3.2783540835777120e-01 -6.9089456844953157e-02 5.1298829035221871e-02 1.7810868566203617e+00 7.8644908869666241e-02 -4.7593895695839227e-03 -1.6072270936950028e+00 2.5836951839460109e-02 -7.6558737275948863e-02 3.8249350943501778e-02 4.7385126768999641e-02 -1.0910202785693129e-01 -4.0151356263233851e-02 -1.5124676294079292e-01 -2.0752057213716375e-02 3.0972781418630349e+00 5.7135732769952041e-03 8.6119067799842020e-02 -6.9140781671631490e-01 4.4032109746962478e-02 2.6113103884391131e-01 -1.6871737086910407e+01 -4.3694618582199640e-02 -4.5406502181316255e-02 3.4210892782140547e+00 -9.6776919599551592e-03 -8.6417134802070361e-03 3.2968466830642695e-02 -2.7246966434251233e-02 2.4584514587786030e-02 -1.8825754800362526e-02 3.2335828712632964e-01 1.8210362401662739e-03 -5.1079828103726808e+00 -2.5239190425316665e-02 -2.4522013141120853e-02 1.8315755840150676e+00 1.1598453236958517e-02 -3.0734428807222214e-01 -2.5646997686260313e+00 9.2789510297614258e-02 4.7089988178084269e-01 -1.9476997507635192e+00 1.0442945220119197e-01 3.6497148615284808e-01 -1.6273096258943687e-01 1.3728743814007227e-01 4.5046703220824780e-01 -8.5683122983102100e-01 8.9817905975208101e-01 1.2911699093482032e-01 8.3370995255724054e+00 3.4201042391247405e-01 -1.1843303670793037e-01 6.0577662413871618e+00 4.4176901911267885e-02 -1.4165547539107665e+01 -1.8538569576401279e+01 -4.1800549446190089e+00 -2.5149781167764118e+00 -2.4953148080712388e+01 -1.1024568175645033e-01 1.6950141311681781e+00 7.4247290527571908e-01 4.1221473893312155e-01 -2.5384297935268285e+00 7.0383816429320079e-01 3.9814621035660922e+00 -1.3035528413627517e-01 1.8674854255705288e+01 3.1477776722436790e-01 -5.8674866644267276e-01 4.6657121041622041e+01 2.0068095005148390e-02 1.2765662416674683e+01 
      </Row>
      <Row Index="37">
        -2.2270852365254734e+02 1.5666247502413702e+04 -6.8684442787298977e+01 8.3374852083868134e+01 4.0884832607137400e+03 1.2073338285031525e+01 5.2155000352798851e+01 1.0752515716701581e+02 5.1843887539615082e+01 -6.8962610810951531e+01 -1.9032525582148318e+02 -1.3494956104030081e+01 7.3687906963492793e+01 -2.9367677019180210e+03 3.7625755085054218e+00 -4.3174376120193649e+01 2.9653093530762686e+02 9.1009997826768853e+01 1.3257523789234071e+02 6.0969511212363199e+04 -7.4944205174095728e+01 -2.9250993532944167e+00 4.6097927712325727e+03 -9.8755183106636348e+00 -9.9855721589549375e+00 8.7417067302908436e-04 -9.0029956289090549e+00 1.1310492566574851e+01 -1.3377983543835791e+02 1.7768773544717340e+02 2.0376490833759654e+01 7.2619670043354181e+03 6.9537776270329630e+01 4.6078226282060200e+01 4.0078169619106563e+02 2.8037450984883257e+01 1.2319696726807315e+01 7.1911516174777411e+04 -2.4264601241660184e+00 7.7605698345909353e+00 -1.4732232244922243e+03 -6.4587338588494756e+00 -2.5193730514679835e+00 -3.8562439510460989e+00 1.3279690776264982e+01 5.7490844214284920e+00 6.6466067139612761e+00 -5.4415930715442101e+01 -1.0665842068660242e+01 3.6557714025425203e+03 8.2696116670848188e+00 -9.1579826397295783e-01 1.1566041437051506e+02 2.8740769801148019e+01 2.3409050975866819e+01 2.8878500693713580e+04 -6.3685183670403660e+00 -6.5789020600280219e+00 3.6402297920880710e+03 6.1313150966040766e+00 -1.1196894350545868e+01 -1.9804902331433809e+01 4.3726108536648717e+01 3.6615516221371638e+00 1.6757966572663264e+01 1.6185664740471441e+02 -2.3908785243827282e+00 3.6556924746917792e+02 -3.1015943760157285e+01 -1.8612530914007735e+01 -2.1784095834875760e+01 -5.5250483541549620e+01 -1.2235231989302459e+02 7.0513739517793889e+04 1.0080270793605899e+02 2.4852682118342670e+00 5.6027876810497537e+03 -2.6576547834347650e+01 3.5733747536717928e+01 5.5440853635044824e+01 -4.1842424993551546e+01 4.1784585371393824e+01 1.3575406726618561e+02 -6.5601294120649834e+02 -6.5206851366825560e+01 -5.8026718619545613e+02 -7.1056104199261910e+01 2.0124843998628194e+01 -1.4998834711969630e+03 -1.2343614364634968e+02 4.5738712549277238e+00 -7.4412958349583059e+03 2.0921262513113248e+01 -2.9944718520097531e+01 -1.9378328222390005e+03 5.2737686571111215e+00 -3.3655816429937317e+00 6.6976146276784512e+00 2.8114113290404116e+01 5.0395140269636913e+00 -1.7655327508344953e+01 -2.8941458749457144e+01 -1.4181836215045234e+01 -1.1216881264342283e+02 -3.0303374767510078e+01 1.5438083518523996e+01 1.3569002809300378e+02 -5.2202617142417253e+01 3.0130749795047592e+01 -2.2591490142726736e+04 2.0121195164871246e+01 3.5665593349560261e+01 2.8831361790687597e+03 1.6991821409935426e+00 -1.0059401677910330e+01 -1.5508876184562260e+01 -2.8370799406766032e+01 -6.9285274994046659e+00 2.4193381938693392e+01 1.0506981456862940e+02 1.2522907400236903e+01 -1.9887414329560994e+02 -5.8657535023023087e+01 2.9858504786080630e+01 -4.6507182473389673e+02 -1.1552772561208410e+02 2.2290310642402254e+01 -2.3424509323174974e+04 5.3271609735513383e+00 -1.0182201336488184e+01 -3.4473538536434939e+03 -7.5502186047641331e+00 -7.0280098850006709e+00 -1.2429590173048226e+01 8.3882200183692781e+00 3.5502341745730796e+01 1.5172741283704710e+01 -3.0891898070701825e+02 1.4084586929560345e+01 5.8227059851089334e+03 -8.7618431893093351e-01 -2.0438646082012752e+00 -5.3021832178782574e+01 1.3973183603869693e+01 -2.1139072304809173e+02 3.2985233471336755e+03 -3.3402018845057341e+01 6.9491570709107378e+01 1.5922248718652486e+02 -2.7023704317997186e+01 7.0623561353369595e+01 1.5936761122464100e+02 7.3243918363408547e+00 -4.2956879513951662e-02 -1.7374898967719355e+02 -4.2953711348525127e+02 1.6659884022669793e+01 -7.9152043307531744e+02 7.6638790920545858e+00 2.3999279838439691e+01 6.1155505513881371e+02 6.6201156838050110e+01 -2.3267877191279331e+02 4.5515980249000080e+04 -6.6523165944062021e+02 -2.8796545178404631e+02 -6.9676219712157923e+04 -2.6473957226351331e+01 2.9353916636564134e+02 -2.1358514221192118e+02 -6.3380812397103716e+02 -1.6019173242522487e+02 4.2575216045498598e+02 -3.2562956622131405e+03 -3.8689700662015184e+02 4.2094576990203277e+04 -1.1699665743251348e+03 -2.8324604011452459e+02 -5.4641264517896780e+03 7.8539002071446112e+02 7.3292849556298343e+03 
      </Row>
      <Row Index="38">
        1.0238950451125342e+00 -3.9699265845569954e+01 -7.2311543539593026e-01 -1.1773372799001570e-01 6.5691848392974528e+00 7.2473499511656783e-02 2.2125840611351665e-02 6.2127030290661223e-01 1.1444054579454198e-01 -1.0945806948193149e-01 -2.0716723689164235e-01 -5.2998939416827195e-01 -9.1530533151787580e-02 -1.1380101606757965e+01 -9.3184200443566900e-02 -4.5308172135003752e-02 -3.3460142433379150e+00 1.4814110354556789e-01 -6.8706087691844453e-01 2.0262059542592997e+01 6.1519473915842449e-01 -1.4355824528108074e-01 1.7971168799309347e+00 -8.5628503471397416e-02 4.4544459298394290e-02 2.8805637160302155e-01 1.6078908651501776e-02 -5.3296837492973470e-01 1.8715799421958665e-01 -1.5950053008706921e-01 -6.7260761497056218e-02 -7.5677226377363933e+00 -1.2161406395883938e-01 -1.1192084509835004e-01 -2.7710843135312206e+00 -6.2893049831690431e-02 -1.1534659901865630e-02 -2.4264600990457756e+00 3.1047262083314942e-01 4.9468055513482212e-02 4.6283453123627627e-01 -4.9039831090365036e-03 -2.0004409075368941e-02 -2.5001970182171665e-02 2.1059417133168858e-02 -4.4070697745622597e-02 1.8952121587001592e-02 1.8983918776869588e-02 -2.2028189790474585e-02 1.8174175527997709e+00 -4.6908670779676346e-03 2.8567230658810058e-02 -5.5650523358658122e-01 -4.7416334653962222e-02 -3.2679906153172844e-02 2.1292955353801837e+00 3.3867759618279658e-01 -5.2657169049583445e-03 1.1864101076124580e+00 1.0393885691690752e-02 -1.7532726931420939e-02 -5.9734405892825748e-02 1.5234004249518353e-02 2.2404642862358187e-01 3.0367760712589842e-02 6.4797517165790075e-02 6.6172041084916922e-02 -1.2637673146168188e+01 2.9017310477941316e-02 8.1510887851026448e-02 1.4632313714587872e+00 2.9035522712220707e-02 -3.8479746974682982e-01 6.5461783029668670e+00 -1.2379347451275510e-01 2.6968657296580750e-01 -5.1059188078213147e+00 -1.7483108872743125e-02 4.9783579502914982e-02 1.4042448568561722e-01 -4.1254859653251534e-02 4.7145519435405592e-01 -8.7832256972076958e-02 4.1942162173265252e-01 1.6982630895586115e-01 2.3269157486966843e+00 1.1604581146079215e-01 -4.0370322007416658e-02 2.6627018218121434e+00 2.5252646344968893e-01 -1.8567827397916226e-01 1.0066792000381163e+01 -3.6743352516693922e-01 -6.9144227984301310e-03 -1.2738989002961754e+00 2.5937171354829897e-02 -2.5055073440276132e-02 -1.1825269145055897e-02 5.5515481508509490e-02 2.7830951839330001e-02 1.6019628370242955e-03 -5.5294603407450432e-02 -5.7664460967683222e-03 1.3905388253614401e+01 3.5593174499542357e-02 1.4338552744670663e-02 -7.8357906608495054e-01 6.0575624353555388e-02 3.3777345509840018e-03 -1.8008590758756512e+01 -2.3279962284354161e-01 5.3877984090490827e-02 2.6471483068544801e+00 -2.2312002802404862e-04 8.0440826433942902e-03 4.8555117603279602e-02 -2.1858591259325211e-02 -1.7889543199297742e-01 6.3293549681084471e-02 -9.6581769001276602e-02 -2.4634373135644136e-02 2.8960073756040572e+00 3.1129790828521672e-02 -1.9277236694468680e-02 -3.2161705356711623e-01 3.7744251410128271e-02 -1.3121211448524148e-01 -1.0431373260023506e+01 1.6155225235173271e-01 -3.9200578742726089e-02 -1.2583371798353238e+00 1.9648008988823795e-02 4.8765653162088363e-03 -2.5876653393526405e-02 7.9792422223001064e-04 1.2277106644173094e-01 2.3746573378760516e-02 1.1345179355923474e-01 -8.3727125290513182e-02 1.6232374002694532e+00 6.8431329738840863e-03 1.9439657252618783e-02 5.9108037633262056e-01 7.9897880526158538e-04 1.0910259825845442e-01 6.6165401207022967e-01 -5.7975422787260056e-01 -1.5604790565782636e-02 3.6968642083261192e+00 -3.0684641661569520e-02 9.9797908663299836e-02 9.8870065278859309e-01 7.3140909140377672e-02 -1.0786175247244584e-01 -9.3296704105867032e-02 -2.8852641522522909e-01 -1.3722567485861880e-02 -1.6268165013142870e+01 -5.9420303150454427e-02 -1.7105736653000231e-01 -3.2754465090024962e+00 2.8642627202536919e-01 5.1441367431980201e+00 3.6218143627761989e+00 1.1205574615421963e+01 -1.0053219408917204e+00 1.0219137726548544e+01 3.7025064774252847e-01 -2.3440425403935058e-01 2.7292360767079205e-01 -2.0874031919938629e-01 -3.5868914640031262e+00 9.4014829733442395e-01 1.2708444578107041e+00 1.4128681689422393e+00 -3.5793253173661994e+00 4.5216391632535924e-01 3.1345140686948358e-01 -1.2662124346959335e+01 -2.4078790286119406e-01 -7.0157951787276556e+00 
      </Row>
      <Row Index="39">
        2.7255685538774488e-01 -5.5200727414773070e+00 -6.7412641110659990e-02 3.0323993633221491e-01 5.7567423043785997e+00 1.5572098164339249e-01 -1.0083015114895558e-01 5.8608500960380472e-01 -2.6335502695091578e-01 -1.8958870041088038e-02 -8.0882027134368795e-01 -3.8391666326646046e-01 -1.5546983619013577e-01 -1.0660141921346828e+01 -1.7693698756046830e-01 3.7187329709237327e-02 -3.8608639032502223e+00 4.3561640073785012e-02 4.7331879662475734e-02 -9.2256215162083741e+00 -1.1012806581577506e-01 -1.2772543129227157e-01 -2.4945899368419173e+00 -9.1235070717428424e-02 1.0552841404993370e-01 -4.4713137089137189e-01 -5.8617956389350287e-02 -5.4839336691254681e-01 -2.1454504789168760e-01 5.1586836520207846e-02 8.1956717533875234e-02 4.1682059310813262e+00 3.8539069912495463e-02 7.0157081975017771e-02 1.5300196098662573e+00 4.0835813150610467e-02 4.3559153275892742e-02 7.7605698839591817e+00 4.9468055492147528e-02 6.3748083206639650e-01 -1.2397349369327921e+00 3.2801348229307041e-03 1.6363739355263161e-03 1.3292339333157152e-01 3.1877094956773364e-03 -1.1755292946562040e-01 4.2426532798128073e-02 6.9271178322166255e-03 -1.4082789221138399e-02 3.1494834231144284e+00 1.9312026534731727e-02 -2.7759089746054288e-02 -4.6062233451828166e-01 9.1115146641613909e-02 -6.5786100357402955e-02 -5.0160138321579772e+00 -5.3751587076989127e-02 -3.1260832142839567e-01 -1.2124946946100308e+00 1.7355052351953004e-02 -2.8968465455030512e-02 5.6275431139011545e-01 -1.1656102152089565e-02 4.2403989266019781e-01 1.4312676370110466e-02 8.4951316932370236e-02 -1.3680586699158503e-03 -1.8430632052534184e+00 3.2860082945493363e-05 -4.7990798250961975e-02 2.1949565922495412e-01 -6.7842259089690354e-02 -2.3234017355106912e-02 -1.8368442466735120e+00 1.4342664094879976e-01 -1.1623799715181615e-01 -2.7728562624415569e+00 2.4451266588598253e-02 3.1066950614042244e-02 1.0584016103213176e+00 1.9146010463944088e-01 4.6072609559237432e-01 4.0939722060546246e-02 3.6940909207767179e-02 1.3547336448076583e-01 1.8145871968908380e+00 4.7944722375619614e-02 -9.1023931503278810e-02 1.7861998630498790e+00 -1.3241647299812573e-01 1.9548096216381872e-02 -1.0427191435734095e+01 5.0658893900242419e-02 -6.7630694443266637e-02 9.9832640899436154e-01 5.0309646144139075e-03 -8.3998961264715177e-03 -3.1381617613709367e-01 -1.4228584974170622e-02 -9.9358267233891712e-02 3.0893055017179760e-02 1.3164027036518755e-02 -2.3520048128910724e-02 9.3832350204132675e-01 -1.2631914150967379e-02 8.8206098593810039e-03 -1.3055992910763120e-01 -3.9009457573988909e-02 2.1077826618412621e-02 4.7257034002942397e+01 2.6302566615413081e-02 2.8001632597996573e-01 -3.2852887405826370e+00 -8.3393494771133447e-03 -1.7487063282470405e-02 3.9059942676427034e-01 -4.0726664003224444e-03 -2.0666880396904061e-01 5.5579717912923599e-03 -6.8935412718076433e-02 1.0361972913801257e-02 9.7304041605472014e-01 2.9464101116307692e-02 1.2465033015728832e-01 -1.7618705299270276e-01 -6.0361132998488554e-02 -1.5094573369536783e-02 2.0697743980358947e+01 -9.2772814583960972e-03 -3.7159044615172176e-01 -3.2722983793346927e-01 1.9555200862797495e-03 -1.7798251699638445e-02 6.0486023254220589e-02 -2.9018333099326988e-02 1.8413799110164358e-01 4.8611101015363367e-02 7.7283144252635827e-02 3.9229455271903246e-02 -5.2749167435676352e+00 -1.6638599915768840e-02 5.9652935949645151e-03 5.0445339454386673e-01 -2.7491358170802838e-02 3.0415977417848372e-01 3.6196159945485391e+00 3.5961513689983376e-03 2.1003118041275130e-02 2.3962510243861841e+00 9.4447910649266859e-02 2.9526877044133749e-02 9.8810563821483455e-01 -1.3346643839279931e-01 1.6650712107260990e-02 -9.5658401615943522e-01 -2.4962586956319444e-01 3.0666574995515922e-02 -4.4139768075814807e+00 -8.3770564022820487e-02 2.3760430865937487e-02 -2.7440463580306829e-01 2.4123910512084592e-02 1.8699167463340061e-01 -7.2110520477456364e+00 -7.1645337221618455e-01 -1.1531409678911702e+01 -1.8532226586656904e+01 1.3448828354618847e-01 1.8647263062002581e-01 5.8142255344028397e+00 1.3949213758919057e+00 -6.5549668795810758e+00 4.9169522275291166e-01 9.4705727227112080e-01 -3.9910845641642823e-01 -2.2969368822289951e+01 8.9652746856160093e-02 -8.2293151272785448e-01 7.5463921481104030e+00 7.7594746951343474e-01 -6.2502026929360777e-01 
      </Row>
      <Row Index="40">
        1.6208288451442190e+01 1.0033286806120614e+03 9.6211876259470568e+00 -8.3481426821730373e+00 -2.2477673072067296e+02 -1.6799460715311385e+00 -1.4392447737334455e+00 -1.5537411468518039e+01 1.0464864655131283e+00 6.9087305475123113e+00 9.3800700636763708e+00 1.8068700061695214e+01 6.5300475010770320e-01 9.2500651716758398e+02 3.1378623099403191e-01 4.1189215542546318e+00 -5.2679139070305268e+01 -1.5842228709173970e+01 -7.5307110692378103e+00 -1.0742010419412352e+03 5.9043116481226914e+00 -1.7639815747066090e+00 5.7450155725241007e+02 -1.0520576775367161e+00 -7.7851821115096165e-01 2.3708406110062104e+00 -1.1401101596122880e+00 -1.0985820260169241e+00 1.3744213031764863e+01 -1.1660227018101068e+01 -1.7551902486834807e+00 5.3425319146289826e+02 -5.0258258515340817e+00 -9.2364453692766091e-01 -1.3464763382806433e+02 2.7340463110241191e+00 -2.1349310345836120e-01 -1.4732232254137823e+03 4.6283453281575948e-01 -1.2397349382443430e+00 3.4371124868550078e+02 3.2051477531637629e-01 1.3778929667547357e-01 -7.6688728593854838e-01 -9.3955771114037478e-01 -8.0209933336424455e-01 -1.9929378630688448e+00 1.6929983835249396e+00 -4.6436701132237174e-01 -3.1336383228766931e+02 -4.9370907943057585e-01 -5.3040804035729228e-01 -2.4401398842007499e+01 -2.2094162141881526e+00 -1.5597488977730904e+00 1.6163760308990443e+03 1.0774370248769074e+00 1.3861999054844176e-01 -1.1988077292789183e+02 2.5228499010950145e-01 2.7916213014788838e-01 1.4979309094303375e+00 -2.0837940960484436e+00 -1.5927466982472538e-01 -1.2556339984857914e+00 -3.9028212996198399e+00 -5.0585322134409694e-02 -7.0870927222066598e+01 1.1038017370981192e+00 5.1858840413964913e-01 -1.4323029571301768e+02 3.4094898427716487e+00 -3.7420126395562967e+00 2.0395111788012214e+03 -1.2608344964381876e+01 7.4016580240659096e+00 7.2085310970310741e+02 5.3396139851560243e-01 1.1775516839375784e+00 5.1341406141683787e+00 1.0820703288025904e+00 -5.4040947007037685e+00 -3.8779297927644762e+00 2.0734037438699659e+01 1.4290534326209814e+00 -7.4230940051874245e+02 1.2016227172249181e+01 -1.5093265774422229e+00 1.2557817670637311e+02 1.2128655477898265e+01 -1.9476144739023198e+00 6.7686041401758223e+02 -3.1068466971023776e+00 3.0363235936695077e+00 1.9436290972337115e+01 1.6778673374861763e-01 1.3836992021031165e+00 5.7945618929595466e-01 -1.0419196634504708e+00 -6.3158094016786470e-01 1.9041936929193355e+00 2.4254894346216536e+00 1.1809858464612710e-01 -9.7692607646179979e+01 9.6536338431012514e-01 -1.0912161949505390e+00 4.7972311006108590e+01 2.5949473947261965e+00 -2.0112900016493143e+00 -1.7750902524362343e+02 -6.4428106354836245e-01 -2.7126661023138894e+00 1.2872122734016244e+01 4.4558156305325269e-01 -8.9724209413782319e-01 -5.6823508162523240e-02 8.5940967084109587e-01 -7.9538754519207799e-01 -1.3028475895636120e+00 -7.6478580295233041e+00 -9.3219061395534131e-01 4.6509059089122252e+02 2.3456876677342686e+00 -1.2278693902516693e+00 -4.4756850553475509e+01 8.2903230578108378e+00 -2.0344530759418560e+00 -5.4179297098794987e+03 -6.9423888636531572e-01 6.5910844210499420e-01 3.9970164647307229e+02 9.9441761517189775e-01 6.5819027047893996e-02 1.6690011228924106e-01 -4.4283069027739957e-01 -1.4935474809447729e+00 -4.9019877247646093e-01 1.7160467895770239e+01 -8.2162590856148654e-01 4.3780306802030634e+02 -2.0319694116172360e-01 -1.6262164794901235e-01 1.0350688367721679e+02 -1.5046414567133581e-01 4.7095554455103734e+00 -2.0352959318207127e+02 8.9941196047121252e-01 -2.2156362707276678e+00 2.5639714504853748e+02 -1.7004688091435725e+00 -1.4569098049034901e+00 -8.6051066082289367e+00 6.2062411653275817e-01 -2.0267431771959332e-01 1.6372041595989391e+01 2.4778152912758461e+01 5.0166701925462576e-02 1.2020760107376657e+02 5.7618899143810758e+00 1.0830602297409371e+00 -7.3401713793683967e+01 -6.8040952169679496e+00 4.8888620595498878e+01 7.6322484590290651e+02 5.2501465771577955e+01 2.8797225165892087e+01 -2.7676974310214468e+03 1.2333672430636966e+01 -1.7600303588983309e+01 7.5837065840144460e+00 2.6993153015139598e+01 3.8159874916016605e+00 -5.0492876638116854e+01 2.0252738771906235e+02 1.7135154195926134e+01 4.4593927179505554e+03 5.2958634607829822e+01 1.1886185148015130e+01 3.9720712952113013e+03 -5.7873105750059764e+01 5.7492103357954181e+02 
      </Row>
      <Row Index="41">
        1.1106888499215650e-01 -7.2535751916388076e+00 1.2714298801721941e-02 4.7668309860809915e-02 -1.7357387880662480e+00 -1.8356398665571444e-01 -1.8877036192779261e-02 9.6986366699058843e-02 2.2104531613463818e-03 2.4994355479393611e-02 -1.5676357701589663e-02 -4.1140942770736606e-02 6.3471347566064276e-02 3.0336176174697069e+00 1.7942753469100209e-02 -6.5259628409967685e-03 1.0965179482461063e-01 -3.9964703629897742e-02 -6.2751898391013847e-02 8.0772404853161195e-01 -1.6100094168913837e-02 -4.6807839812210837e-02 -2.1037332215824889e+00 1.8964894683819991e-01 3.3649616480043831e-02 1.4841461058616445e-03 7.4534463522494994e-03 5.6413975408368733e-02 -2.7069723378965120e-02 7.3586516632292917e-02 -2.8011610645146855e-02 -4.5760293838432613e+00 1.1950014696301237e-02 4.7041313498399934e-02 3.7081298201887108e-01 -7.6869138866247161e-02 1.1559654906657651e-02 -6.4587338437539774e+00 -4.9039831229932829e-03 3.2801348222181725e-03 3.2051477681309770e-01 6.4407338348915974e-02 7.7836868882219246e-03 -1.2615420398224109e-02 -4.4745294093142957e-03 -5.9219753288567920e-03 6.7415897759110269e-04 -2.6808161860185920e-02 -3.7383981770851032e-02 -9.7492446429393009e-01 -6.8872598373696282e-04 -9.2832546512545966e-04 -3.1258537452631852e-01 1.3869821877929622e-02 3.3269670558582209e-03 3.4476729731484579e-01 -1.4656961852547390e-02 1.4074053621195515e-02 -2.2404939089431142e-01 -6.0057120487438831e-02 1.8444322530907220e-03 2.5225328017027371e-02 -2.0089741825207806e-02 -1.5066138258954420e-02 -8.8256730223967850e-03 -1.4218135434104454e-01 -3.2102855571006783e-02 2.5288252706667214e-01 8.8025231354075043e-03 -1.6504667216930446e-02 -4.3604661139510170e-02 1.4953960080673456e-02 -3.1331488704524929e-02 -1.0463757349888414e+01 1.2876416351551970e-02 1.5836213990503861e-02 -2.5438337837463618e+00 -1.8457871479908383e-01 -1.2075946295211559e-01 -2.9460788062185397e-02 3.7745241973405327e-02 -5.5835915267473862e-02 1.5831672795186216e-01 1.0050640740099565e-01 4.8362656461970854e-02 1.6616601876593142e+00 -1.4476788563736187e-02 -1.6851424409515113e-02 1.4811830959829413e+00 3.3766149283081387e-02 6.2681949831659978e-03 -3.0834614375004028e+00 2.2760552748500938e-02 1.6965630264144882e-02 7.5232237257622891e-01 6.3496279949654538e-03 2.0935139892248600e-03 1.5538715004587068e-02 -4.5082265454671668e-03 -1.6431258090238352e-02 -1.5157999561852264e-03 -1.8176198424001200e-02 -2.4362637082779824e-02 1.6507956514807853e-02 -9.3510497162074130e-04 -7.4083305149909642e-03 -4.1513466159760443e-01 1.3290625023789089e-02 2.1301080602680322e-02 5.6900521210404067e+00 2.5199865837239654e-02 -4.9496961444281951e-03 -7.8716385514522802e-01 -1.0426817116241160e-02 9.7670361517372406e-03 -9.8880017614133564e-03 2.9686571993232880e-02 -1.2114461601247331e-02 -3.4887204340206424e-02 -2.1003956049671590e-02 4.6967400096110060e-03 -7.7964003522340497e-01 6.7875073883931769e-03 2.1352356889574597e-03 -4.0949326586540935e-02 -3.0923029605540719e-03 2.4752268972627056e-02 -1.1060365532695121e+01 -9.2900589907249365e-03 -4.3627003140600529e-04 9.7274344912208210e-02 -4.3823159368910236e-02 8.4870799160914334e-03 9.2218115795463795e-03 8.4135537083044852e-03 -1.6043051613948395e-02 -1.3255914481843822e-02 -4.4812224079350260e-02 1.6851694585188204e-02 -2.1973201081214495e+00 3.2081647521504802e-03 6.0398322623236092e-03 -3.9143282393105883e-01 5.8893765938572429e-04 2.1679806128546895e-02 -2.9019332687621713e-01 2.4799794571229362e-02 1.4487559453343022e-02 -2.8814885768379161e+00 -1.3009563687957049e-01 -9.0603662971652940e-02 6.8079750323764565e-02 6.1996260919900952e-02 1.7893470735949359e-02 1.0166179172082385e-01 1.2884458668474719e-01 6.2128854946546068e-02 4.7721002625732369e+00 1.8435412398490100e-02 2.6170388327611968e-02 7.5010106788165776e-01 -6.9775710207039821e-02 1.7409348025260840e-02 -3.8069994730923753e+00 -4.5416932973536994e-01 -9.5818428955677826e-02 -1.1557646349475085e+01 -7.7292760536217742e-01 -5.8113590813723276e-02 -1.4397189112461461e-02 4.5985305967544460e-01 -1.4205785803080223e-01 -3.2583427118054153e-01 1.3024352335076894e-01 -5.3784552432967914e-01 -2.6406988090700416e+01 1.0031058178287111e-01 2.9602012396815258e-02 -4.8641934697414584e+00 3.2879833962097704e-02 -1.3086259948043271e+00 
      </Row>
      <Row Index="42">
        -1.1032931387234116e-01 8.1178022276095660e+00 -3.4125029451254049e-02 5.7302564637422414e-02 -1.6153291862791637e+00 -1.0577465665851205e-01 1.5376564422533104e-01 1.6716057499862091e-01 -3.2583323533736622e-02 1.0398563739463282e-02 3.4012873438549091e-01 -2.1141821932597719e-02 7.6727958291693918e-02 2.1811517381715717e-02 -7.3236342369255178e-02 -1.3410191252640410e-01 -1.4228004769975500e-01 -1.3960370724349608e-01 2.9930032530512340e-01 -1.8358049763139395e+00 -2.2574408201937700e-02 -9.0536196969186217e-02 -3.6288206471628515e+00 6.4762119741855985e-03 -3.7930128123834467e-01 -1.4845314949981314e-02 5.0107527004843149e-03 6.4732015779668250e-03 -5.0282111395449525e-01 -7.6190428941023902e-02 2.8179570017940379e-02 3.3542295979352548e+00 -6.2353892014066922e-02 -5.6744264918461629e-02 7.2801315819820189e-02 1.1544855109076092e-01 2.7570643072975781e-02 -2.5193730367344092e+00 -2.0004409080396274e-02 1.6363739319315840e-03 1.3778929844266030e-01 7.7836868872303011e-03 1.0800850076813646e-01 -1.8251437926303044e-02 -2.1186532710044054e-03 -1.2395191406091410e-02 1.8682369060491831e-02 -3.3561296202832824e-03 -4.9476755521894854e-03 -1.3807710032588192e+00 -2.7513444549823043e-02 -4.7368478034788171e-03 -8.3460227752862826e-02 1.0052428934631874e-02 -5.4827501638476939e-02 -5.6733043679659962e+00 -2.1435985279170455e-02 7.1693383877934336e-03 9.8968053204895101e-02 -2.4687564930344630e-03 -8.7301064174977849e-02 1.6242248020306160e-02 -2.4798257703585062e-02 2.4452845355973252e-02 3.7229485918011118e-02 -1.8541880295850716e-02 -3.0590692701986777e-02 2.0400872168065115e-01 -8.3164219864694921e-03 2.4101190572213160e-02 -5.2504335459318197e-01 1.7073538037239100e-02 3.8885241375659685e-02 -9.5441048280632579e+00 6.9266335487755862e-02 -1.2951789545350784e-02 1.9085735033109184e+00 5.0431000554788413e-02 1.6468471372642352e-01 -5.5254763190218104e-02 -1.3937871830158530e-02 -2.0800657839174518e-02 4.6380381264460341e-02 1.1593779467251439e-01 -4.4955372190996684e-02 -4.0162059398964738e+00 1.7717321807706354e-01 2.9131732788584490e-02 1.0432488545390362e-02 1.4437594066617349e-02 4.3774883607894388e-02 -6.0081858239416901e+00 -2.4696071186417416e-02 2.6007333186060078e-02 9.9284081268161484e-01 -6.3608508556642612e-03 -7.9507362102685164e-02 3.1294292955407102e-02 -1.4637274198809266e-02 -1.7965364871700411e-02 -1.6823629546656926e-01 3.1397851999914794e-02 -1.7828053970073407e-02 -7.9461204139351205e-01 1.3620871134457306e-02 1.9508683422827251e-02 -2.3093018327949755e-01 2.1413777772536065e-02 2.9328366422597840e-02 3.9020229772972215e+00 2.7272493659141861e-02 -1.3272362863097520e-02 -8.3712774874078244e-01 1.8632905030120384e-03 -1.5302592678924221e-01 -8.1115252669727370e-03 6.4179976052838872e-03 1.9111849945207940e-02 3.0052140655866921e-02 -1.4032080375046239e-02 6.8818465935711198e-04 1.1380584261890965e+00 2.9056765165645516e-02 4.6047496148038380e-03 -6.7227965725956587e-02 3.9830663073607164e-02 2.3978012377893099e-02 -6.0476905098540783e+00 -1.0807420165403814e-02 6.2119292386862979e-03 9.2645563000577424e-01 -6.0791445248127296e-03 -2.8764442424395131e-02 2.0522713858313502e-02 -1.5871062724614023e-02 1.1742115316878812e-02 6.0028880690744524e-03 1.8221213464640895e-02 1.7299852675749072e-02 -1.8330382812968766e+00 -1.5672357861905739e-02 -5.8882673443696951e-03 -2.3420797880642377e-01 4.9342136818147919e-03 1.8474894764641586e-01 9.1608837638983687e-01 -1.0102721614297511e-03 -2.6517775748979434e-02 -2.2102107612786903e+00 -4.3533698306684881e-02 -7.8972103558009668e-03 1.1601428539089725e-01 -3.4300397903165497e-02 -1.8847890939389600e-02 1.4701651558199129e-02 1.3107089680941902e-02 5.7042711397636309e-02 1.3896841517300775e+00 1.7298515088650671e-02 -1.6521509621382507e-01 -4.1959197082948885e-01 -5.3894864594717373e-02 -1.0650769342812922e+00 -1.6074429383659123e+00 -5.1751195883281542e-01 -1.3810037600840125e-01 -7.8900198572197047e+00 -1.3511681780924789e-01 3.3735443009973771e+00 -4.6973096865765562e-04 4.3623206157216454e-01 -1.4585382340057892e-01 2.9038460930025964e+00 2.6370786246198574e-01 -3.3928823140363562e-01 -1.6508950242113055e+01 5.9310886317447142e-01 9.7806078332570046e-02 4.6790055329150055e+00 -1.7988975826494596e-01 -5.9129566046877091e+00 
      </Row>
      <Row Index="43">
        -5.7547464595239149e-02 3.3190812995609846e+01 3.1531363086866782e-01 -5.9703364950343440e-01 2.4280406244438715e+00 2.7594675008100600e-01 1.0621509186320478e-02 -1.7846808757305148e+00 -4.4650529950597984e-02 2.8671353708612723e-01 1.7307526112053290e-01 7.6500326775188934e-02 -4.2634795442695417e-01 -1.1521976884107980e+01 1.6661744260249189e-01 -2.6776348572948000e-02 -8.5504092229770667e-01 -4.0165320726826360e-02 3.3542489013277499e-01 -2.6805352136761144e+01 2.0999579420102071e-01 -1.3272587320536311e-01 1.1965684725263965e+00 -2.0183427523910782e-01 2.7722311759191909e-01 -5.4655995547643998e-01 -2.1361808260142223e-01 -3.0610161029054439e-01 -2.6650350432976710e-01 1.4603662426949299e-02 -9.0641135246664742e-02 -1.0446816393268074e+01 1.0710919556772756e-02 -1.4389789822881485e-01 -1.7681256376266261e+00 2.2591384004342463e-02 1.5210203782741292e-02 -3.8562439377450151e+00 -2.5001970200519558e-02 1.3292339335039960e-01 -7.6688728428736486e-01 -1.2615420385266196e-02 -1.8251437912579618e-02 5.2381303996613604e-01 -3.1482026527173225e-02 -5.3571806874517527e-02 -8.9936371611870403e-02 3.4729651911720637e-02 8.6823019850896539e-03 -1.9279271473025439e+00 -4.5056997993299201e-03 -1.6166664884366889e-02 6.8149804300426675e-01 -5.5655444979193724e-02 -9.4461082867625557e-02 -2.5717138239545040e+01 8.9788386625724304e-03 3.0449910784294154e-02 9.4173950877740253e-01 6.2536576057993010e-02 -1.1958264550388176e-02 3.0385574921853786e-01 5.9778668676905969e-02 9.7987258667891375e-02 1.1165046780912213e-01 8.4559223518663962e-02 2.7948856588551063e-02 -3.4449697412085274e+00 -6.4177017626494692e-03 8.5922788478544732e-02 1.1817921667101439e-01 2.6371556654973927e-02 9.1580868295707413e-02 1.1370752794305904e+01 8.5162600728601823e-02 1.9646502289115880e-02 -5.4756606707901652e+00 1.4152086402286010e-01 -2.2514659225514141e-01 4.9688271108643906e-01 2.3836494370729594e-01 7.7974330840554926e-02 1.9751163351647769e-01 3.1723220245958188e-02 2.9427806142682900e-01 1.2122412664627897e+00 -3.0665465264282765e-01 3.1253839480301893e-01 1.9495927493498488e+00 5.9304999044262272e-02 7.3523533761132853e-04 -7.8178004325071555e+00 -8.0251299841875401e-02 -5.5501975849112206e-02 8.6378090579740152e-01 1.0599112469440786e-02 1.5860245252451222e-02 -2.5059312749067408e-01 -2.6639034892390223e-02 -3.0119437382431953e-02 1.0554517114445128e-01 1.6636849476650110e-02 5.7531269483013028e-03 4.9203317609998489e+00 -7.5127799661486125e-02 1.0457022079268408e-02 -1.3450862123532501e+00 -2.6038516994410524e-02 -4.3597612217718407e-03 -2.6845166425199427e+01 -3.4666846874208845e-02 2.2403844884803625e-02 1.2307052937120042e+00 -2.7898746485792714e-03 3.8974960175420570e-02 4.8831906758924437e-01 -3.1660384757311366e-02 -3.4177782447975452e-02 2.4646112508790452e-03 6.8151825810907007e-02 2.0623733920419694e-02 -7.8368235091100562e+00 -8.1983403099204280e-03 -6.0234907023159145e-02 1.6527534290585781e+00 7.7551508944321945e-02 -9.6963564340606156e-02 -1.6798570079619985e+01 2.9726606261899824e-02 -6.0648885903131333e-02 -2.2979024966550372e+00 8.8837889322352703e-02 1.8667479403648990e-02 -1.3778575957535466e-01 1.5565044919663623e-02 -8.2313936082689540e-02 8.2842590217603096e-02 5.1057643469690994e-02 -9.9570731023099768e-02 5.7404699723112840e-01 -2.2304645005159940e-02 7.5862578727935864e-03 1.1989424175626413e+00 -2.7419655914646679e-03 2.8398721784556752e-01 3.8968932816321242e+00 5.3121347452373391e-01 -6.3633389469621449e-01 -6.9391975375936674e+00 2.0757147413909424e-01 5.6464493222076320e-02 -1.8646259488501145e+00 -3.7934936342105686e-02 4.7266608161785705e-02 4.3311127082071882e-02 1.2772079617573781e-01 -2.3823022579003086e-01 -2.1484689362276299e-01 -1.1314698413440787e-01 1.0694202137231140e-01 5.9969720855922581e-01 -5.4734689021017496e-02 2.0885625141762443e-01 -7.0659104624146174e-01 1.8665467270830449e+00 -1.3547282996676868e+00 -8.7574998831037476e-02 9.6531622247416848e-01 -1.2592812152850117e+00 4.0075250257255073e+00 -4.8381263396712859e-01 -1.2736271529208565e+00 5.1795331113145382e-01 4.2809893986236958e-01 1.5816268598047287e+00 -3.6794000432988625e+01 -1.8907273276085199e+00 4.4446312011046629e-01 -1.3059485333702501e+00 -3.8297388883963301e-01 -2.5718377489880481e+01 
      </Row>
      <Row Index="44">
        -5.9300785385085841e-01 2.4346712230874346e-01 -2.9201237863978624e-01 2.9792598516399954e-01 3.2183480329741672e+00 -2.9692193485537831e-02 7.0996472780949518e-02 3.4149584495143492e-01 4.8134275576434593e-01 -1.8022942659802474e-01 -2.0553974070348846e-01 -3.0376442161841222e-01 9.3751288073477212e-02 -1.3267570033862389e+01 -7.8281303300016050e-02 -2.1529764235219387e-01 1.0063186244548723e+00 1.8488115758788504e-02 -2.4126380823976931e-01 1.7138891790353480e+01 -6.5247375731837920e-02 -3.3717386143624274e-02 -1.6314911904142428e+00 -1.1360137826683325e-01 8.9853293899817638e-02 -1.4407336607653476e-02 -5.5283613656282489e-02 -3.0565311162057074e-02 4.2228235364831987e-02 5.1786163201452740e-02 4.5171393638706488e-02 5.3788076880126134e-01 -9.8020295356538306e-03 -5.4622058141771096e-02 -3.4617878134155444e-01 5.6526384910879614e-02 2.0836820412628750e-02 1.3279690777816572e+01 2.1059417149083916e-02 3.1877094973499498e-03 -9.3955771259367071e-01 -4.4745294009428394e-03 -2.1186532679719362e-03 -3.1482026507402991e-02 1.3814303757529700e-01 8.3449239705439285e-02 1.7900178535815159e-03 -1.0378901114006273e-02 -3.4405165863600588e-03 1.6485747923910021e+00 1.8361809721341375e-02 2.4338763956935329e-02 1.9614113490774271e-01 5.8732172028477247e-03 4.7499888788595790e-02 7.9411523604695891e+00 8.9304745439372168e-02 4.1790601784961967e-02 3.0916229537752837e-01 1.1940581561078578e-02 -9.3518174107631857e-04 2.2307927339025757e-02 1.3030185637792649e-01 1.4861595790091275e-02 -3.0163981331493339e-02 5.9106500432754124e-02 5.1660584182658953e-03 6.8259968534266218e+00 -7.4407042362299447e-03 1.0113268723758617e-02 3.4896300576312222e-01 -2.1952579227919378e-02 1.0997852304558628e-01 -5.0547495510864628e+00 -2.4150139900046420e-02 -1.5247918652400147e-01 2.0298327910592819e+00 8.5096489072702772e-02 -6.9889584897338305e-02 2.4993028151181790e-02 -5.9484177214517220e-01 -1.6534410047090542e-01 7.5896539242434558e-02 -4.4699780489848950e-01 -1.1157457246293051e-02 -4.9879240994115293e+00 -4.0612854405401966e-02 1.2621258951043735e-01 -1.6316299475981870e+00 3.2081046333222694e-03 -3.1991147740537462e-02 6.2997609905230014e+00 1.1652086168458241e-01 -1.6229524439256460e-02 -5.8649411369816873e-01 -1.1522690878310593e-02 8.3271560297033531e-03 -2.3177845821203146e-02 8.0101726181387639e-02 1.3679799118274098e-02 -3.7758742842208814e-03 -1.0889537966495860e-02 2.1473106626899517e-02 1.1539886241740616e-01 -1.5603055361638196e-03 2.7361721944430539e-02 2.0804238980974474e-01 -1.8937758289840751e-02 -1.7392460182673930e-02 5.5552955341896322e+00 -3.3033616711137248e-03 -1.6178058382514959e-02 -8.1304186089757913e-01 1.8125607921907205e-02 1.3290762758252583e-02 1.9438506964838037e-02 -7.8996645556221934e-02 6.2140401324168947e-02 -2.5782512489049836e-02 5.3843079400269729e-02 -9.6444547208379416e-03 -1.7229365004832444e+00 -2.3053093837470569e-02 3.4953500919765457e-02 1.8215643362432324e-01 -1.4553083382311427e-02 -5.5242562313531640e-03 2.0927423637237772e+00 -3.2664448369878474e-03 8.5016432695972366e-04 4.5625358290347862e-02 3.2161012403043476e-02 -7.2686228753655602e-03 1.3526617300863131e-02 4.3624481035709012e-02 -2.6046846656115986e-02 3.3320869596461522e-03 -4.3804817367205429e-02 -3.8841414860874446e-02 1.5195853882671297e+00 1.0746577913491033e-02 9.1565081336860074e-03 -3.3353987089442816e-02 -7.1590027789611432e-03 -6.5289027622672813e-01 1.3608499478462903e+00 -3.6140374824172689e-01 9.7876497626163822e-02 1.7779409061519156e+00 -5.4939279163780719e-02 9.2634147257991642e-02 3.1028067243866175e-01 -1.0752912631814401e-01 -3.3592448639662770e-01 -1.1173649876423483e-01 -6.7359341031204623e-01 1.2839188438038837e-01 -1.7970436416764251e+01 -1.1696989241063944e-01 -1.3328161366275587e-01 -1.2673967810071842e+00 9.4458116013989998e-02 8.0874137559179804e-01 5.8360772803358900e+00 -1.4208375960330351e+00 -3.5765259725079002e-01 8.3952009887647492e+00 4.0803354859440955e-01 -6.3010179574419400e-02 1.5079982765841918e-01 -4.3691746393544504e+00 1.3680669702415598e+00 -2.8496005757622028e-01 -1.4230286954724503e+00 4.5981345841551580e-01 3.5132777892365095e+00 -3.3320448955682558e-01 -3.2876522205570091e-01 -5.9253243574096972e+00 -1.5216660913910385e-03 -5.2410061792780667e+00 
      </Row>
      <Row Index="45">
        -3.8641731150738445e-01 -1.1821518258086499e+01 -1.1245267923763611e-01 3.7483042009183865e-01 -9.2064993117725820e+00 -1.9933693634970559e-01 1.4688564755687777e-01 6.2390577561330840e-01 4.8736771045216321e-01 -6.1006782274078475e-01 1.7956287469714693e-01 -8.4094190996428942e-03 2.0337079720713830e-01 1.1726036538782097e+01 -5.2129061265519822e-03 -6.7566375481299423e-01 1.3173989504556312e+00 4.0900410057648370e-02 -2.5364655262893659e-01 5.2669921359681872e+01 -4.6850828055146865e-01 -5.5129727419454000e-01 -8.8733621611238345e+00 -2.6994625374934245e-03 9.8266132092958786e-02 -1.7000098426797017e-01 2.8609279338785770e-01 6.7248711783209403e-01 -2.4417866499752257e-02 -1.2589533849833812e-01 4.7148731257285643e-02 6.3869382482865813e+00 1.7779847353525266e-02 -2.9555841142078210e-02 1.0482345695308073e+00 -2.0553697364389723e-02 -1.1034443572261493e-02 5.7490844075098479e+00 -4.4070697753700483e-02 -1.1755292947303242e-01 -8.0209933312661974e-01 -5.9219753357160343e-03 -1.2395191406070885e-02 -5.3571806882301024e-02 8.3449239713209486e-02 5.9282614470972417e-01 -4.1630915030642646e-02 -7.7748620805850488e-02 1.4352978987140236e-03 3.5002885481754835e+00 4.0970072277417870e-03 2.0132763978257237e-02 1.9463536993286423e-01 -1.6897295076075380e-01 1.3089842368573645e-01 1.2408565499791129e+01 4.6381558852744309e-02 5.0492099817161917e-01 -2.8441790979745591e+00 1.0883184431990323e-02 2.2624644624422707e-02 -1.0933961608245202e-01 -3.2184648101295558e-02 -4.6923028844439951e-01 -1.4343542825798750e-02 4.4755509846524835e-02 -2.7383716009269143e-02 1.5558631018289679e+01 -3.4145922438989333e-03 -3.5528581201810461e-02 -8.7216780602148125e-01 1.6045075378858620e-01 -1.3445218339313059e-02 -6.0847266566109042e+00 6.1643015938755805e-02 6.1750494692289992e-02 7.3668489275090776e-01 1.7773011257325566e-01 -1.7315307692900064e-01 -1.9910421802906947e-01 -5.4612559616694079e-01 -7.3027577294572599e-01 1.6203247771666368e-01 -3.0856633225389568e-01 -2.8519673158746262e-02 6.8777924365019638e-01 -3.7000135278218771e-02 4.9004765599703631e-01 1.5916550485980556e+00 1.4811362267227624e-01 -3.4623789394487403e-02 -5.1518228663289216e+00 3.4418726656894189e-01 -5.3794750047196693e-02 1.2577823603924934e+00 -1.2450231298921505e-02 2.0571164406380404e-02 1.1044002648939705e-01 4.1419249969824490e-02 -2.4166184605533630e-02 3.5689048443336979e-02 -5.9087501292812705e-03 1.7610419138790120e-02 -3.0196505269837419e+00 1.0580835251277383e-02 1.3963927655634256e-02 5.9687702888764971e-01 4.0237783908555327e-02 -1.6559167087550541e-01 2.9870281466024750e+01 9.9023715852242233e-03 -5.1660651647335243e-02 -4.6294694960202269e+00 3.8692758039490016e-02 -3.4343921561861279e-02 -2.1652726932272492e-01 6.4984505374248158e-02 3.7305339313862879e-01 5.6748146918657483e-02 2.5060066412120552e-02 -1.5155506369473458e-02 -2.9991408615771369e+00 -5.4021240399500361e-02 3.8528670185754343e-02 4.0521436440528114e-01 8.9359664883922996e-02 1.4562613019898585e-02 6.7589116550135500e+01 -3.4263376464416906e-02 7.4610049363554420e-02 8.4915277239349418e-01 2.7810405595352083e-02 -8.5980779055034873e-03 -6.3272822345544100e-02 -3.1834031219206305e-02 -2.2834603586677460e-01 -4.2372044329788139e-03 -3.5615935100943297e-02 -1.6601103421054475e-02 -4.0730575430132587e+00 2.1482041691239916e-02 -2.1340668269375043e-02 7.4810940187446962e-01 5.5369828197290527e-02 -5.2458844498682911e-01 1.4861473298285262e+00 -3.2196139196529516e-01 -9.2416958347019171e-02 -1.0237996864845034e+01 -3.6728357509278331e-02 4.4856361883844315e-02 3.0268945726647362e-01 2.6980453630826112e-01 -5.4607633481736539e-01 2.8117333723443944e-01 -4.8928244031162138e-01 2.3093913273109901e-01 9.7603053143009024e+00 -1.6992857285078461e-02 -2.2893437905899022e-01 2.1403556502333361e+00 1.0371665725082191e-02 6.6880542838634760e-01 1.1734599288794723e+01 -5.7672947412293194e+00 1.1995922362745608e+00 -9.7892299148178328e+00 3.4457544092704495e-01 -3.7845343458541247e-01 -2.7655494117253188e+00 -2.8596095746692201e+00 7.4291006028376163e+00 -6.7550243835789159e-01 -1.8791753225710059e+00 2.5012310331611332e-01 -2.3406343408057531e+00 -3.8075559346293986e-01 -4.1130431253507282e-01 1.8890353878205101e+01 -1.0709996622460098e+00 -9.7404284059670587e-01 
      </Row>
      <Row Index="46">
        -6.7827386223110422e-02 -2.5785391246858641e+01 -1.3873294075322626e-01 4.7319985943742693e-01 5.1449208212174771e+00 1.1838399183240617e-02 3.3544353835374280e-01 1.2038094873601006e+00 1.4041827619208447e-01 1.7559812212553086e-01 -1.4755531429659410e+00 -4.4602701837331077e-01 1.5962153244257790e-01 -1.3215762728181403e+01 -2.6588788701998584e-01 2.6737392442468810e-02 -6.2789819220438514e-01 1.5470363861536443e-01 -8.1102912211916733e-02 1.4468931885042398e+01 -6.1097426810017862e-02 2.2584298241355649e-01 -4.7593429133813991e+00 1.4455441988547121e-01 -4.8599318535465880e-01 2.3748961918444722e-01 -7.6073715494135122e-02 1.4962660686510754e-02 -4.6310243714340515e-01 -5.2901143242447046e-02 2.2276056754892384e-01 1.6271339206166663e-01 -6.8386366754039016e-02 -4.5744675687889425e-02 4.0534003961347800e+00 5.9369652851909427e-02 8.1949961022581203e-02 6.6466067392409141e+00 1.8952121609637468e-02 4.2426532782018023e-02 -1.9929378623688891e+00 6.7415897689704352e-04 1.8682369055521938e-02 -8.9936371617207980e-02 1.7900178667358381e-03 -4.1630915047005834e-02 4.5160866816067613e-01 1.1221872928063533e-02 -5.8443343373283177e-03 4.8967679616120741e+00 -9.5240644163549510e-03 -3.6381107162003948e-02 -1.0722681541676210e-01 -8.1357228460647857e-03 3.3470743648088330e-02 -3.3119990329577371e+00 -1.5513271285063635e-02 -1.2661878000587068e-01 1.0975880353762038e+00 -5.1400378484333764e-02 -4.1806872408885365e-02 -1.0113441711698856e-01 2.9360591872321231e-02 -1.6928028634954462e-02 -1.7202376031699451e-01 -1.3274967290539778e-02 -4.4803880402197738e-02 9.5655957880304343e-02 3.2055069182505787e-02 -1.9284627179432245e-02 -5.8862672505216151e-01 -8.0193204365798132e-02 -3.6001981221478568e-01 1.0276845698173247e+01 -1.8082541669252794e-01 -1.4106425527086103e-01 5.4156297498477022e+00 -2.2972760798286684e-01 2.1486475756376527e-01 -1.1677104320277687e-01 -2.4418249039868789e-01 2.7583413932149381e-01 -7.7985549338420057e-02 -4.5565281603145547e-02 -2.4020247638734515e-01 -5.8972630430244237e+00 3.1302938057577634e-01 1.3645818216187555e-01 -4.2247281143222581e+00 2.9200188153421258e-01 -1.4624504532586613e-01 2.3151786057310233e+01 3.4199914091307647e-02 4.7852847535332366e-03 -9.6497325669356238e-01 -1.7123795592315656e-02 -1.7753938033131433e-01 5.6448317119292400e-02 1.7466433038027210e-02 -9.8108290323826834e-03 -1.3351822225155496e-01 -2.3947197582903756e-02 4.2299313265772992e-03 -5.0487299174717115e-02 3.7955675062542306e-02 -3.7293902555535843e-02 6.4211189211417252e-01 -3.0371727322740405e-02 4.9830572514224514e-03 1.5428188703056009e+01 -5.2430812902520163e-02 1.6806458032808891e-02 -2.1251701734794768e+00 1.6556027075466773e-02 -8.1732693839445147e-02 -9.0000887204574775e-02 6.9979352251785754e-02 -3.9879413522248386e-02 -1.1473677360512369e-01 -5.6458282956328210e-02 4.2439353920118109e-03 3.1615375971488229e+00 4.7064943398500404e-02 -3.0419354780877761e-02 -1.7467719941267898e-01 5.3363910086142941e-02 4.3378247853320673e-03 1.3051680931416941e+01 -2.7483581616178698e-02 -9.0889439660433169e-03 5.9297954672728359e-01 -5.5604557898369489e-02 -1.4335261713709357e-03 1.1707195302261653e-01 3.1444689380403193e-02 1.9549055709481067e-02 -9.7785481258427787e-02 -6.9752428415326140e-02 5.0507164491006229e-02 -1.7690230037892944e+00 2.1692373527190376e-02 1.5974186683129395e-02 -5.9271785548334166e-01 -2.5138525286078517e-02 -3.6478278247643292e-01 -4.4390282420983596e-01 -3.2208882334791411e-01 5.8685436505830912e-01 7.3971788295655019e+00 -6.3565987001660801e-02 1.4160489417426098e-01 1.3942336564887903e+00 -1.7353902314592756e-01 4.1613064831139135e-01 -1.6875093705776616e+00 -4.7693910670177042e-01 1.3350963703642615e-01 -2.3749236145069549e+01 -5.2972490489564233e-02 9.6193621382800187e-02 -9.5577259655033764e-01 4.5772484370991628e-01 1.8594400738098180e+00 -1.2272257638552144e+00 -6.3338162642843532e-01 -7.1712370281594318e-01 -4.5022548831282627e-01 -6.7759704854493563e-01 3.7952517901920486e+00 -1.2208160423323879e+00 -5.6078628708886391e-01 3.5246696405074168e-01 2.5007953772424747e+00 1.0176140546703438e-01 -9.7293472240872347e-01 -8.6357723616243529e+00 1.2562319069741967e+00 2.7061667071850160e-01 -1.7884715807960072e+00 -4.6032691141871585e-01 -2.2143592706751072e+00 
      </Row>
      <Row Index="47">
        -1.2679383004715056e-01 -8.3739859101866443e+01 -3.9056850737602689e-01 1.5456979109429372e-01 1.7980435722350684e+01 1.4380535962531826e-01 -7.8655786230587638e-02 -5.8656763059469474e-01 3.6435995221594963e-01 1.3586485188540903e-01 -1.9196444096368637e-01 -1.6058165010225784e+00 -5.1866632889448805e-01 -2.8563577249474072e+01 -1.9059527488029074e-01 -1.0370610790877843e-01 -5.6319088421967560e+00 2.2718414937759762e-01 -1.7598970195796959e-01 4.8064541717455725e+01 7.4129226558047567e-01 -1.8556625769178448e-01 -2.9392742715899502e+00 3.4513029562825914e-01 2.1947941699809270e-01 -5.5294849590049744e-01 -2.0145093899549024e-01 2.8795647783261213e-01 1.7309808449753256e-01 -2.7596687448529006e-01 -3.8239900250065401e-01 6.0673494247761646e+00 -1.9583851866862081e-01 -3.1610416708575007e-01 -4.3849940346124860e-01 -1.3538970397114578e-01 1.9047903240805662e-02 -5.4415930746458073e+01 1.8983918815735273e-02 6.9271178939512845e-03 1.6929983774473607e+00 -2.6808161814445119e-02 -3.3561295838082303e-03 3.4729651996008803e-02 -1.0378901117786242e-02 -7.7748620787751299e-02 1.1221872907543951e-02 1.2906684629877720e+00 9.3945379844693908e-02 -7.9813612877311790e+00 -2.4844172256666561e-02 -2.0102230169963639e-02 -5.3307338539392790e-02 -1.2740076304766323e-01 1.8355422904412100e-01 -1.3011442502975715e+01 7.3851477491955420e-02 -7.4934716680610247e-03 4.0423481149217766e+00 -7.8622987162734859e-02 4.4493541134326353e-02 9.0360431979896294e-02 5.2411002417363503e-02 9.4062474892774750e-02 -9.3587932066645507e-02 -7.9085427824702326e-01 9.3900520141655619e-02 1.1853789988101838e+01 1.0038484804631279e-01 5.8546152506653515e-02 -6.4379148556688581e-02 7.9138110646726378e-02 7.0752445880718995e-02 -1.2559003935573024e+01 -3.7585013916355131e-02 2.8845465093748113e-01 -4.1389659729192534e+00 -1.2306001084805429e-01 2.2528181837790262e-02 9.1854696064713348e-01 -8.9481043314526248e-02 -3.3103645472695648e-01 5.9379392694974276e-02 6.7752750558582131e-01 3.4421563973956548e-01 -6.8121793450551467e+00 4.5881289639606149e-01 4.6844889839265813e-01 -2.6790004684253557e+00 5.9504068862575443e-01 1.9844818177846602e-01 -3.4644565171655111e+00 -2.2093847846974460e-01 -9.5510574097596335e-02 -2.1110127667551629e-01 2.1744482577997812e-02 8.6462612624664814e-02 -1.1271701135684351e-01 3.7228822844864957e-02 7.5881888504596873e-02 4.1392357349670394e-02 3.6975149428978948e-01 2.9140147190371002e-02 5.1636476320208979e-01 7.8913521161917105e-02 -3.5276746061017897e-02 -5.8327995439122404e-01 1.1047668548833123e-01 -4.3167506280854973e-02 1.1017371928436233e+02 -1.3908758814385247e-01 1.1430583987092779e-01 -8.1440553464502710e+00 -6.3368911654904991e-02 4.8162848223463506e-02 1.0936562558096832e-01 -7.8700069618561352e-02 6.0109641826348953e-02 -1.2682790909429897e-01 -1.1802552858498037e+00 -9.0105924116637676e-02 1.3093301085205098e+01 1.3710464352761190e-01 -3.8034600695843856e-02 3.4711316143419157e+00 3.8910501558236366e-01 -5.8813806138944269e-03 -1.4315112269292010e+02 8.3760075734878425e-02 -6.5979532354811354e-02 5.6179447062226435e+00 -4.7267597343159995e-02 1.4769115379517750e-02 5.7662618858891790e-02 1.6364986776280080e-02 -1.0383941150452092e-01 -8.6559789834455003e-03 2.3469079266339987e+00 -9.8785590976984139e-02 -1.2022467439458495e+01 -2.1710881652832914e-02 1.4720271263324730e-02 -3.6532071409559426e+00 -8.2395727280929698e-02 -2.0935343601116740e-01 2.3443126660391300e-01 5.4751071937168883e-02 1.9312608241332047e-01 6.6966138962721873e+00 3.4115833654515815e-01 1.7088440056775625e-01 -3.1769252926505409e-01 1.1539962059332937e-01 6.6778808695609149e-02 -5.3076054117791177e-02 -1.1487142222134727e+00 -5.2013592811878262e-01 -3.0409071346650876e+01 1.2498285354329008e-02 1.4590862469713195e-02 -1.0118748594432958e-02 4.2366506293473888e-01 -2.7825052300099387e+00 -3.3763734828195755e+00 4.6557868897302210e+00 -7.7457345825678203e-01 6.4395440388082619e+01 -6.6564614737576377e-01 -1.5198023186635872e+00 4.4888268819751853e-01 -1.5210118876185366e+00 -1.5875477187319881e-01 -2.6212050683829076e+00 3.2932035236388046e+01 2.9722705609847750e+00 6.0653734807034532e+00 2.7200978074668498e+00 1.0788278929815975e-01 -3.4066440433020141e+01 -2.2577568490756543e+00 -5.1302333376644560e-01 
      </Row>
      <Row Index="48">
        -1.9546218558191808e-01 1.3704279694299645e+01 1.0893895491580499e-02 2.8843157397556968e-02 2.3513483390272766e-01 4.3632736809406568e-02 -1.5668820912498278e-02 -1.4363663092322865e-01 -2.1221299952725189e-02 -8.5815125186027574e-03 1.5215055424741109e-01 7.7422915041626086e-02 -1.0118941795702384e-01 -4.5363299970326896e+00 -2.5165295892847564e-02 4.6927122212990946e-02 -1.6283219030122642e-01 5.9899855239854666e-02 2.1424877425972932e-02 -3.3359950094886663e+00 -2.7950045701823960e-02 6.6768465576584085e-02 -2.0103640867062849e+00 7.3297916512636146e-03 -5.1765347568605624e-02 -9.2633620468017902e-02 2.7824450320899884e-03 4.6154955777462980e-02 7.6725702119360528e-02 -4.6851662013211851e-02 4.8661559000176123e-02 -3.9582836456188151e+00 1.7001766264822943e-03 1.0852220991980379e-02 3.8512193622590374e-01 3.9019813757329672e-02 -1.0037107299351047e-02 -1.0665842043425620e+01 -2.2028189789136496e-02 -1.4082789218894054e-02 -4.6436701102139483e-01 -3.7383981767268315e-02 -4.9476755488357949e-03 8.6823019832583288e-03 -3.4405165873526225e-03 1.4352978967830665e-03 -5.8443343293513861e-03 9.3945379817294450e-02 8.3473290789596311e-02 -5.3474012299307416e-01 1.8631849935913545e-03 -3.6973538259250371e-03 3.5691673012388253e-01 -1.5703197988188311e-03 -3.1420327940203663e-03 5.1334890880656170e-01 -1.5055530310065013e-02 -3.0055204836434535e-02 4.9532324790924176e-02 -2.3953907451745193e-02 6.3736396431921527e-03 3.4069279665422947e-03 1.0906566465000225e-03 -1.0090717593756349e-02 -5.3742135228311838e-03 -7.4644149260649828e-02 -2.4894129857541358e-02 2.2680404871478506e+00 6.3052136409248380e-03 -2.1971818474926907e-02 3.0460624958593330e-01 -1.7326473140871157e-02 1.3548760927596465e-01 -2.2313855040014285e+00 -1.0927778992909649e-02 -5.5211645815702051e-02 -1.9553059185986982e-01 9.0440465638734813e-02 1.1721223094746044e-01 1.4250322609215538e-01 -4.0119979541755585e-02 -4.5011135261504839e-02 -1.6221084977793018e-01 2.0040136392433811e-02 -7.7329947937465726e-02 1.4206666683426330e+00 3.2145048173311985e-02 -5.0077479140182395e-02 -1.6162719390406810e+00 -6.4280458453738976e-02 -1.7030160335668842e-02 -5.5746418887597571e-02 1.0770877390309012e-02 -1.6989423808365767e-02 -3.3776188307625188e-01 -1.4311921434452219e-02 1.0648436991484544e-02 -2.8694342662016842e-02 -2.2201084753603439e-02 9.1064755975311940e-03 4.5940737511735996e-03 1.4041449148852025e-02 1.8999285160737289e-02 -5.3340978019118079e-01 1.7125509557399325e-02 -6.4731627812346544e-03 2.8513511089710625e-01 -6.9218831164050698e-03 -1.3496850601913524e-02 1.7295069036774024e+01 -5.7737187439459436e-03 -3.5905227259984684e-03 -1.7002730242388517e+00 -8.1395570644566817e-03 -7.0183354504722573e-03 4.3861412550890155e-02 -7.6946672838381636e-03 5.0367810461819894e-02 7.8381662131210561e-03 -8.5376811524680601e-02 -1.4589679025508385e-02 -7.9494682060268906e-01 1.1242878867508098e-02 1.7900633144089628e-02 6.6547172905504315e-01 -1.4914636581520035e-03 3.3266685705483967e-02 2.1218523403082077e+01 -1.3141364644423281e-02 7.6806853257682661e-04 -8.9015357012688856e-01 -2.6628741596971706e-02 -1.3966880442160434e-02 1.8015568520054259e-02 -8.3919060634197358e-03 -4.8929464189133576e-03 2.9056992823512262e-02 2.3066106484072857e-01 7.0038539252180509e-02 -2.9633481129060510e+00 -2.0260361264765742e-03 2.2236191951447992e-03 -1.0924742298725190e+00 -7.4306829541824770e-03 -4.8904310346183748e-02 -4.4822492346696663e-03 -7.0950000279622200e-03 3.6118218952681261e-02 3.5413252212321042e+00 1.1242988147148238e-01 4.1788153623263817e-02 -1.1094535769680181e-01 -6.5995455147018947e-02 -1.4355374883556427e-02 5.8822729629162851e-02 -5.1005131850055868e-02 -6.1540653946475447e-02 -5.8100959656145985e+00 -7.4536664310495548e-05 8.7478014700227563e-03 -8.1411573301668172e-01 3.8497939223415156e-02 -2.8958073632706904e-01 -1.8226468294008802e+00 -5.8554680447692409e-01 1.7295034837624135e-01 -2.8539421841093642e+00 -3.0185030880011965e-01 -2.0732208541319297e-02 2.4441401003643465e-01 -1.1049030146594588e-01 7.1938239336336929e-01 -7.2840160109859470e-02 2.6482012151011141e+00 -5.7071600167762782e-01 -2.2243436628212052e+01 4.8679358440593923e-01 -2.0119191430586136e-01 -8.5675632904264400e+00 2.1017057810345907e-02 2.9623319598690481e+00 
      </Row>
      <Row Index="49">
        -3.0388154545499937e+00 7.4113652511667601e+02 -9.6325893320185614e+00 -8.9593549933636929e+00 5.0068137603114610e+02 -3.1802001763267285e-01 3.4828784156506400e+00 1.6657774934696121e+01 7.3201031455235510e-01 -1.8048011444908479e+01 -3.5561839619620073e+01 -3.9593140847474217e+01 1.7814281346460170e+00 -5.1186295749579801e+02 -8.5174528856453087e+00 -1.1242166544607340e+01 -8.8444125816186187e+01 2.6046522802357057e+01 -7.5361969563025735e+00 9.8067721881336729e+03 -3.7128130410135952e+01 -2.1560696512899442e+00 1.6108585056436209e+02 -3.5220613760043928e-01 -5.0421709471631146e+00 6.8116126337548124e+00 5.7290065947961599e+00 -4.4333267723460779e+00 -1.4848577651386968e+01 5.3301611902191937e+00 4.7151048054966544e+00 1.2397271805198441e+03 7.4690896522220278e+00 1.1687794638171805e+01 5.2338792891646477e+01 -1.1242886551664548e+00 4.3631795541083633e+00 3.6557713977614253e+03 1.8174175534433594e+00 3.1494834254020176e+00 -3.1336383280918585e+02 -9.7492446371390429e-01 -1.3807710027270248e+00 -1.9279271425411542e+00 1.6485747941322775e+00 3.5002885476480561e+00 4.8967679617524595e+00 -7.9813612779044760e+00 -5.3474012092131407e-01 1.1815585655927266e+03 1.6042333292235293e+00 1.6117834669493847e+00 2.0857818906505546e+01 3.3020255510340348e+00 4.5901192603916456e+00 1.5263871204233808e+03 -6.2622969359996716e+00 1.0267486262682723e+00 -2.0737347484525634e+02 8.0181089609578748e-01 7.1494958821287469e-01 -4.5392068089122972e+00 5.8451036144628734e+00 3.2608868778864348e+00 2.8691123733358381e-01 1.4930093642648643e+01 7.6388762079864136e-01 6.9560612682235114e+02 -1.6709692391818050e+00 -3.7717630263724118e+00 6.2876611369062047e+01 -7.1978177364342102e+00 1.4364550084242858e+00 6.6402159410017202e+02 2.4479986722402121e+01 8.6993237846111668e+00 -4.6937597112137058e+02 5.4729464474257696e+00 -3.3797183008398162e+00 4.5283104642546128e+00 -5.7770535788251891e+00 3.1150241697796876e+01 2.6567618608136589e+00 1.1934829169121515e+00 -1.3740620425217891e+00 2.0514197804814862e+03 -2.4146196534761586e+00 -2.3258704043546699e+00 -1.2694092784908207e+01 -1.4660075921352441e+01 1.3418149470226126e+00 -1.5262445088127795e+03 1.3132187210112752e+01 -5.2615000177228524e+00 -1.7494769968400696e+01 -1.6205101989620996e-02 -7.5678823853832000e-01 7.5858100716938726e-01 2.7062999657920530e+00 3.7031216451964610e-02 -1.4207128491260050e+00 -4.0024066745556315e+00 1.2770205289103558e+00 -3.2654620449377865e+02 -1.9337393348751504e+00 1.2522466177540257e+00 7.1742857766898407e+00 -5.3541265763102501e+00 1.3961741374037047e+00 2.3668662195303932e+03 3.2418955933285076e+00 1.5510253857067937e+00 9.8268088038820338e+01 -2.2803013854797882e-01 9.3603747417421346e-01 -4.9449025943302329e+00 -1.6887245329043310e+00 -4.8197228214276553e+00 3.4136620016292909e+00 1.3125665456458893e+01 1.4257654592656788e-01 7.5275738454844202e+01 -3.3935679589133572e+00 5.3351059856450433e+00 -3.2980955746487524e+01 -1.3106088604496449e+01 2.4142329188362055e+00 9.2075596983487339e+03 -1.6310588193023818e+00 6.8151729360891977e-02 -2.0903567692291537e+02 7.0567944774660418e-01 -2.5775904171638331e-01 1.7504094892860849e+00 2.3768721218919722e-01 3.7713075192840506e+00 2.4690652582791017e-01 -3.2014035635438063e+01 -2.1634359334704527e+00 2.3214730656351179e+02 3.9970042992010341e-01 4.1378840956525664e-01 6.0351247655313159e+01 7.8075163307562434e-01 -3.8268290102251843e+00 -1.4816795874796844e+02 -1.0667742705322283e+01 -4.0031239423382798e+00 6.2351230284966243e+02 3.4680073526968638e+00 -4.3239620795683500e+00 2.8895410183908126e+01 1.3796023644426167e+00 1.0890652947753029e+01 -4.4220496552399744e+01 -3.2313002426660645e+01 4.2692464079355759e+00 -1.0321923121533450e+02 -2.3834423130056877e+00 1.6055200810043857e-02 -7.7633702636029682e+01 1.8454356861054507e+01 -3.9640951350346313e+01 3.3361696118164650e+03 -2.6082324130599676e+02 -5.7875325623752815e+01 4.5624609871096400e+03 1.3018435637957282e+01 5.2857913172697124e+00 -4.5451302623631776e+01 -5.5618930743690100e+01 -8.6027592115145040e+01 4.5079091767500728e+01 -4.0295005828528178e+02 2.7966672507960538e+01 7.7303789692657629e+03 -7.4544683087293379e+01 -4.5713455988273154e+01 -7.4207342488440258e+02 9.4973014485315502e+01 1.3985384337975422e+03 
      </Row>
      <Row Index="50">
        -1.8557522828869061e-01 2.2860052498132614e+01 -1.1154016823271299e-02 1.8926111554249142e-02 2.9416160949447518e+00 2.3110087616705299e-02 -9.7380315949763097e-02 1.5960959150521284e-01 -8.2082242823158152e-02 -8.0429105179383620e-02 -3.9752112916483595e-01 -4.2759487331863744e-03 6.3876192494627879e-03 -4.8102237136603305e+00 1.8101515970399010e-01 2.7580372256843518e-02 -9.1370982328658451e-02 1.0810982134828664e-01 -3.1758476846036984e-02 -2.4879781881261476e+00 -5.6572150646120256e-02 -2.7221498011894735e-02 3.4224479452802203e+00 1.4808472680720691e-02 8.8564300770622273e-02 -1.3390705448185594e-01 -5.2373729165177671e-02 6.1009709532867440e-02 6.1334273537354773e-02 4.9969357909216992e-02 2.7014543971049885e-03 1.6911030878725362e+00 3.6156783083578031e-01 2.2702825955986750e-01 -1.4819580798721921e-02 1.1832394172021546e-01 -6.3608359735246311e-03 8.2696116373084081e+00 -4.6908670748424574e-03 1.9312026542563820e-02 -4.9370908201745534e-01 -6.8872597502663870e-04 -2.7513444545222213e-02 -4.5056997795922303e-03 1.8361809718778224e-02 4.0970072358414364e-03 -9.5240644288355526e-03 -2.4844172237088041e-02 1.8631850025309302e-03 1.6042333282226904e+00 9.9781803268334190e-02 1.2216866618347873e-02 1.7448924884281955e-01 9.2974598677477024e-02 8.8209318321202448e-03 1.9263683435149370e+00 -2.4803049132487202e-02 1.1069345004500460e-02 -4.5122060897818964e-02 -3.9679318362152802e-03 1.6582583218789033e-02 3.2082826401723927e-02 3.2437552310688386e-02 5.4712760383359045e-04 -1.0981442014434718e-02 3.9418164545737655e-02 5.8990051759731654e-04 1.7661286235349176e+00 -9.7411712707687073e-02 -6.7691990495167512e-02 4.8326825910364829e-01 -1.2208252826127057e-01 4.5915702887746823e-02 -2.5811690263480322e+00 1.4447529599873388e-01 3.3403651146062308e-02 -2.0642629634027090e+00 -1.9659411153942596e-02 6.0483805948214425e-02 8.8540463556776305e-02 1.6057168362970858e-02 1.3892970213243795e-02 1.1008942965624637e-02 -2.0822807500073387e-01 5.7954457938126688e-02 5.3220009515335254e-01 -7.3231619360386557e-01 -2.5384435106909614e-01 1.0833660676869459e+00 -4.3941907164380622e-01 9.3099010868179649e-03 -1.6140651322685308e+01 1.8857600874374117e-02 -1.0050802163824615e-02 -6.7622547806787381e-01 7.1800748221863414e-03 2.7678117367503696e-02 -3.8304857841925138e-02 4.3870189515967991e-03 -8.0091377279087328e-03 3.8166581410494727e-02 -1.3564868916520006e-02 -6.1296534386040546e-03 -1.1461525566085098e+00 -4.2818264604775932e-02 1.1653702575981320e-02 2.8520645677495388e-01 -1.1419987756796914e-01 1.6087901425351180e-03 -1.8927928332223964e+01 -6.6786948889319079e-03 9.2110999994990013e-03 9.5330800940898630e-01 -4.7131454462932230e-03 3.5839795483001938e-02 2.0965482347380559e-02 -3.8428353566919780e-02 5.9683347774533435e-04 -1.6151698165757900e-02 1.5202795001006464e-02 9.0652025973861558e-03 -1.1365325705109539e+00 -1.6538104413994997e-01 8.3980591945438721e-02 -1.2746757061881786e-01 -2.0977309078483308e-01 -9.9322056404407486e-04 -7.5877296520041462e+00 -2.1415907768751637e-02 -7.9202973102041902e-03 6.1562850593292098e-02 -7.2263230162409424e-03 -6.5631939360216197e-03 -4.2874782964995237e-03 5.3017397800019413e-03 3.2521619079462147e-03 9.0197018108529141e-03 -1.2022424850827504e-01 8.3040446816904610e-03 1.9137423787693515e+00 -2.7992437377253460e-03 -8.5488438878225936e-03 -4.2119512056480563e-01 7.5442848655724974e-03 -1.5008429355259900e-01 1.2152939584156597e+00 8.5023021867133730e-02 1.1097303851779369e-02 3.7587436030787846e-02 1.7804726987332903e-02 1.7170755049496420e-02 9.2570359760251741e-02 -9.6724829019703779e-02 9.1864075303519088e-03 -3.4549976072899086e-01 -1.3474623111753675e-01 5.8175495773397923e-02 -3.6971006841850800e+00 -1.1828904068460121e-01 2.5028864138222973e-02 1.0982329716052615e+00 -1.7666256615075850e-02 -3.3530002790439628e-01 6.4399903682217898e+00 -7.4340242214847851e-01 -4.3957562701581843e-01 1.5627120831390124e+01 -1.0535899088243583e-01 -5.4007363356388571e-01 2.9913395668230514e-01 -4.4590970712896255e-01 -1.7195481210646144e-01 -8.1642968218513157e-01 -1.1077606364774422e+00 -2.7198137468491335e-01 2.2177299603473337e+01 -2.8485602203748392e+00 -8.1212657302727886e-01 -7.9493522104134033e+00 1.0442271557431753e+00 -1.8479551359117317e+00 
      </Row>
      <Row Index="51">
        -5.5702024882896738e-02 3.4543975339947526e+00 -1.2595512432883432e-01 -1.5705093435724898e-01 1.1630371063409837e+00 -8.5271851456987069e-02 -1.1406102111472297e-01 -3.0034012164468493e-03 5.4838806642259236e-02 -1.1748412429781749e-01 5.2220268829253536e-01 -2.6391420429860429e-01 2.7183385112411543e-03 -2.5769933024924535e-01 -4.8176015169476005e-02 -2.6120451859575988e-01 -1.0578983474159895e+00 8.9853720062751649e-02 -2.5882037518993617e-01 -1.8354105747759428e+00 2.9446502367855169e-02 7.7750918507204489e-02 2.9924632069115127e+00 -3.4506549070315314e-02 -1.3048360882196633e-01 -1.5389112930846494e-02 6.6826191014652717e-02 5.2504812100773568e-02 1.9356594603102292e-01 6.2620148772439543e-03 -7.5432233818693739e-02 -3.6696384767544483e+00 2.3135738399424691e-03 2.6611893914043538e-01 -1.3121497760590364e+00 -1.1285837908557642e-01 -3.4901052854745332e-02 -9.1579826605752324e-01 2.8567230654751467e-02 -2.7759089729552794e-02 -5.3040804181662471e-01 -9.2832545955112700e-04 -4.7368478020723519e-03 -1.6166664874197940e-02 2.4338763949528774e-02 2.0132763982499736e-02 -3.6381107171363392e-02 -2.0102230175638017e-02 -3.6973538197331048e-03 1.6117834668012916e+00 1.2216866615630664e-02 1.7024241738686968e-01 2.1674658317361514e-01 -3.8614639151329455e-02 2.4821213617650661e-02 1.0365753153941931e+01 -3.7080569110736206e-02 -1.0416036739146928e-02 6.1198721726529792e-01 3.1365184518009626e-03 3.3105198091583576e-02 1.3304932589942586e-03 4.0752857195928915e-02 -8.7900389141811530e-02 -1.8895721265156151e-02 2.4978675341841450e-02 2.2110384334892208e-02 -2.7556121384116716e+00 -1.6322809734525132e-02 8.0077483456472476e-02 9.7637662267646230e-01 1.1149356768423241e-02 3.5529712296973742e-02 -3.3229368208519201e+00 1.8256805864694282e-02 4.6328070235143015e-02 -3.4938847774033732e+00 4.0942440184535078e-02 -3.0860226909295047e-02 7.0132812934483119e-02 -1.0768694063647159e-01 -9.4385606891456194e-03 4.2782365995481637e-02 1.1850772520071090e-01 1.0409041679838427e-01 3.5667998180418468e+00 -3.6954314714299233e-02 -2.8561253035706774e-01 1.8102384475653115e+00 -2.6545922058390792e-03 1.1053395230491425e-02 6.1445918124032772e-01 -1.5262246639038829e-02 1.7322946637708891e-02 1.8254299862047862e-01 -1.0026437656146178e-03 -8.5103497220071489e-03 -1.7238942598488918e-02 3.5455275355127380e-02 3.2658957805216993e-02 1.6682968190404490e-02 2.5606444825356303e-05 6.6941648220399316e-03 -1.0425198335236532e+00 1.7765155314820365e-03 9.9187361092851339e-03 -3.8844668857115128e-01 1.1177500586776468e-02 1.3688952701729207e-04 -2.5783287316245236e+00 1.1181626478250717e-02 -6.6345161409789855e-03 7.7921973876464157e-01 2.7262708849207229e-03 3.3912514947469941e-02 2.2190185771303536e-02 -5.0458666127234930e-03 1.1751158508194395e-01 -2.1801022798127789e-02 7.4706781087500493e-02 -8.0423719844172729e-03 1.4114563049905662e+00 1.0859758859056490e-02 -2.4615473288927503e-01 3.4487371925043175e-01 3.7241140683394347e-02 -2.5724732558190688e-02 -8.6123023812989246e+00 1.2629083679982056e-02 1.7459679860716393e-02 -8.1120347729032849e-01 1.8043476878009779e-02 1.0697737488994497e-02 5.1535976949578233e-03 1.3867051452733311e-02 2.2981179577732158e-02 -1.0392701839711194e-02 -2.6720741014321647e-02 -2.2358179447601434e-02 6.7319453650396677e-01 2.7504969843331270e-03 1.0310849022365232e-02 -6.8714080646622655e-02 6.5135021103792101e-03 -2.7119836711202516e-01 -1.0319813611151751e+00 -6.8440615960717377e-02 -4.1923268690019319e-02 1.7157753378618164e+00 -8.2442672557901248e-02 -2.6551674509952178e-01 2.1868154024789505e-02 2.1858074095897559e-02 -1.1784883511893854e-01 7.1481165123954815e-01 -1.6765434258927459e-01 3.6003878960113478e-02 -2.5490359208976132e-02 -6.1242661292187126e-02 -2.3126645301418511e-01 -9.1923509698798012e-01 -4.8048044423979835e-02 1.5454992261976383e-01 1.7684559358965353e+00 4.6075527783143388e-01 6.8765264012768768e-01 8.3060895622303352e+00 2.0742464825982854e-01 -4.6887087793270288e-01 1.2369913275155386e-01 -1.0086573170714002e+00 5.8084212956501191e-01 -3.4530617460257695e-01 -9.9104467643578431e-01 4.6634939538913223e-01 5.4089291621216704e+00 -1.4254812206318235e-01 1.6315053110429691e+00 -1.5656891411087663e+01 -1.4797211697690216e-01 6.2754006537695197e+00 
      </Row>
      <Row Index="52">
        -5.3397056880838356e+00 6.6815534636467419e+01 1.0447805459066362e-01 -4.2088881270478362e-01 3.8100597058272811e+01 2.2791003314802039e-01 -7.5014880157659503e-01 -1.8948339427727761e+00 5.2175038872405044e-01 -2.4420014315128542e+00 -4.0518637851959838e-01 -8.2330981525148292e+00 2.0517961148305064e-01 -1.1063261428853855e+02 8.8694775729922903e-01 -6.7456941641241741e-01 -3.6121601756113954e+01 3.6724520835180137e+00 1.7906746154989590e+00 -1.6234658411954979e+02 1.7258212981663599e+00 1.8865450202488647e+00 2.6137402218295460e+01 -7.1669938905204478e-01 9.6039576617464828e-01 -1.3605756641311482e+00 -6.0325981897924819e-01 -1.3871649113256996e+00 -1.6630692878776034e+00 4.9441659938805138e-01 -1.6495305485986900e-01 -2.4503386464941146e-01 7.7171849123678793e-01 -1.4683483999368265e+00 -1.7003018095764858e+01 8.2925836991514168e-01 -4.3261346946389601e-01 1.1566041423844791e+02 -5.5650523329730239e-01 -4.6062233431543032e-01 -2.4401398854879275e+01 -3.1258537454066193e-01 -8.3460227790135844e-02 6.8149804282711013e-01 1.9614113507670061e-01 1.9463536977317841e-01 -1.0722681510256393e-01 -5.3307338214256206e-02 3.5691673017997189e-01 2.0857818916209190e+01 1.7448924896302659e-01 2.1674658326625362e-01 2.9732799909785722e+01 -1.3851023454679456e-01 3.6529472980362598e-01 2.6168315376948181e+02 -5.0930613071467157e-01 -2.6137315741863176e-03 -6.7790815858043928e+01 2.8291312998760532e-01 1.5207504862235055e-01 2.8751664969536961e-01 6.8079472238779637e-01 -2.4302963915480014e-01 1.7096679307897489e-02 2.1533756714202479e+00 2.6869158062787335e-01 9.4064310437148198e+00 -6.2255177195687783e-01 6.3589207218163857e-01 -1.4231749619373794e+01 -4.7033749673249536e-01 2.1038846769775943e+00 3.7311085169578803e+01 1.9373574056626586e-01 -2.3343094184289823e+00 3.9338660753576114e+01 1.5838261312185260e+00 -7.6747728214840727e-01 1.1504059341942030e-01 -6.9125746195548210e-01 3.7265041859254864e+00 -2.6526613047770029e+00 4.7615180949667268e-02 -1.4098679088428367e+00 -3.9340386489904049e+01 -3.1224128039355272e+00 2.0635840257144427e+00 4.3071004350841633e+01 -3.1420641582319009e+00 8.9120195399910784e-01 -3.8255508915851607e+02 -8.8180906402722536e-01 -2.1950882059123700e-01 3.1579912716040894e+01 -1.5029381812595100e-01 -8.9425173763203247e-02 -8.7654488209614878e-01 8.7967608471842484e-02 4.0390479609258989e-01 1.4665182547918931e-01 2.6504714747345215e-01 3.7983203809890709e-01 -2.9411364268509185e+01 -6.2267493407634111e-01 3.0789544839571859e-01 1.4110795956909699e+01 -5.7350013295674529e-01 3.1367616384189745e-01 -3.5685581862963636e+02 -1.1181448647242931e-01 -2.8764464115619859e-01 5.5255642236508038e+00 -4.2012403136958199e-02 3.8246709477055418e-01 1.4421882122032452e+00 -5.1904176275461289e-01 5.7945133188363829e-01 -2.8141699491783356e-01 2.6354281409098412e+00 2.8563182454387104e-01 -2.4480716649914296e+01 -1.1086836900365196e+00 -5.8956810544293603e-01 -5.8840279480980211e+00 -7.2207702291013831e-01 -5.8840974702357762e-01 6.6996155581713168e+01 2.7586452576924270e-01 -7.2553437069124982e-03 2.9494702037500431e+01 1.3881092312007937e-01 4.6043223273116496e-02 -2.6796951608719866e-02 5.4087411216653036e-01 -3.9685155745026890e-01 1.2269793734051504e-01 -5.2392511801014727e+00 -9.2983483905965159e-01 2.2152142475286354e+01 2.1203459735039676e-02 1.8881597664492489e-02 3.3804901034498542e+01 -1.2638280241228372e-02 -1.4874171737762536e+00 6.6297259971209371e+01 1.8473745594350026e+00 -7.9992503151464378e-01 -4.6039673897625178e+01 7.6224107582870282e-01 -5.7892935757011532e-01 -3.5074063537817501e+00 -5.5615450675267886e-01 -2.8342526222886089e-01 -4.5129463855224259e+00 -5.8517371726405409e+00 -1.1635952847154671e+00 -5.6362740941227500e+01 -1.1890313719331653e+00 -2.7548298693472972e-02 -6.5720163770060438e+00 1.7264954159275598e+00 -2.2361112439175329e+01 6.3662790885951573e+01 1.1331475027290026e+01 6.8076000010048006e+00 -3.0992930174944399e+02 2.7304873091033812e+00 -4.7744336831014893e+00 8.9406799638601946e+00 -1.6939541629179978e+01 8.9151244007002930e+00 -2.1814185578520888e+00 -6.1219698669319627e+01 8.8377712597185223e+00 2.2892852964014838e+02 -2.6715064085125434e+01 3.0673618324309295e+00 6.7740859368889710e+02 3.0621758782606356e+00 -2.1647199213888555e+02 
      </Row>
      <Row Index="53">
        -5.8730577921490834e-01 6.0166674377777767e+01 1.7617377122756755e-01 -9.2558396680405719e-02 1.3595590936215209e+00 -9.3129647354495970e-02 -1.0795755776918303e-01 -4.8218465545523476e-02 -9.5964637763685939e-02 4.9061629739939688e-02 -6.8388152406520231e-01 5.8460462370368371e-01 1.1696917757476333e-01 -8.6529569371422665e-01 -7.8234844192367994e-02 2.0401987501775651e-01 3.7352450478738799e+00 -1.0296872731338365e-01 3.7103962777301408e-01 -4.4462036680617928e+01 -3.1017295321332777e-01 3.0170943458254607e-01 4.1437598606666519e+00 -6.4746444188084007e-02 -1.0103812479876573e-02 -4.4068311728163945e-02 -7.7231465751691819e-02 9.6678529850371286e-02 6.0563528070394848e-02 5.5411491408681102e-01 -4.2164210817766577e-02 -6.5537717489602141e+00 7.1075080416906564e-03 1.6514829816354754e-01 6.7398761340878655e-01 -2.4764973372154203e-01 -8.9257341086314713e-03 2.8740769789784757e+01 -4.7416334685717945e-02 9.1115146613372749e-02 -2.2094162123437151e+00 1.3869821874697791e-02 1.0052428937578763e-02 -5.5655444975344685e-02 5.8732171824404100e-03 -1.6897295075025426e-01 -8.1357228818481342e-03 -1.2740076306371001e-01 -1.5703198065140193e-03 3.3020255522992423e+00 9.2974598675585107e-02 -3.8614639155451769e-02 -1.3851023449462757e-01 6.8678126782486737e-01 -1.5876118912564796e-02 -1.7836731084654687e+01 -1.7164399767583538e-01 -2.8497705962571052e-01 5.8879166324661307e+00 3.0178227367919752e-02 -6.3400554300091838e-02 1.1730411693955017e-01 4.4723480136430183e-02 7.2385412029535579e-02 -9.0559686591236366e-02 7.7298937368098730e-02 5.3690180402403143e-03 -5.0193945863593215e-01 2.6573998785862918e-03 -1.8789921510691904e-01 2.2079587264718672e+00 -3.8560330389579911e-01 5.1298782402349041e-01 3.3102548364183946e+01 4.1784455640100032e-01 -2.0027253507640758e-01 -6.1164477253774852e+00 2.0920828047190804e-01 3.0526979081061351e-01 1.7069334299916777e-01 1.1753787318458109e-04 -2.8855338528149144e-01 -1.5967325547593142e-01 -7.7841698917310831e-01 -6.5522263752192278e-02 9.8737629245298422e+00 -1.8968233120295837e-02 -5.5662919711123671e-01 -4.3401613256155462e+00 -9.9106387002507512e-01 1.9724784335401346e-01 -3.8807654043543856e+01 1.0174689623787596e-01 -4.4040658096020091e-03 -2.9452532906395046e-02 2.0305484180538402e-02 3.6997682528221443e-02 -9.5040624820140224e-02 -2.1811486011537526e-03 5.4366668778905058e-02 -4.1576690408799244e-02 -8.5280213183775433e-02 -3.1622887296867977e-02 -6.0125542467566966e+00 2.9753700419484188e-02 2.6568229730239645e-02 -6.6867235150472770e-01 -2.3158879844144420e-01 1.2307129653808069e-01 -3.8777460530108200e+01 3.1139165589102402e-02 3.2154194774488221e-02 3.7564405470308140e+00 -1.2138620398456146e-02 -1.8522916018018254e-02 5.1280888947541126e-02 -7.7162567645052582e-02 9.0728115273073340e-02 -1.2458269951610479e-01 1.3988421825407005e-01 1.4623664866788150e-02 -1.1568328169142786e+01 -6.7270493416601351e-02 2.5610079340667380e-01 -1.6121477679106344e-01 -9.7851868584388413e-01 9.9229478240003777e-02 -6.6562969967153025e+00 -5.4323588281158020e-02 -6.2467484100638904e-02 -4.9515521711552211e+00 -1.3141105633090344e-02 -5.4623117084294681e-02 5.2946981015940697e-02 3.6711498526322654e-02 4.5918740590181972e-02 3.4757809493723424e-03 -4.1690225013901167e-01 1.1088550107899470e-01 4.3623612068827535e+00 9.5032803916315287e-03 -1.0276059157338563e-02 -3.0164192368246789e+00 1.9584360329123668e-02 1.6857968961591496e-01 6.4652711668224017e-01 3.8715679037141282e-01 -1.3141901047461740e-02 -9.1454568611538034e-01 4.4480101447623405e-02 1.8242741800809331e-01 2.8378646543080865e-02 -1.3828634561674480e-01 -1.7152362795387976e-01 -8.1196851663801217e-01 3.0829272880697733e-01 5.3722963371860555e-04 7.7355304069446484e+00 -8.1467165097747207e-03 -1.4254831481008631e-01 7.4398729969996924e-01 -3.5813830410444486e-01 -4.2537968038459084e+00 7.7449654100000984e+00 -3.6749784543066948e+00 -1.9231694674879947e+00 2.4324527342886370e+01 -4.3072060384465871e-02 1.6150620743800008e+00 1.7088685708135922e+00 -3.1916164153971116e-01 -2.7062989181357017e-01 -4.9180125157605381e-01 -4.7445980333191793e+00 -1.5182043305125328e+00 -3.9690810199761790e+00 3.9310160077526524e-01 -2.1365598499835619e+00 -6.6084488853882888e+01 6.6700022331861542e+00 2.7833425019110623e+00 
      </Row>
      <Row Index="54">
        -7.5533954592833918e-01 -1.5469659253018662e+01 1.8927712599181284e-01 4.4974045254391193e-03 -6.2300305097446884e+00 -2.4363189512647715e-01 8.4836861538467298e-02 -1.9149142650394876e-01 4.5839844516803108e-01 -4.3855142067222191e-01 5.2855809175264135e-01 7.5762188989221130e-02 2.5824701428485741e-01 1.6433767131527979e+01 -1.9025995807915236e-01 -2.7624077283420889e-01 -8.9088503232894944e-01 5.0301658243040526e-01 -1.7717291800810311e+00 -3.2999914438840847e+01 -8.0852969854946566e-01 2.0666875878837321e-01 -2.8337020065642227e+00 4.1913421005480583e-01 2.0546001878537196e-01 5.4504357307346041e-01 -2.8292910447185807e-02 5.3771013765227593e-01 5.4983485169626745e-01 7.2764470981234508e-01 -3.0117156153539454e-01 -5.4097103775703714e-01 5.8193950853972665e-02 3.3443286491702218e-01 2.2210255494693296e+00 2.4066489978036287e-01 1.8187771570482385e-02 2.3409050925577972e+01 -3.2679906096510086e-02 -6.5786100366376443e-02 -1.5597489008420400e+00 3.3269670522868555e-03 -5.4827501655852838e-02 -9.4461082862677223e-02 4.7499888825784764e-02 1.3089842368208021e-01 3.3470743642406431e-02 1.8355422914578035e-01 -3.1420327921525461e-03 4.5901192630555077e+00 8.8209318613044728e-03 2.4821213644603546e-02 3.6529472975395461e-01 -1.5876118894319502e-02 1.1560144647314550e+00 5.2089389757897770e+01 2.9847106979843741e-01 -7.5837775362570525e-03 -5.2685654383086149e+00 -8.9389231741565212e-02 6.1161050754979795e-02 -2.1750357598035430e-01 1.8304645548205967e-01 -2.1497395837600974e-01 -1.4413588118119236e-01 -2.2309377714233580e-01 -6.4278178851663093e-02 2.5182850771970671e+01 6.4876902246089302e-02 -8.0242394969037623e-02 -4.0418543893930838e+00 -2.2737627468380150e-02 4.8365777915671870e-01 2.8390120670542345e+01 1.2773233740784951e-01 8.3941847642245271e-02 7.6070322716953074e+00 1.4682329760814872e-01 -2.2337502543367799e-01 -1.0185196253200884e-01 -3.6335599397413398e-01 -8.3367500595523572e-02 -7.8451058057517475e-01 -3.4572029941101606e-01 -1.1208290348067895e-01 -2.1947553433169354e+01 1.3038616306751236e-01 -2.4685381331384293e-01 5.4605085711833405e+00 -4.6213734960508573e-01 5.7708982452624014e-01 -8.7795971902154903e+00 2.6066399167181376e-01 -3.3107203944606312e-02 2.5793989282647267e-01 -2.0259902561419518e-02 7.2309229289626131e-02 1.0629270278482067e-02 2.5895316905738741e-01 1.8743184572641525e-01 1.3927691723249858e-01 9.7203913969367450e-02 -1.5756985317717534e-02 -2.2960326412140599e+00 4.1397861788811177e-02 -4.3065615898044113e-02 2.4431616637811588e+00 3.4635688063823444e-02 2.4047105387763779e-02 5.9110503613195903e+01 4.4441754150165602e-02 2.3468668437832907e-02 -6.2672881950017461e+00 -4.7267586133744821e-02 1.0156017558161334e-01 -1.8716859659418361e-01 5.7043252230797981e-02 1.6587429864586375e-01 -2.0298659873052571e-01 -1.1851199770136224e-01 4.4788219568282717e-02 5.3918095257490473e+00 6.4643461505362598e-03 -6.9697919855589596e-02 8.9011057487422107e-02 -6.6587904376222973e-03 1.5673307215773735e-01 5.6688772073662449e+01 -1.8849003679892729e-03 1.7563194929599568e-03 2.7675445037294519e+00 -6.8400930924795489e-02 2.1934043510015933e-02 2.4554909637117817e-03 1.4491438960208949e-02 3.7796671203521370e-02 -6.4359906626862529e-02 1.0078522244492305e-01 8.4203329955420347e-02 -3.4496894587329674e+00 2.8853004130973796e-02 -2.9725935168148476e-02 9.0869499403530463e-01 1.7105972521778368e-02 -1.6794805266372808e+00 6.2098330246641353e-01 -4.7068873518600385e-01 2.4877044181021712e-01 -7.3522301301634876e+00 2.9534440294337533e-01 6.4667186044890024e-02 2.5435073555070731e-01 9.0889582200800317e-02 3.6694118961700384e-02 2.3353916696794141e-01 5.0489980750294028e-01 -1.1602702054881220e-01 -2.4186071328762623e+01 -8.4704484206125169e-02 -1.7625842456462815e-01 9.1578751522162474e+00 3.0175385903750396e-01 -5.6533767049149315e+00 -8.7794905916651977e+00 -4.0011314362504473e+00 1.0753573890234307e+00 -2.0485284275012141e+01 -1.2770053532242862e+00 -1.5170458989849405e+00 -1.8734385200403798e+00 -2.7256324758372301e+00 3.2114953922501179e+00 -3.9154211544711437e+00 3.1176692147406024e+00 -1.5544781830171459e+00 2.4231352072813547e+01 1.2622825563731865e+00 3.6474674555231479e-01 5.2832030332158666e+01 -2.4802179837723770e-01 -4.4844395114518480e+00 
      </Row>
      <Row Index="55">
        -2.4826610205748480e+02 4.1435990722356124e+04 -5.2240440415772312e+01 -1.9068172375871038e+02 4.3138546284164713e+03 -1.7875328488849755e+02 -6.5183396365649782e-01 1.2103948365222978e+02 -1.3896749271138029e+02 -2.2826431289470023e+02 4.0746656079620465e+01 -3.6712905779210757e+01 1.1229604202746668e+02 5.5459912029401867e+03 -1.8180164316431635e+02 -1.9146058227603444e+01 6.9824816336632455e+02 9.3518011833645119e+01 -1.6584883692716218e+02 3.4327538710912821e+04 -1.9333625132595023e+02 9.2057431952439984e+01 1.4279176268049298e+04 -1.2066957527933764e+02 -1.7365162909026253e+01 1.4346554635110419e+02 -1.2166105687241014e+01 -1.7178855848737555e+02 1.4301803568656740e+02 -1.6241057904084079e+02 7.5752708425455964e+01 -9.7111813559694656e+02 1.9141926992434919e+00 5.7456903180728347e+01 -6.4754162570169728e+02 1.7302970779456882e+02 1.9129916891731604e+01 2.8878500718129158e+04 2.1292955006882153e+00 -5.0160138942444519e+00 1.6163760337861765e+03 3.4476727279752595e-01 -5.6733043973158210e+00 -2.5717138269727077e+01 7.9411523466811591e+00 1.2408565530457320e+01 -3.3119991071305321e+00 -1.3011442469925838e+01 5.1334887830532461e-01 1.5263871282643559e+03 1.9263683892175343e+00 1.0365753168441188e+01 2.6168315387260549e+02 -1.7836731081206381e+01 5.2089389815508184e+01 2.5744133942798150e+05 -5.2989471488418076e+01 -1.8950784745401506e+01 -3.8103024653504071e+03 1.7225772091855561e+01 2.3719738893741578e+01 -8.9861853390635588e+01 3.9585474784204962e+01 1.0934490935327631e+02 -3.9982440249490537e+01 -6.1029829392172815e+01 1.7322918474775179e+01 1.0347451180219632e+03 -6.2871373556261645e+00 -8.1309518668731471e+00 3.2926197395637637e+03 -4.1036516272321251e+01 1.0120574635284081e+02 9.4612880287577922e+04 2.0588084036912647e+01 2.5238596799843941e+02 5.5356040367202249e+03 1.8606001130894055e+02 -1.1301889612956084e+02 2.3055437079883848e+02 6.7450594763780259e+01 3.1762440799939844e+02 -1.1414183459986219e+01 -4.1201599276019778e+01 1.1291837521738785e+01 -3.5279031412087684e+03 1.8315469886294144e+02 -7.3341808608480946e+01 2.4583857135256922e+03 -1.7615099563339569e+02 1.2534345473353278e+02 -4.3071854933347153e+04 -1.0387866919192042e+01 -5.8638790864550174e+01 -1.7598340245546583e+03 -7.7119479290297335e+00 2.9256597544379474e+01 -4.4410115999726983e+01 2.4049548410376076e+00 4.5700354155889727e+01 -1.4060555819712135e+01 8.3160309714953769e+01 5.2683117373291424e+00 -2.5639464624849024e+03 3.3102339721062002e-01 -7.3284684756822571e-01 -2.4882874829332545e+02 -1.1083217735472317e+01 -1.2135619287146255e+01 1.7650348606753687e+03 1.0183901741850150e+01 -1.5275822336857345e+01 2.7455967865548482e+03 -7.7168699527483113e+00 9.3445337716939321e+00 2.1436386317509459e+00 5.0051623896797537e+00 -7.0175065615685142e+01 3.2011956713933614e+01 1.4219739375979970e+00 8.2955348667219369e+00 2.2066077935303983e+03 2.0482749312977603e+01 1.5458856476137044e+01 1.9557392223896659e+02 1.6219656524272068e+00 7.2450626799178735e+01 -1.8799918243825197e+05 -5.0341979153668035e+00 3.6841020975402898e+00 -1.9287943194635045e+02 -1.4193434131438153e+01 -1.0519254458796240e+01 2.3945856994253518e+01 -4.4614091901098675e+01 -6.0557817562075797e+00 1.6913508345992341e+01 -4.3719589799657115e+00 8.2243989623548259e+00 3.9910905923939063e+03 -3.2938026669577880e+00 -6.6652684670043527e+00 -2.7112250929683501e+03 2.0597116142444065e+00 -2.7890632409352486e+02 -6.5717402732236660e+03 -1.6681257208121588e+02 1.0635717047043973e+02 9.6066747124587182e+03 -1.2150063066715508e+02 -1.1708807073047652e+02 4.4964981065661419e+02 -8.6040390984175403e+01 -5.6297505591186791e+01 1.3453544662105304e+02 -1.9614187331263525e+02 1.7627497582291008e+02 -2.4742073150875940e+03 -2.5584033178086436e+01 -2.3773534434971225e+01 -8.9789073298505173e+01 7.7597889777499006e+01 -1.7918097189053553e+03 -4.7485935197061102e+04 -7.2093376405206527e+02 1.4534328146563257e+02 -9.2901773803049058e+04 3.0725801997024973e+01 -3.2826993137237400e+02 -1.3584384232333946e+02 3.2255255475219406e+02 -1.1902724676287760e+03 -1.5717000046223029e+02 -7.3870938044165541e+01 -7.4963714133758913e+01 4.9835930285729286e+04 5.0247163053651821e+02 -1.3979925110176964e+02 -4.8904109501254439e+04 -7.3378088209819509e+01 2.9896164258607423e+04 
      </Row>
      <Row Index="56">
        9.9230369140922647e-01 3.7604681652578364e+01 -7.7680092837570192e-01 1.1291347010444830e-01 -1.7396915609933039e-01 -7.3600243956258304e-03 1.9421203171839072e-01 7.2896509866038040e-01 7.4197461782463203e-01 -1.3664509206485462e-01 -8.7201168954049502e-02 -6.7982865953197902e-01 2.4274897219671815e-01 -8.7137037811307501e+00 -3.1753086403162423e-01 -2.2617483588011689e-01 -2.6473327280849865e+00 -3.5441456554383510e-01 -1.4216107983275172e+00 8.1487185950367760e+01 7.3783655846013108e-01 -3.1391145443359092e-01 -2.5416334988000093e+00 -2.3627989399780747e-01 3.9755870191138276e-01 9.5861616535536298e-01 9.0547389382291843e-02 3.2977011632005926e-01 5.0208350743504038e-01 -8.5000163417350905e-01 -1.0599355686696361e-01 -1.7396980399933391e+01 -2.4151436416962122e-01 1.6391585660271213e-02 -6.1878184202932891e+00 4.4420530992407037e-01 -1.5973587734419625e-01 -6.3685183544720942e+00 3.3867759621487403e-01 -5.3751587064640671e-02 1.0774370212210904e+00 -1.4656961807754110e-02 -2.1435985268257247e-02 8.9788387110497567e-03 8.9304745412320113e-02 4.6381558884910537e-02 -1.5513271371828119e-02 7.3851477391729689e-02 -1.5055530311143928e-02 -6.2622969421275521e+00 -2.4803049142834689e-02 -3.7080569077976078e-02 -5.0930613138099290e-01 -1.7164399762422144e-01 2.9847106967926562e-01 -5.2989471429402407e+01 1.7678270036966985e+00 1.1627294348817929e-01 1.6081095821753966e+00 1.0242145860078189e-01 -1.7191233653579108e-02 -1.9180363121035726e-01 3.0868355255083801e-02 2.2385378966996106e-02 1.4372550845155097e-02 1.0418521804588665e-01 -7.4733565623608111e-03 1.2203324603469499e+01 1.3738027289758903e-01 1.6881331505769581e-01 -1.6690074874597272e+00 9.5561666432820769e-02 -1.7696582261634267e-01 -1.6888513996620613e+00 -3.2656880688806522e-01 -1.2697283308765325e-01 2.2286899077122402e+00 1.3502050728646262e-01 -4.4691761345413999e-01 -5.2519251221658814e-01 -6.2607307330168882e-01 -7.8484223772966799e-01 9.3984041320937461e-02 2.0108997379978183e-01 -2.6508898276648152e-02 -2.1626964915480354e+01 1.0163820775579149e-01 4.5465474632876207e-01 2.5809917126292361e+00 7.6650312494080675e-01 -4.9604394101601113e-02 3.6285621099283825e+00 -4.3059091220056478e-01 1.4409171064168735e-01 -1.1751819266563177e+00 2.7910969253136145e-02 -2.0499898681720197e-02 8.6416289520111322e-02 1.9954363387198132e-01 8.1030443595647483e-02 1.9955370455451815e-02 4.7606056651670212e-02 -2.6475559277566812e-02 3.0847367348019304e+01 5.2501771438089546e-02 -4.0922552175838012e-03 -2.8696257960978411e-01 1.8336061222827693e-01 6.7221095699494526e-03 4.6520127493894435e+01 -3.8320024240956196e-01 1.0381505803044089e-02 -3.6383105978631605e+00 1.1755842743262246e-02 8.1769994054438744e-02 8.1261222420950130e-02 -2.7531926779538307e-02 3.8902143802881095e-02 4.7273667053465473e-02 -1.5915201954821989e-02 5.9489461497919116e-03 1.2200799114073025e+01 5.1846723311689824e-02 -8.2184770786555283e-03 1.1878902916389631e+00 4.0123571101223532e-01 -2.0573846072687618e-01 2.2907606616418562e+01 2.5737256595294206e-01 -1.5491543963604970e-02 4.4121510151838752e+00 6.6474566727485640e-02 4.8566173503572285e-02 -3.5846927662893879e-02 9.0763557441132792e-03 2.5781430441560449e-02 1.1092120631623903e-02 2.3082136776749684e-01 -4.5163160548634673e-02 -1.7662223853678638e+00 9.7479008552245339e-03 2.2996955319705581e-02 -3.5009408926255947e-01 2.4745934185643081e-02 -4.4151584551763001e-01 8.4768972020561772e+00 -1.5394871537740935e+00 -2.6762633168547928e-01 3.2056465260337972e+00 -1.0842942633021468e-01 1.4731495404225362e-01 1.1484595887394065e+00 1.9673799523250707e-01 -5.5495720980673169e-01 4.5549991357675829e-01 -1.3386514650382089e+00 1.0131001753064728e-01 -6.7988255607650885e+01 -3.7071980466336429e-01 1.9654347614578271e-01 -6.9612437169882284e+00 5.1001204070807937e-01 7.4610221278272846e+00 2.6692240058899102e+01 2.1571238761975984e+01 6.3665558668293087e-01 3.9550236334258649e+01 9.4430180383156426e-01 -1.6015768490204687e+00 5.2205344514825391e-02 -3.2804712122665340e+00 1.3757458106651836e+00 3.8172682500273791e-01 1.9716555712649342e+00 8.9551934914100073e-01 9.7722841569267658e+00 7.0723514974778467e-01 6.8248473948785104e-01 1.5781557991454257e+01 -3.0043128363274971e+00 -4.9594579779981991e+01 
      </Row>
      <Row Index="57">
        4.4092341576360550e-01 -4.2290934870635652e+00 2.5447135572641105e-01 5.5451806096130274e-01 -8.2600642640604267e+00 -3.7034975812499765e-01 -1.9927035196722065e-01 1.0656744368314375e+00 -1.0981189070020048e-02 -3.3095980595107333e-01 5.9615660797493497e-01 -2.2940634809685662e-01 8.0673647838914134e-02 2.2318770402435234e+01 5.8403759328982874e-01 -6.6212137969847096e-02 -1.0125456070455447e+00 -1.1973702751563041e-01 2.1079840765685492e-01 9.1689981911887912e+01 2.7065162837124193e-02 -2.9890293773345737e+00 4.1970822606327829e-01 7.8739009975614005e-02 -6.6315670914211644e-02 -7.9520215228029401e-01 3.6514661931466708e-01 2.2067114261078435e-02 2.5307278196679905e-01 -7.4137410349315136e-01 -7.7466814686047436e-02 -6.1585067807057072e+00 -2.9217693443985178e-02 -1.5841852878074425e-01 -3.7814110472833971e+00 2.1412344056550348e-02 -4.4591004418772645e-02 -6.5789021055560539e+00 -5.2657169351469912e-03 -3.1260832140748995e-01 1.3861998926524821e-01 1.4074053618794213e-02 7.1693383909784275e-03 3.0449910806860159e-02 4.1790601768793449e-02 5.0492099816874891e-01 -1.2661878000493410e-01 -7.4934716988665495e-03 -3.0055204826330131e-02 1.0267486268900730e+00 1.1069344985695548e-02 -1.0416036751639268e-02 -2.6137312024847592e-03 -2.8497705966629105e-01 -7.5837775454337120e-03 -1.8950784831010228e+01 1.1627294336245786e-01 2.1994445267421385e+00 -3.8557603315119158e+00 -7.5321367787317683e-02 3.2798103472269524e-02 -3.3916735328180447e-01 -2.0357724785626008e-01 -2.3272644165773126e-01 1.3855537880569102e-01 -9.6617137204314751e-02 -4.0953199662894235e-02 1.0608792642260077e+01 -4.5950015174868020e-02 3.2892546217719865e-02 5.4045322905688498e-01 3.2282032309221975e-01 -6.8303496678927089e-01 -1.4521750002220685e+01 1.8397897423983112e-01 1.4365663517473652e+00 -1.0590947599951921e+01 1.4528628198234236e-01 -6.7724466445177614e-02 -7.1941958627678204e-01 1.9479093849934181e-02 6.2750748279550517e-01 2.2640236233236521e-01 2.4854732460496221e-01 -2.3181642948998599e-01 2.9443303522527192e+01 -2.9037491465027920e-01 7.4967382873312771e-01 4.1681217731180125e+00 3.6718443797974087e-01 -8.0124078288273282e-02 -4.9461845294079545e+01 4.6902530108736018e-02 2.3465416785057203e-01 2.5804938150372623e+00 2.1632329455289978e-02 2.3431775874776406e-02 8.7647610060390857e-01 2.6184169666323448e-02 -4.1152601816582290e-01 1.2427895925105226e-01 -4.2682692135757108e-03 -3.1436573565655476e-02 -7.3175125147280085e-03 -3.8012943965621535e-02 5.7530931833374988e-02 -1.9533664718215309e-02 3.1877309490264238e-02 -2.8017422904831335e-02 -8.0817054089318958e+00 1.4521813786189552e-01 -3.4950402038189665e-03 5.2090347725357999e-01 -2.6522231184607392e-02 -2.2774478729923331e-02 -7.9654394909007742e-01 9.5912041131100967e-02 -1.6994389412834959e-01 1.1555278765418109e-01 -5.7799858794277792e-02 3.2970402124918863e-03 5.9842772107646303e+00 -1.4591466538110898e-01 1.7630276617835783e-02 -1.2264376770276826e+00 2.2813129070300597e-01 -1.7083428244345278e-01 5.5625531374608094e+01 2.0712360727797474e-02 3.2689161382152321e-01 -1.5688809080780293e+00 -8.3465610836407134e-02 -1.7583222205699300e-03 -3.1341986269462119e-01 -1.0110920404233337e-01 -1.5155343640900298e-01 6.6439605779546440e-02 -2.0461392552777458e-01 -5.9236598144763342e-02 -6.5343010410876410e+00 1.3332814580822805e-02 -2.9777573422252512e-02 1.0595464984815779e+00 8.0716055164598011e-02 5.8928977514320580e-02 -2.9385123616069109e+00 4.0101843900214912e-01 -9.0700373667380352e-01 -1.1605903858403636e+01 -1.2371999629539343e-01 -3.7893548576862846e-01 -1.2094989505094444e-01 4.4492460623290631e-01 4.5118392688720244e-01 1.0350971137700324e+00 -5.7201188085521404e-01 -2.1891481112535360e-01 4.6099555162197106e+01 3.1470511661305867e-01 4.8698399037632889e-01 -1.2460188098818561e+00 -3.8717018148295416e-02 2.0473773950403356e+00 2.1321615779755184e+01 5.7472913864240072e-01 7.1836871008894745e+00 -5.6874656798280654e-01 -1.5827166334853544e+00 -1.0594131086115604e+00 -1.1303436335333668e+01 2.0660677478021827e+00 -3.6375966314409824e+00 -4.6574191802446396e-01 -1.1694813151989560e+00 -1.8626958306168717e-01 8.6912525717449256e+00 -2.2781069680450443e+00 -1.7773839670748970e-02 5.2202516598873006e-01 -2.4180023397777277e+00 9.8963920214479035e+00 
      </Row>
      <Row Index="58">
        -6.4188800385662681e+00 3.3734389341386768e+03 -1.1882797077726194e+01 2.4049934773923614e+00 2.8558839291751639e+02 1.3405733280543764e+01 8.1549253408216344e+00 -1.6877676755539590e+00 9.2330599819028620e+00 1.3056100831409260e+01 3.9228156152095082e+00 4.8307306589852686e+01 -5.7485047136133947e+00 -5.8695771294307326e+02 4.8596145181554826e+00 7.0690342688070693e+00 4.2141039622679097e+02 -8.4875284106681796e+00 2.4491895810276965e+01 5.1604108889619274e+03 8.6060914691387111e+00 6.9908103627538551e+00 -6.2841680617761119e+02 5.6956140168975393e+00 -7.0878822904724643e+00 -8.6278271005015199e+00 2.3741772922793363e+00 1.7087910464040796e+01 -5.6272334147333360e+00 6.7700322965368855e+01 -1.6807695689561322e+00 5.0404054036562911e+02 -1.3879786872437982e+00 -5.4087093328676747e+00 3.9253248001514186e+02 -2.1504587135031475e+01 -2.5567605765183603e+00 3.6402297916598300e+03 1.1864101010697006e+00 -1.2124947011270848e+00 -1.1988077255090113e+02 -2.2404938975176947e-01 9.8968054888850521e-02 9.4173951105697529e-01 3.0916229041188709e-01 -2.8441790936801445e+00 1.0975880285892856e+00 4.0423481057212438e+00 4.9532321378366523e-02 -2.0737347516295452e+02 -4.5122062422905340e-02 6.1198721596895211e-01 -6.7790815840322338e+01 5.8879166345604119e+00 -5.2685654360230956e+00 -3.8103024651634851e+03 1.6081095703923722e+00 -3.8557603210063007e+00 1.7261253268121186e+03 7.1117920814032232e-01 -4.4927143657490660e+00 4.2836967412555964e+00 -1.3870852857274940e-01 -7.8616349791379321e+00 4.0790411040063645e+00 -1.0913911748407912e+01 -7.6229921071103490e-02 -1.3278830787963075e+03 5.3811431562251033e-01 8.7309588640525249e-01 2.6552944380898907e+02 3.8721002897096923e-01 -1.6555419229679430e+01 5.8923177333425483e+03 2.6924966176690841e+00 -7.4467989852152900e+00 -8.6546322133131255e+01 -1.7009912176061356e+01 2.9624356238790309e+01 1.0461742302816599e+01 -9.1482583545428504e+00 -5.7302382934009131e+01 1.1414208279888220e+01 -1.0096836260618161e+02 1.3103861519144004e+00 -9.7280668761533605e+02 -5.4050007735275098e+00 -1.2824979974847409e+01 -8.5793107723733215e+02 4.7108338681132373e+00 -7.4448858446636450e+00 9.6497500677284279e+02 1.2445681508531621e+00 2.8051091720194847e+00 -5.1451684477335755e+02 1.4662809717254204e+00 -2.7780002848394361e+00 -8.1548270647437771e-01 -6.6291011635193775e-01 -2.1207219104425121e+00 -3.2241937091779391e+00 -4.9102219089134698e+00 -3.4248818687828515e+00 6.0145929477173559e+02 1.6231982339008277e+00 1.2975316805832362e+00 -1.6894696588419015e+02 -2.4269288584803235e+00 4.0409559357908051e+00 -2.1164173123836699e+03 -3.3379908818682793e+00 -5.3539974155665959e-01 3.1744229338237233e+02 -8.3993073682268005e-01 -5.1104825607891371e+00 3.0819903717585930e+00 -2.0682107353655681e+00 1.4874797743473353e+01 7.7471884729561680e+00 -8.0916904012684476e-01 1.4329081716379051e+00 -3.3429508656628019e+02 6.9281725195023114e-01 4.1924803744476549e+00 1.4338662099746168e+02 -1.5013118818981013e+01 9.3981695041517810e-01 -1.0589282868491542e+04 -2.0929393636887426e+00 3.5774930688353379e-01 -6.7963147111047419e+02 6.8679328928649852e-01 -1.6818294904634286e+00 -4.2460149461021501e-01 3.1275667480374878e+00 3.3025940948788275e+00 2.4414836073690935e+00 6.4086128329814755e+00 4.1329323308714834e+00 4.0125228900998343e+02 5.8191421647396435e-02 8.7766506754422835e-01 -4.7265872470941389e+02 6.3380186713246189e-01 -3.2092712446187504e+00 4.6901302746764577e+02 -1.4811268111747058e+00 1.5439288119488772e+00 -8.4090457980521649e+02 2.4377232754673290e+00 2.7940838382795437e+01 -1.7034711060577052e+00 2.3081539299386322e+00 -2.9356027689404314e+01 1.2921070024150078e+01 1.4269162588607969e+01 -6.2499683699210031e+00 4.0502917526584235e+02 1.0118843385078957e-01 -9.9363458052788793e+00 1.6703074962468986e+02 -1.4637726899543958e+01 9.1647385512989558e+01 4.8017240268106534e+03 1.5133516163965055e+01 2.5382577811396914e+01 -4.3781066449409445e+02 -1.7936796595549822e+00 1.0180023293947744e+02 4.4196793090511271e+01 -5.1361413798607146e+01 1.5736907859846846e+02 1.4243908386879312e+02 1.0315721693291636e+02 -6.1893159449287850e+01 -3.7666497083895715e+03 2.3058375567586154e+01 -1.5507698846411273e+01 -1.1804437116826008e+04 1.1155648309591876e+02 -9.5862668606626778e+02 
      </Row>
      <Row Index="59">
        -3.2293859368068867e-01 -2.2619017929955731e+00 1.8356798153010259e-01 -1.1790002089759694e-01 2.6335767078815495e+00 2.7265082496146120e-01 -6.7496246861242254e-02 -1.1562277555417172e-01 -3.0454754668863604e-02 5.9784794085374328e-02 -4.3730925214007732e-02 -1.0598286278603183e-01 -1.2180606256526401e-01 4.2003526497546817e+00 4.1005202511973142e-02 -2.3984590513102144e-01 7.8208676177550651e-01 -1.7901246409058647e-01 3.1798434490360777e-01 3.9745022578973646e+01 7.4971642911867906e-02 1.4116334218521451e-01 3.7047441842571733e+00 -1.3393325416138280e+00 5.7687064156318107e-02 2.7648399584957506e-01 -7.3221438108298426e-02 -2.2446030992609672e-01 5.2896694718985629e-02 -6.4952607623222947e-01 6.9864557646660427e-02 1.4312441909362843e+01 -9.1356698957998597e-02 -1.9947078068261132e-01 -2.4045440225566619e+00 1.4899262257861237e-01 -3.0965375963280386e-02 6.1313150317969622e+00 1.0393885705429269e-02 1.7355052371687281e-02 2.5228498613271200e-01 -6.0057120477435763e-02 -2.4687564885629053e-03 6.2536576102541763e-02 1.1940581555727730e-02 1.0883184434345300e-02 -5.1400378515452913e-02 -7.8622987075883735e-02 -2.3953907438109278e-02 8.0181089807197370e-01 -3.9679318247488101e-03 3.1365184712300216e-03 2.8291312987977740e-01 3.0178227352348413e-02 -8.9389231784926720e-02 1.7225772010351736e+01 1.0242145861404046e-01 -7.5321367742172879e-02 7.1117920660698974e-01 6.0099202222865711e-01 -3.7137594152592129e-03 -1.2528313287262845e-02 -8.9092262956504166e-03 1.0728449454824350e-01 -8.0211924689369135e-02 5.7463952079965397e-01 2.5346344263052828e-01 -4.9056069154860094e+00 -1.8058918388121771e-02 8.8827044878191833e-02 1.4724737167886111e+00 -4.7769226651482845e-02 1.2601138312626750e-01 1.7818405947880684e+01 -1.5071890077862216e-01 -1.4546654955228758e-01 6.1231693545998822e-01 7.8290574672132707e-01 1.3774388985541255e-01 -2.2226976571410298e-01 1.4462838675300571e-02 2.0772498714351251e-01 -1.6352435635358048e-01 4.4606093167697314e-01 5.4757825980625063e-01 -5.7483472049730198e+00 -7.2953169308381804e-02 3.7214542180179822e-01 1.1768329818829532e-01 -5.0585625608751128e-03 3.8593768657337726e-02 -1.1635111402504275e+01 -1.0164857790753580e-01 -2.7143630228087270e-02 -4.9597259408564054e-01 9.4024145146340943e-02 5.4982696701527667e-04 -5.6601567066745045e-02 3.5509394053349706e-02 1.0997217861791740e-01 -5.7087245170329141e-02 1.0370701075412546e-01 8.3747879785801199e-02 1.0822779576217645e+00 -2.1878245304796318e-02 2.6180272270917036e-02 -3.7471011503939655e-01 -5.4537738284677652e-02 -3.3599623338746235e-03 -2.1974362963840306e+01 -4.4362061499338606e-02 -3.6292274571868774e-03 2.7156877323624071e+00 2.8758225010741607e-02 2.6870318883612174e-03 8.3162096908408076e-02 -7.5127480376904685e-03 -1.8350138345004791e-02 2.3265805269593598e-02 6.7189272581030801e-02 -3.5652697240563587e-02 2.7075513105819864e+00 -4.3724423656324722e-02 -7.7154099842288631e-02 3.4138098302370340e-01 -8.0799872404883760e-02 -1.4791932006416219e-02 -3.3318989740905224e+01 4.1255645366167569e-02 -2.2172210752819450e-02 1.5083430300273077e+00 3.7556275531347871e-01 -1.0610846717526545e-02 -2.5703728449580247e-02 2.1078190166916321e-02 5.4200430731734216e-02 -2.0645594701585925e-02 -2.6001663087568655e-02 -3.0041594074205930e-01 4.6653817404084927e+00 -1.7455214891055178e-02 -1.8819346149224248e-02 5.9104089912193902e-01 1.2924394070142751e-02 5.7464970571405843e-02 3.0304800564842385e+00 -5.6595648615107574e-03 -1.2981949958558392e-01 6.8136421943633604e-02 -3.3895437535546757e-01 1.1182326064572709e-01 -8.8693460455080309e-02 -7.5251262451245665e-02 6.1093866191673563e-02 -1.7333378876595606e-01 -3.8939702954572913e-01 3.1123852969007632e-01 5.9110812581161609e-01 -9.5664509467138670e-02 -9.5479454665129429e-02 -1.3269898863539522e+00 1.9252043953448789e-02 -8.4913046565356010e-01 2.6946566117719307e+01 2.6487893143956551e+00 -9.3514493182298430e-02 5.3440470747723971e+01 5.8482550800411373e+00 2.4989590335505385e-01 9.8427485662660974e-01 -4.6386275495205820e-01 4.5836949644562197e-02 6.1788366811219242e-01 -2.3505059847994785e+00 6.0816935053824128e+00 6.8660343553486584e+01 -9.4824835268945495e-01 5.7655869118503000e-01 -1.3062913930368412e+01 4.2960569139694010e-01 -6.8755286732570635e+00 
      </Row>
      <Row Index="60">
        2.6921552060242876e-01 -2.6371021480407435e+01 2.4548163853581872e-01 -1.0505960963176281e-01 1.0982140894264667e+00 -5.5344734177093888e-02 -3.6638182219828952e-01 -3.7176679361332460e-01 8.4289578849402719e-02 -2.8972538796273373e-02 8.4485555016520969e-02 -2.3818466578403785e-01 -4.8897247277144014e-02 7.3270935216283837e+00 2.2557326785606330e-01 1.1839786532744623e-01 -2.0260745265238453e+00 9.6031646908317642e-02 -4.9812489796105258e-01 2.0820291737351905e+01 1.2497886669014520e-01 9.7489573358484363e-02 8.2334960938526578e+00 3.1208448113459488e-02 -1.4529945180254078e-01 5.1184115996972090e-02 4.1812966762209774e-02 2.0756227135999783e-02 7.2491918330474625e-01 -4.5551375864646798e-01 -1.2125742424316500e-01 -1.7898314828792479e+01 2.2120342881763544e-01 1.2318680642330969e-01 -1.9972556534288564e+00 -3.3643000502500531e-01 -7.2990685156692353e-02 -1.1196894351750847e+01 -1.7532726914820856e-02 -2.8968465416461586e-02 2.7916212705853893e-01 1.8444322519775014e-03 -8.7301064184412386e-02 -1.1958264543441281e-02 -9.3518173393767820e-04 2.2624644612964095e-02 -4.1806872400631745e-02 4.4493541175100522e-02 6.3736396564719562e-03 7.1494959044300044e-01 1.6582583225265575e-02 3.3105198094613986e-02 1.5207504850615358e-01 -6.3400554294261724e-02 6.1161050716052046e-02 2.3719738874078104e+01 -1.7191233661527416e-02 3.2798103454878103e-02 -4.4927143639223628e+00 -3.7137594325478140e-03 2.8564398818449432e-01 -8.1569031427761285e-02 1.5125641259529532e-02 -9.4155891268824732e-02 -2.0825063075224648e-01 -2.4620856774569599e-02 1.7085803349025763e-02 7.0712753036921470e+00 -6.4838420247722670e-02 -4.9198611406700454e-02 4.4579322184552204e-02 8.2139553061495119e-02 -9.0861843345313081e-02 -1.0183619346766113e+00 -2.9821549432930555e-01 4.3740280493285710e-02 -7.2696443340278627e+00 -8.0648376477799141e-02 -2.3338085820956278e-01 -3.9848328328488308e-02 -4.4514100066842595e-02 2.1260655917615823e-01 1.7273013403762144e-01 4.5196962198479429e-01 1.4888189351575487e-01 1.7475568405498816e+01 -3.3112753107889348e-01 2.1322829285361888e-01 3.8385522935673233e+00 9.9747649016844644e-02 -6.8802175248631414e-02 6.7504005314021525e+00 3.1866496039838266e-02 1.3144740436448643e-02 1.0233675639082171e+00 1.3802937451051950e-02 1.4166185940646514e-01 2.8294161575955393e-02 1.1746660563306161e-02 1.2914966206741596e-02 8.4679915394087590e-02 -1.1036612574888416e-03 1.3878148821242640e-02 -3.2741647282226176e+00 -7.9226463007222803e-02 -5.2672644566097028e-02 3.2777511908672577e-02 4.6933778685270156e-02 -1.8126919562293509e-03 3.4478466275227248e+01 1.0509372353125546e-02 4.4119216638587311e-03 -2.2775999587955034e+00 -4.0986455548086553e-03 2.1779372368667449e-01 -5.8140434708826128e-02 -4.5823036133358919e-03 -1.7273005576240966e-02 -7.5309478758779136e-02 -1.4870584924775110e-02 -1.7090181286811834e-02 1.5092466816286088e+00 -4.1521770338228237e-02 -1.0382545641872643e-01 2.4658907726414209e-01 1.0525297562119684e-01 -4.7716356539605043e-02 3.2634648165654227e+01 2.6596203529032358e-03 2.5362100851898717e-02 -1.6346120907045258e-01 1.6632722862963689e-04 5.2464693509507221e-02 4.6613526713024100e-03 -7.0897729590710390e-03 -6.4437679950474447e-02 -3.9654361732876620e-02 1.5470197873319558e-01 -3.9953232926989823e-02 -3.0349798522976572e+00 1.6269118390871508e-02 -1.4891642290819629e-03 9.0658715190266248e-01 -2.4306007220211034e-02 -2.9934879446943119e-01 -2.4202026728168988e+00 9.9701654174570498e-02 3.4712952443238555e-02 7.4597185226136649e+00 -9.6510474259336690e-02 -7.1026189939760420e-01 -3.3719871409378444e-01 8.2703836765708499e-02 1.9191456980572386e-01 7.8727229888753258e-01 -2.6352271940699989e-01 -7.4070036544985236e-03 2.7158914185796235e-01 1.0282012184344544e-01 4.3094052291016471e-01 -6.2346193298221975e-01 -1.7057734971610120e-01 1.4138983498287967e+00 -6.3694679072916749e-01 1.6234603305515627e-01 8.6462277468256321e-01 -7.9016443856821859e+00 3.9561240001411591e-02 -4.0564423689771267e+00 -8.3172748550743791e-01 -2.6863482220422075e-01 7.0332281154562137e-01 -3.6818850043747955e+00 1.4232534874124916e+00 7.6882669015886052e-01 1.4056851687250845e+01 -1.4656451049966925e+00 3.5219162358937073e-01 1.2025692120736178e+01 -9.9280036333392097e-01 1.9629159963645094e+01 
      </Row>
      <Row Index="61">
        -3.7927821807095852e-01 3.0114374124278299e+01 3.3539467130093376e-01 1.7648563919068680e-01 7.7732965467751072e+00 1.7102566485117277e-01 -3.4089147989776586e-01 -1.1714327630636003e+00 -1.9051113991670426e-01 9.8413069333052605e-02 -3.1960297485149225e-01 -2.2332536720546417e-01 -3.6025209374121631e-01 -2.2399399878679429e+01 1.4069901840942714e-01 -1.2241513064882616e-01 -4.6906984657792172e+00 -2.5645028883730669e-01 7.7847194846264600e-01 -4.1278899793830945e+01 5.8018951843202743e-02 -6.5960197330424331e-01 2.0791419337636907e-01 1.0074254456727239e-01 3.3488834473891255e-01 -3.4537138898844622e+00 -2.1062244858763751e-01 1.5581607258734698e-01 -1.2610981880280006e-01 -4.6601732550266722e-01 -1.7621620409033426e-01 -9.7457743870430047e-02 1.3005034385069700e-01 -4.1304376918718821e-01 -1.6129673291290074e+00 5.6727613129018495e-01 9.9619347417157583e-02 -1.9804902273317914e+01 -5.9734405934597307e-02 5.6275431140347876e-01 1.4979309116993189e+00 2.5225328024047200e-02 1.6242248040699125e-02 3.0385574918507302e-01 2.2307927327077051e-02 -1.0933961606458797e-01 -1.0113441706961557e-01 9.0360431838875599e-02 3.4069279729705484e-03 -4.5392068161774812e+00 3.2082826370052872e-02 1.3304932236797296e-03 2.8751664982643882e-01 1.1730411694269116e-01 -2.1750357594384573e-01 -8.9861853341059017e+01 -1.9180363124631894e-01 -3.3916735332803216e-01 4.2836967449551011e+00 -1.2528313352087816e-02 -8.1569031481115273e-02 2.2086033250473927e+00 -2.4529288156745266e-02 1.9790155231537987e-01 2.0171969442619053e-01 2.4860893603641632e-02 -8.6248154098422791e-03 -4.3819426462311863e+00 -5.5826236255598009e-02 2.0247952928406421e-02 -2.3353215869353119e+00 -2.4184991705663689e-01 1.4792088093933820e-01 1.9934103774614009e+01 4.5998964394337361e-01 -5.8917975303254255e-01 6.1961508890299433e-01 -1.0811262234969427e-01 3.3082192124410326e-02 3.0634956445465806e+00 1.8904701776209976e-01 -4.5480264308639584e-01 2.7932610847973510e-01 1.0582410528190420e-01 3.8554881331203250e-01 -3.4710782719104669e+00 -3.7269571278696895e-01 3.9832504340960778e-02 3.9762612694488053e-01 -4.6782871029671169e-01 1.3686351576903455e-02 1.7159629001222196e+01 8.0201777745811553e-02 2.2931992647048838e-01 5.8476969341313456e-01 -6.5923303823336860e-03 3.1266972544817584e-02 -5.7722037037766727e-01 -5.6288088412229348e-02 -1.7876440461315157e-01 2.0664488473132669e-01 2.6640743208133921e-03 -9.7763605424647376e-03 -2.3709953259521788e-01 -6.1148129334439527e-02 -1.4929925896793095e-02 -7.5010078792681045e-01 -1.1919145559370259e-01 -5.4975348375439159e-02 -3.7511038467487765e+00 -7.2321041539168740e-02 -6.8685340437736331e-02 -3.1214706478245757e+00 -1.3910680324331182e-02 -5.0531779373370611e-03 1.1355358536848112e+00 -7.7516201335255164e-02 1.1646515577319969e-01 -1.3984911970014657e-01 -1.0619216128108055e-01 3.8990420666523917e-02 -3.3195918089166279e+00 -2.8907811251154603e-02 1.1057951527396570e-01 1.3733844897648293e+00 4.1774190362712460e-02 1.4463992365120193e-03 -3.6158053638689587e+01 -4.9410711789648648e-02 -4.4916123418217269e-01 9.0114053955050899e-01 8.4006665639133615e-03 -1.9219717813768744e-02 8.8235610023694955e-02 -5.0201581993306044e-04 7.5474342016198737e-02 9.3513752500471448e-02 4.8021336979944507e-01 -8.0405420660725202e-03 -2.1485121206669433e-01 -4.9380657218759116e-02 1.8432935985135290e-02 1.6797779615171686e+00 -9.1922240428155444e-02 4.3156249997018642e-01 4.1592539085900953e+00 8.8320773881981363e-01 -1.0080705772121270e+00 -2.9010308293048199e+00 1.9438421224754182e-01 -3.1861308249030162e-03 -2.0199231826916080e+00 -1.7747613619281194e-01 -1.7050373869331459e-01 -3.1167154352286408e-01 -5.3419645006750505e-01 -1.5177564792793066e-01 4.9685927143297288e+00 -1.0679947138555262e-01 -4.4189730799968263e-01 -2.7481926801680676e+00 -1.8370979591802694e-01 -5.2600083557030963e-01 -1.3993612502763360e+01 -2.9209284770528390e+00 -1.4499273932768855e+01 -4.6986805274289829e+01 7.4508717379540457e-02 -1.2169348919326544e+00 1.4845331951910511e+01 -6.7112652120870919e-04 -3.2054838039654370e+00 -1.2879326518342231e+00 4.9935964838916007e+00 -7.3315484827176647e-03 -3.5335899182949760e+01 -2.1077256107191946e+00 -9.3577114326965027e-01 4.2247718943601818e+01 3.9295811075529130e-01 -1.5063612112000930e+01 
      </Row>
      <Row Index="62">
        -1.4504036962978786e+00 2.5891160324815417e+01 -5.8706607590918303e-01 -2.8371816834641672e-01 8.4513720748562378e+00 -7.2759739828731990e-02 3.4046983413590809e-01 -7.2001388878061923e-01 1.3469313273837404e+00 -2.0907626736107579e-01 -7.1564912484729692e-01 -2.2211703306228076e-01 1.1983261978669793e-01 -3.2343621446237691e+01 -1.4439683233396650e-01 -1.5129312167407882e-01 2.2734063117765961e+00 7.7025718847048574e-01 -8.5268769922677601e-01 -5.4075352693630037e+01 -3.5609273574209582e-01 2.8530560525888693e-01 6.6908533090609570e+00 7.9873336422970426e-02 3.0621113639641817e-02 -1.1130371428825903e-01 -7.4142948633404060e-01 -3.8325484149643962e-01 -1.0076468374237882e-01 4.5874693472064532e-01 -1.8526436889980596e-01 -2.0345582952559688e+01 4.5430250813488914e-02 9.4562604728722854e-02 -8.0178270622426839e-01 6.2163315905090955e-01 3.1741969182058280e-02 4.3726108536023233e+01 1.5234004319980982e-02 -1.1656102147106273e-02 -2.0837940976786653e+00 -2.0089741816865958e-02 -2.4798257711949795e-02 5.9778668706195165e-02 1.3030185639002542e-01 -3.2184648129451321e-02 2.9360591835459360e-02 5.2411002484071219e-02 1.0906566392378039e-03 5.8451036141418982e+00 3.2437552340271056e-02 4.0752857227857264e-02 6.8079472234275595e-01 4.4723480163605167e-02 1.8304645542547648e-01 3.9585474826693478e+01 3.0868355387374535e-02 -2.0357724783843312e-01 -1.3870852384563026e-01 -8.9092262403756006e-03 1.5125641275778978e-02 -2.4529288140527683e-02 7.8769132031512834e-01 7.5260344486275388e-02 4.9368591808969242e-03 1.3477577374991934e-01 5.0649252687109403e-02 6.9470636335635980e+00 -5.7230785353499847e-02 7.7072557732769775e-02 -6.6958240417390358e-01 -2.3519199577679001e-01 5.3447485767891556e-01 -1.7374572310629631e+01 4.7663131200889486e-01 1.8575761322411183e-01 7.7050487066851963e+00 8.6697519561753977e-02 -2.6296900472738993e-01 5.1906754581640757e-01 -1.1350393460862807e+00 2.4654568316656092e-01 1.9040222809147805e-01 -1.1579584416251651e+00 -1.9268674052564644e-01 -9.2695581747312517e+00 -1.7595220063324007e-01 -7.4572560162468604e-02 -3.4414933876521356e+00 -4.9545159472344008e-01 4.9369122124269360e-02 3.8832366890175166e+01 3.8498683338769046e-03 -1.0853669993667925e-01 -2.5281696082280840e+00 -1.1733259471507607e-02 4.6630527098995955e-02 -1.0846994894901969e-01 3.0415426898597786e-01 2.6582373296292872e-02 -5.2797256284858651e-02 3.7484637045251873e-02 3.8970838681225362e-02 -3.0683733682156973e+00 -3.8980532563633763e-02 2.6100606849944780e-02 7.9410476688377618e-01 -1.1283252501135133e-01 9.5280252864747617e-02 -2.3378463437299786e+01 4.4912900468399020e-03 1.3984526084973581e-03 2.3951152114718264e+00 2.3129808791622963e-02 3.1529055145007590e-02 7.9250012573589768e-02 -2.6377430828995463e-01 -4.8321726052261663e-02 1.3395568558316029e-02 7.9845688555537198e-02 -1.2224061969985822e-02 -1.0654011880881228e+01 -4.9063808073265491e-02 -1.1495434485523326e-01 -2.4341729180564808e-01 -1.5915423846236187e-01 -1.9680253841944273e-02 -1.9682074755276059e+01 -5.7932463634423725e-02 -1.8658684780129109e-02 -6.3279089277173917e-01 6.8445456240042724e-02 2.0606043341255820e-03 -1.1106353764080090e-02 1.9318507605840066e-01 -2.2147745009523323e-02 2.1798910945731720e-02 -1.7836689459097288e-01 -7.9454034211670965e-02 6.8274253815276182e+00 1.0260315540384008e-03 2.9548928969770794e-02 8.9697041970306546e-01 -4.2668861223924548e-03 -1.7017809975439646e+00 2.4908981026800703e-01 -4.8850711712048234e-01 1.6926044837765628e-01 4.5109436264626765e+00 5.7204813332049187e-02 1.1687402083456180e-01 -3.3039913724629710e-01 -4.1963774467481652e-01 -3.1429277574281833e-01 -6.2115959765850770e-01 -7.9124718376275127e-01 -2.2370424443258308e-01 -4.6307113253437777e+01 -2.8494213855629380e-01 -1.2265362087699949e-01 1.5042293865214074e-01 9.7387320475814509e-01 -5.7951520594766981e-01 -1.2426320707277437e+01 -1.7982590323726249e+00 -5.6303174203775619e-03 -3.8258221406840960e+00 6.6457979691611868e-01 -2.6004988621578473e-01 7.0059623039681229e-01 -1.2996863179230790e+01 4.8856850002563235e-02 5.7778648577304192e-02 -2.0464097269252406e+00 8.7606603359623136e-01 9.3495660309359430e+00 -9.7386869445229074e-01 3.3763155246085219e-01 1.0456702468552841e+01 1.0067444008225617e+00 -1.3880536789535153e+01 
      </Row>
      <Row Index="63">
        -4.8514577021346916e-01 -6.3705186490585675e+00 -5.6060858761638932e-01 3.9578791983095685e-01 8.4022772268529220e+00 1.7999571533448694e-02 -8.4189728256597068e-02 7.7861682369325602e-01 -2.7201834672988390e-01 -3.2711564832633089e-01 -4.5511725127996550e-01 -9.4309599198076444e-01 -1.9572662898707366e-01 -1.2128026108605248e+01 4.3226412281596460e-02 3.9932676406121737e-01 -4.2653663253187606e+00 3.3713394711896649e-01 8.4616343801029203e-01 -2.8199207360787248e+01 5.7450995875136335e-01 -5.5837266342369085e-01 5.2634449322833952e+00 -3.0309189461554142e-01 3.1232048812400381e-02 -4.2582113690271506e-01 -2.4592710670525206e-01 -2.8595128872782061e+00 -6.2394739602215921e-01 -3.5092223730579652e-01 2.2383853379552976e-01 -7.3116007814777486e+00 1.1049017243588150e-01 -5.0219946242936697e-01 -2.4754593108583491e+00 3.5926808269732946e-01 2.0499571093467253e-01 3.6615516746503731e+00 2.2404642861319063e-01 4.2403989268666409e-01 -1.5927466891155451e-01 -1.5066138255721562e-02 2.4452845351536252e-02 9.7987258657942944e-02 1.4861595777064708e-02 -4.6923028844547915e-01 -1.6928028639479842e-02 9.4062474833848359e-02 -1.0090717596790918e-02 3.2608868782715317e+00 5.4712760418488410e-04 -8.7900389146337576e-02 -2.4302963946255687e-01 7.2385412065798516e-02 -2.1497395841676115e-01 1.0934490943658803e+02 2.2385378912540721e-02 -2.3272644167439122e-01 -7.8616349753311940e+00 1.0728449453052769e-01 -9.4155891275161829e-02 1.9790155233922768e-01 7.5260344434721627e-02 2.1248234839148377e+00 1.0891032646088394e-01 1.7467976365809101e-01 1.1281108816714003e-01 -1.4582501306307348e+01 -7.8026006849870627e-02 3.1746710873885597e-01 1.9140987099553035e+00 -1.1372311958785933e-01 2.3626299791312877e-01 -4.1355950094918775e+01 8.6687239188907028e-02 9.5148316912272768e-01 -1.1250064368317860e+01 2.5848078347576564e-01 4.6014999578974314e-02 1.3190882357017237e+00 5.3480975074035997e-01 2.6815390838144668e+00 1.6731105574289706e-01 1.2933638341536713e+00 1.7469781322453581e-01 8.3791009997690953e+00 -2.4054257505266841e-01 2.2129926039421996e-01 7.5834585506746972e+00 -5.9610676199762958e-01 4.7964327659932193e-01 -6.7201464943886620e+01 -4.3300841358389108e-01 -4.2325060593803632e-01 3.8618251948803448e+00 4.4420697194907627e-02 -1.1191902341607829e-02 -3.7268155017267202e-01 -9.4338724059192802e-02 2.5114362315485605e-01 -1.1724360664528688e-01 2.9748571377475164e-02 7.9943174185598473e-03 5.3014883416555953e+00 -9.6089365901219442e-02 6.8009789282443653e-02 -8.2977683288756310e-01 -2.2378221071211790e-02 1.2532695507712144e-01 -5.4668432049015280e+01 -5.7091470405504996e-02 2.6011920040632230e-01 5.5146218920642660e+00 -8.7504307170231943e-02 -1.0510764140302387e-02 3.5512059775357963e-01 -1.2211694560686676e-01 -1.2435372258773856e+00 8.9144386028587874e-03 -1.3614015572702876e-01 8.6864130645923909e-03 4.2674504294555335e+00 -1.8562107309999187e-02 6.7027079698078751e-03 -1.5068369289834926e+00 8.3835731091947419e-02 8.0545268675221660e-02 2.1638356330070952e+01 1.1118794566395493e-01 -2.9421028973866825e-01 -3.6557542571827368e+00 -2.6752438965596870e-02 -4.9413772975435588e-02 -5.9554321647554809e-02 7.5459831270219269e-05 5.9124057634298199e-01 1.4435463464646059e-01 -5.6742158411948962e-02 -1.0872242589210623e-01 -8.3996776782431155e+00 -5.7189936349913824e-02 5.9790200346540701e-02 1.4612511589816366e+00 -1.0566480376204873e-01 5.5677913302219961e-01 -7.5912315683912253e+00 -1.6470297331861317e-01 6.1947700475998557e-01 -1.8744890533192153e+00 -5.3219433164108598e-02 2.4044061903852661e-02 1.4028307493522696e+00 -3.9535436580373264e-02 -1.5280943065763933e-01 -8.8618619229237861e-01 5.5217979068982792e-02 9.0973322813980628e-02 2.2254763532046309e+00 -9.9040200780451684e-02 1.0068092329343864e-01 2.2217982116894501e+00 8.2139445762739793e-02 -5.9614289626336561e+00 -1.2278975143839762e+01 8.6687201487600412e+00 -9.8788217923700437e+00 -3.0716529867964226e+01 4.2183176790770371e-01 8.6692047497189895e-01 3.9972369943929844e+00 5.6696848720061588e-01 -2.4941527842245780e+01 2.5435780441009572e+00 1.9118052663599929e+00 2.1264162317947672e+00 -3.8176672751857993e+01 -3.0131641646524541e+00 7.0782114107279082e-02 7.3246811574897102e+00 -5.0013095516345807e-02 -5.8849700922520887e+00 
      </Row>
      <Row Index="64">
        3.7867963741447458e-01 6.2114828040315302e+01 -3.7506478961247286e-01 1.0048423072257992e-01 -7.2101260638512166e+00 5.1860263369613746e-02 2.5184323205808923e-01 -7.6492338784540509e-03 -9.5651339433966698e-02 -9.2433438250536154e-02 2.6843226182021296e-01 8.3186377671253386e-01 -7.5893852139884962e-02 2.3643058139128232e+00 3.8558842880917724e-02 1.2547984713358598e-01 3.1609117828425326e+00 7.3853748378409412e-02 7.6995742051255234e-01 1.6454373471888808e+01 3.6951952925312614e-02 -4.6830656633998663e-01 -7.6576235140230349e+00 1.8936899392430279e-01 2.7580895874530370e-01 -4.9423333055976970e-01 -2.7834176691505730e-02 -1.6045473194364757e-01 -1.1027560364356639e+00 3.2577027813176984e-01 -1.3390240096138248e-02 2.3145211018089142e+01 3.1321422038323304e-02 4.4797144741148487e-02 6.7694104129338717e-01 4.0550720205013790e-01 3.3042159540986590e-02 1.6757966517619160e+01 3.0367760675671929e-02 1.4312676333792851e-02 -1.2556339952342195e+00 -8.8256730180038545e-03 3.7229485935670339e-02 1.1165046783372068e-01 -3.0163981351172684e-02 -1.4343542799685416e-02 -1.7202376034616051e-01 -9.3587932117521144e-02 -5.3742135368961344e-03 2.8691123504426397e-01 -1.0981442025877681e-02 -1.8895721268773258e-02 1.7096679938853776e-02 -9.0559686634450465e-02 -1.4413588113934850e-01 -3.9982440300144347e+01 1.4372550794022665e-02 1.3855537884795499e-01 4.0790410909845729e+00 -8.0211924682305202e-02 -2.0825063073083605e-01 2.0171969441791404e-01 4.9368591855412092e-03 1.0891032647331134e-01 8.1243887666799708e-01 1.3192193021181176e-01 -3.9633324541034298e-02 -1.2627827256191608e+01 -1.2662558382188341e-02 8.3049349636930003e-02 5.3982069154417345e-01 9.5345773468777928e-02 -1.3649722979803358e-01 2.2762573069373826e+01 4.1432017920533548e-01 2.1816670146658668e-02 2.3035247158174967e+00 1.8849679172562285e-02 -1.0694331492246949e-01 2.6695372147544227e-01 1.2203782803486085e-01 -8.7129081697147198e-02 -4.9931068865235628e-01 -8.0525792152795250e-01 -1.3315795373020634e-01 -1.3816641790864209e+01 -1.6960297955932579e-01 -4.6504742185817216e-01 -2.3238096905116929e+00 -2.7695164482557316e-01 1.5102705950983619e-02 -7.9802092576530157e+00 -6.8759664596030001e-02 -5.8605593164546832e-03 -3.8382168322500827e+00 -1.7853013999987594e-02 -6.9589050930964902e-02 -3.7823009403880142e-02 -2.5788548937964079e-02 -8.4854571672970280e-02 9.0991965689894982e-03 -4.9995300051263805e-02 -5.0040137784235064e-02 1.3072854282096602e+01 1.9791370266898589e-02 2.5420256667531990e-02 -1.2620180474934184e-01 1.1397905905934991e-01 -1.1233516692856860e-01 -2.4983960470888746e+01 3.3715073323429934e-02 -2.1870155600421270e-02 6.8603146664555172e+00 1.0095940184271512e-02 -1.4542540272341142e-01 1.0652098552039568e-01 4.3158970020855669e-02 -2.4449381753613497e-02 5.8842579532726802e-01 1.1126909017487208e-01 3.3872216639105446e-02 -1.0177364643458374e+01 -1.2346837645629716e-02 -2.0175647731607071e-02 -5.9684923411315438e-01 1.0395874905283264e-01 -1.0572251168094127e-02 1.1816434926453111e+01 3.4078982070638641e-02 -1.8477713617541802e-02 -1.2468637010679438e+00 -3.6012649497921601e-02 -3.3384372974021304e-02 -1.1799661464785061e-01 -8.9003066639459227e-03 6.3874568560603251e-02 2.1377763877021394e-01 -2.3950114297290170e-01 6.0184073313337194e-02 3.7324900333613584e+00 -2.8438468424221399e-02 -1.6458513474118419e-02 -2.0242225690611870e-01 1.7157927700130138e-02 9.6765403056227339e-01 7.2266465293738804e+00 4.7516371157429682e-02 -3.1267746297897470e-01 -2.3093080946352380e+01 2.4764511443401405e-01 3.2816166322112322e-01 -2.4835613381638022e-01 -3.8342315468268787e-02 -2.9081319341646494e-01 -1.0570299324466814e+00 4.8165339466054191e-01 -2.0360570783301746e-01 2.6081904160341544e+01 -4.4239733106834864e-02 -2.8023826842537369e-01 3.2209137977203817e+00 4.5191983547731684e-02 6.7648582854937267e-01 2.1629719593977359e+01 1.7295955509855681e+00 -9.3798996737675111e-01 4.5211585788585651e+01 -7.1892657900006895e-01 7.1813479186281359e-01 1.4996079338807471e+00 1.1215047800091296e+00 -2.4855817085864933e+00 6.8430566923423122e+00 -2.5543820998381408e+00 -1.6999416854808374e+00 3.7950533844085541e+00 -5.2918385577125093e-01 6.7031042640090810e-01 -1.2476980241714065e+01 -6.4233849480301708e-01 -4.4292812036416770e+01 
      </Row>
      <Row Index="65">
        -9.2928276825667522e-01 5.2719057842293950e+01 1.9140847839425745e-01 -9.7107242357532320e-02 -1.8598296955760683e+00 2.7481266403705656e-01 1.3576652397118072e-01 5.0434572444936576e-01 1.9222428766055277e-01 -7.3238814377083183e-02 -9.6681529214071871e-01 -3.6043313642948110e-01 5.1674894745154376e-01 1.5612927007956348e+01 -4.2456478653486798e-02 -5.0749941065063142e-01 -3.5409362083031795e+00 -2.8550184991251004e-02 1.2134059973935920e+00 -6.6382977086763375e+01 4.8690098447549124e-02 6.7748869674981838e-02 3.4479280967510824e+01 -1.2580218950888564e+00 1.7349372418781872e-02 2.1378005399624256e-02 -1.7349802527578367e-01 -5.6293102390716876e-01 -7.9594217638408660e-01 -1.9841929266594627e+00 2.3029817814531214e-01 4.0412973657594380e+00 1.2233620730115992e-01 3.0455869696470605e-01 -1.2558999568887744e+01 1.0049227411122164e+00 -7.9068661913001381e-02 1.6185664736625779e+02 6.4797517227111107e-02 8.4951316900553797e-02 -3.9028213029808345e+00 -1.4218135441560986e-01 -1.8541880371975926e-02 8.4559223447906673e-02 5.9106500517873251e-02 4.4755509773772129e-02 -1.3274967245619496e-02 -7.9085427794696728e-01 -7.4644149273555449e-02 1.4930093667028824e+01 3.9418164669929284e-02 2.4978675389019989e-02 2.1533756716499504e+00 7.7298937354403519e-02 -2.2309377706582501e-01 -6.1029829489066891e+01 1.0418521824065508e-01 -9.6617137268676601e-02 -1.0913911754819495e+01 5.7463952102502525e-01 -2.4620856702116889e-02 2.4860893486991387e-02 1.3477577385110628e-01 1.7467976360058901e-01 1.3192193009505271e-01 2.9855391656427388e+00 2.5456312029529826e-01 -3.7773370886428559e+00 -1.2939105831676639e-01 -1.0191290253610541e-02 -4.3589047937618988e+00 -3.3834388036005780e-01 -4.6576483557025136e-02 1.1818737118432357e+02 2.2821535673600346e-01 -1.1496219376224176e-01 2.4215464286834955e+01 8.1706495206082375e-01 -3.2336819382919979e-01 -1.9197354226084484e-01 -1.1517853794080990e-02 1.1099119398088713e+00 3.4480888430443218e-01 -6.9723984291085328e-01 -9.6519264947733330e-02 -3.9402165241227700e+00 -3.1016405962745908e-01 2.6097170715726259e-01 3.7236934864513840e+00 -6.9439194204954502e-01 1.9318114683906096e-01 6.2539381835826148e+01 -3.6679601056542871e-01 -7.1923360465657726e-02 -2.1880187158455193e+00 2.4898410441911434e-03 -7.7597978657351518e-02 -1.0675417706950788e-01 1.4626508948602046e-01 1.4051020380978230e-01 -9.6288186095134787e-02 4.1133321387860389e-01 2.4185011084417229e-02 -3.1324124514567053e-01 -1.6262658044884959e-01 3.0593634764373739e-02 4.5702657770375499e+00 -2.6363648601463474e-01 8.4341322059821255e-02 -2.2086149567739071e+02 9.0841600933828648e-03 4.2713570640287024e-02 1.5858046557921163e+01 1.3350020704273025e-01 1.3979248396413624e-02 6.3265473631178626e-02 -1.5510210297224103e-01 -3.0750991380383452e-01 1.6797006715924923e-01 9.8878533770323518e-01 -1.3434844231603016e-02 -4.2042902538770157e+00 -2.7025732692489335e-01 -9.8025723266610409e-02 -6.4390633104340687e+00 -3.6232120545445712e-01 -2.0135109770171367e-01 3.0398035648398093e+02 1.8765732681508174e-01 -4.6173827406434498e-02 -4.0859994733119125e+00 2.5652405216779317e-01 -2.1540207836916903e-02 -1.3465341432036837e-01 1.4854251998533147e-01 2.5920421891262535e-01 5.8649185997416975e-02 -2.5245193954890182e+00 -2.5480173658429983e-01 2.4679392165691585e+01 -3.5883581123531509e-02 -5.2141950654182478e-02 1.2629146164087128e+01 3.9366866892766916e-02 5.6735346180220025e-03 2.3747776245313759e+00 1.7471857532884538e-01 -1.3092199108914215e-01 5.3329861720934071e+00 -2.8626806397181803e-01 -1.7154824486858036e-01 3.1450250506514710e-01 3.0666814757084673e-02 5.9511842323606845e-01 -1.2998133196332895e+00 -2.7008840492702451e+00 3.9372230559872973e-01 3.2196170211704178e+00 -1.6406315797971055e-01 1.8487407896590036e-02 -5.1553251762240073e+00 4.5868829414669599e-01 -3.0840552324252535e+00 7.8887717858873252e+00 6.7269694145926069e+00 -1.3498409931842197e+00 -1.0234716558360905e+02 6.4841752197245022e+00 8.0931601279067200e-01 1.1280463781529635e+00 -3.4744973640249528e+00 -3.7130467741194471e+00 3.9730968009180545e+00 -3.1846903932351104e+01 4.4376432507099750e+00 2.1264046386645964e+02 -5.6111095409106770e+00 3.4290723181890082e-01 2.2787506940047254e+02 2.1438587387369683e+00 1.1506287701326379e+00 
      </Row>
      <Row Index="66">
        3.7196076555666716e-02 1.2007868011607314e+00 -7.1853342361537481e-02 -2.7659331957214500e-01 2.0216755323517299e-02 1.4306447277543285e-01 -5.5698843921876268e-02 4.5463664762464773e-02 1.4372503893775257e-01 -1.7345888046758598e-01 8.1902488800593143e-02 1.7704566096960023e-01 -3.5563155614511216e-01 4.4525665360088471e+00 6.3936277087224186e-02 3.5907632846353399e-02 3.3343616522181665e+00 1.7671450099345651e-01 3.3733807658859957e-02 2.7028958045191221e+01 3.0076381182270273e-01 1.0681776589068613e-01 7.3725588689922503e+00 -5.0774589035854678e-01 1.4290781044332396e-01 -5.7646978019570423e-02 -1.0211730138472000e-01 -2.2510589288658850e-01 -8.1354555057835148e-02 -2.1556350776360206e-01 -5.4006440892279661e-01 -1.2500461829146423e+00 5.9359103511975986e-02 3.0282692984231196e-02 -4.2859486254590662e+00 1.3645974659867446e-01 -5.5185911365814626e-02 -2.3908785736881555e+00 6.6172041081751370e-02 -1.3680586590750082e-03 -5.0585324387987463e-02 -3.2102855568049427e-02 -3.0590692693983255e-02 2.7948856639482655e-02 5.1660584045463281e-03 -2.7383715999705141e-02 -4.4803880440824950e-02 9.3900520168780935e-02 -2.4894129853432045e-02 7.6388762307830371e-01 5.8990051720717376e-04 2.2110384341291700e-02 2.6869158085310174e-01 5.3690180147889788e-03 -6.4278178906599481e-02 1.7322918392187873e+01 -7.4733565931497936e-03 -4.0953199618780634e-02 -7.6229925126419573e-02 2.5346344263558668e-01 1.7085803347652778e-02 -8.6248153317751708e-03 5.0649252634297787e-02 1.1281108815380875e-01 -3.9633324506647805e-02 2.5456312022077748e-01 4.8920789409182186e-01 -5.9503445278973626e+00 -3.7153778322697992e-02 4.6830457243458468e-02 4.7214669634440174e+00 -8.8686441796846968e-02 8.9240096586054501e-02 1.8426107146466723e+01 1.1416120654434912e-01 2.2750204115490336e-04 -6.7198577299948932e+00 5.8294079228909523e-01 8.2263352435652127e-03 2.5303858627479792e-01 -5.8528758233141714e-02 3.3170620186057087e-01 6.0532121631987124e-02 6.0131091336030042e-02 5.7417992880424940e-01 1.5198130350042975e+01 -3.5446734953309411e-04 5.8027331995682781e-02 -2.9856944631747195e+00 -1.0560829538663624e-01 5.4405154077805440e-02 -1.7916084130407825e+01 -2.2790154209611058e-01 -6.2248177936759685e-02 -1.5218047677039537e+00 2.9387905191023439e-02 1.9835287551099423e-02 -7.2768358489278553e-02 4.4905251480849798e-02 8.8961734837166739e-02 -3.4123475102585399e-03 1.0851138700395813e-01 1.6692736709467340e-01 7.4033749582553554e-01 -1.1075478371649711e-02 -1.3088379142545348e-02 2.7643954126520953e-01 -3.8750884281690157e-02 6.3788064204251316e-02 -7.8741305461612647e+00 -1.2826196571089910e-01 4.4929767186242753e-02 3.0892656519871604e+00 -1.2335489303776370e-02 7.7440592732814117e-02 5.5763733947544414e-02 -6.1892871500173613e-02 -1.1572990850243527e-01 -6.1126361299206344e-02 -1.1553767305127183e-01 -4.0374681727460171e-02 7.7251994125783974e-01 -2.4953175213887235e-02 -1.3166693468517565e-01 3.6986578849432905e-01 -5.5952133511991575e-02 -6.3846793066344443e-02 -3.1670996651103678e+01 9.2137104796392297e-02 4.5273161880043933e-04 -1.9574339093296333e+00 2.1593045314503478e-01 1.3300191373318837e-03 -3.7017130592883585e-02 7.4584695561821734e-02 4.8036408566526134e-02 -2.1114249735128821e-02 5.4192639508272022e-02 -3.6245289889019627e-01 2.9383824669077185e-02 -1.1630595156509049e-03 2.0012426031174646e-02 3.4959344491410366e-01 -2.5562667057652144e-02 1.1347663204554408e-01 4.8207015380910434e-02 1.8609542396359691e-01 -2.0206281751846822e-01 -1.0618064536332963e+00 1.0570832590312629e-01 8.9838197157773012e-02 1.7628841457395739e-01 -1.0243122104522794e-02 -4.5576792019299872e-02 6.8339234591419940e-03 7.2411775190492272e-02 -4.2537290769489966e-01 1.3313105651725465e+01 1.1205505103960170e-01 1.0550344713927096e-01 -1.5512216039414444e+00 2.5271180132287852e-01 -1.0741006551207981e+00 2.0588584269837781e+01 4.7382790953487213e+00 2.9078444648859048e-01 4.8842840444801524e+01 3.6630988842104726e+00 -8.0858232204962610e-01 3.4314004897849687e-01 -1.9824873044015752e+00 -1.6293102931377437e+00 -4.4627401199710937e-01 1.6493538732486477e+00 6.5282703858070548e+00 3.6728974180733559e+01 -5.1974824692024235e-01 7.6477042700820164e-01 -4.5179013433113596e+01 2.5484544554855298e-01 3.9802333860436905e+00 
      </Row>
      <Row Index="67">
        -9.1815692573904371e+01 2.5905037421051602e+03 3.5882995718120256e+01 2.4736765270991334e+01 -1.1682418710112506e+02 -1.6710014372830017e+01 1.8233493525268841e+01 -2.1954150696863458e+01 5.8755612014759777e+01 -4.5926533818814850e+00 -3.6370154378862132e+01 -4.8647417732383659e+01 1.5109179887921826e+01 2.3980584189816068e+02 -2.6158391350469707e+01 -3.7617263945476275e+01 -6.2105437269251752e+01 1.3189827199054749e+01 -2.5389826787513257e+01 1.4517790539984035e+04 -7.9518060080126759e+01 -2.1624899902820072e+01 3.6571194473507353e+02 1.1287475510779146e+01 -3.4570990074933832e+00 1.0493852823830139e+00 3.4430061691202081e+00 5.1203419187361433e+01 1.2882418486152677e+01 -5.1770187206588211e+01 -1.2839367557198372e+01 -8.0384110513815108e+02 4.1444475817052675e+00 1.3389162171336103e+01 -3.9899015517857617e+02 1.7750345079607346e+01 5.2966074667819179e+00 3.6556924775318384e+02 -1.2637673142612805e+01 -1.8430632004436234e+00 -7.0870927835134580e+01 2.5288252719786897e-01 2.0400872075337873e-01 -3.4449697381788269e+00 6.8259968575024299e+00 1.5558631016010139e+01 9.5655959682403591e-02 1.1853789995048064e+01 2.2680404908346072e+00 6.9560612679457222e+02 1.7661286247985264e+00 -2.7556121374483382e+00 9.4064310182890907e+00 -5.0193945912587878e-01 2.5182850765245234e+01 1.0347451166075723e+03 1.2203324611947039e+01 1.0608792638741249e+01 -1.3278830780750866e+03 -4.9056069193024996e+00 7.0712753028715838e+00 -4.3819426369906296e+00 6.9470636367396992e+00 -1.4582501307060966e+01 -1.2627827260108461e+01 -3.7773371077009870e+00 -5.9503445297394819e+00 5.4201796439088357e+03 2.8296931610626848e+00 -1.1494679991665350e+01 -1.7994919583322189e+02 -8.6767281945065520e+00 5.1742788565298021e+01 -2.3595589382542353e+03 1.3255515398894403e+01 7.6956990982890829e+00 -5.9393056190316406e+02 1.4450891796545740e+01 -4.9218186881427918e+01 2.2805026266772362e+01 -5.3157825994842312e+01 -5.1122939227057010e+01 6.0541062532730223e+01 1.6473964670205916e+01 1.0940849548516240e-01 3.1773050772083989e+03 2.5437751340367996e+01 3.5734216506431110e+01 3.3879668457910498e+02 -1.0616221746175409e+01 3.0669561362193008e+01 -3.0839681125451889e+03 5.5938010231960902e+01 -2.0875101133926819e+00 4.1986367765588750e+02 -9.3600178696089120e-01 5.9154218127314380e+00 2.9899550090472564e+00 6.6257891179664163e+00 5.6868732205573451e+00 6.5230721861421443e+00 6.4780570370074386e+00 -1.7716300327629142e-01 -1.2696557986516607e+03 -3.3476667819257955e-02 3.8105189432167208e-01 1.1542884381917047e+02 -3.2409087223961706e+00 -7.8123736687239216e+00 1.1110914944961260e+04 1.8196527535897758e+01 -1.1583473084477873e+00 -7.1427302050323760e+02 1.4346322258595592e+00 5.3075449641346495e+00 -1.0070395191968601e+01 -3.3549214700935295e+00 5.0607316123684774e+00 -2.0524832506130224e+01 -7.2733998944572704e+00 2.8692325213023651e-01 -5.0453884769705198e+01 2.2414065611647516e-01 6.6960234881141787e+00 4.9472947129843874e+01 8.3753135457781127e+00 7.2161199904550131e+00 1.7515492539804156e+04 -9.6775160275437031e+00 2.0661153547714548e+00 1.7231146834977568e+02 -2.1426461587025756e+00 1.6127074558755794e+00 6.2174160623144417e+00 -1.2291853697285120e+00 -2.4284629965702607e+01 -6.5363133819546420e+00 1.3892910111607193e+01 2.7455042843372439e+00 -8.7337608254763745e+02 7.2616213857008960e-01 -2.7645096844052546e+00 9.7814647525616351e+01 -5.7114496424179606e-01 -6.0795745252360128e+01 -2.5649287354994703e+02 -1.0257277902049452e+01 1.1361077702731297e+01 1.6006018005929718e+03 8.8757728759656462e+00 -2.9347216218857046e+01 3.3284193390273913e+00 1.4815620982163859e+01 1.5646340170110591e+00 2.5891623042905266e+01 -8.2203181294727685e+01 6.0695004752784882e+00 -2.5240404649015177e+03 3.6383837880744352e-01 1.0518536075697256e+01 -1.7646575451479708e+02 1.7128057540785207e+01 -4.1567967577185482e+02 3.4464371661403288e+03 -1.0112141233962227e+03 4.2149673135718331e+00 1.6401978160329058e+03 -4.3511191759034773e+01 -9.3772095695042708e+01 -1.1076758769963168e+02 -3.5404101405080371e+02 3.5256021887854200e+02 -3.1538624515696438e+02 1.9495362711045482e+02 -6.1012643404492337e+01 7.2000938156128332e+03 7.1871253949168931e+01 -1.0446420631745877e+02 5.0435866210930126e+03 -3.1716485408684704e+01 2.9480468728153005e+03 
      </Row>
      <Row Index="68">
        3.6239520483453053e-01 -2.6418010298661130e+01 -1.2394129864989704e-01 -1.4214622305861668e-01 5.4740815725428171e-01 -6.3669051015856376e-02 2.4127436575517902e-01 3.6541304441747607e-02 6.6974380560293978e-02 3.9015373343775128e-01 -2.1929159850975466e-01 -3.6686459497401736e-01 1.5174816448355777e-02 -2.3266515831456509e+00 -1.0602217717577533e+00 -4.1011200670791309e-02 -1.7171605343015321e+00 -2.8586870309476942e-01 -3.5040619890279245e-01 -2.2664116406701538e+01 -9.5584094599076908e-02 3.7607132691816973e-02 -5.5938645288550379e+00 -1.2532410497447399e-01 1.6768174735476510e-01 3.2560441948241126e-01 2.7253301835095608e-02 1.9003920858518719e-01 2.4078477660101189e-01 -7.2129984354455279e-02 1.0758702678237234e-01 -1.0128421612161218e+00 -1.3440032804045545e+00 -2.8692253911129462e-01 -1.0464615474442263e+00 -3.9450162520778176e-01 8.5793680130379357e-03 -3.1015943662889669e+01 2.9017310457589929e-02 3.2860068800211195e-05 1.1038017417057535e+00 8.8025231280872696e-03 -8.3164219907646553e-03 -6.4177017939797132e-03 -7.4407042355109261e-03 -3.4145922424405617e-03 3.2055069183364981e-02 1.0038484797324607e-01 6.3052136279608678e-03 -1.6709692392002136e+00 -9.7411712706365811e-02 -1.6322809741625921e-02 -6.2255177197157974e-01 2.6573998920276232e-03 6.4876902279254800e-02 -6.2871372142744910e+00 1.3738027287292098e-01 -4.5950015179478054e-02 5.3811432026822037e-01 -1.8058918389208589e-02 -6.4838420259442309e-02 -5.5826236289313158e-02 -5.7230785329219769e-02 -7.8026006857767172e-02 -1.2662558361357767e-02 -1.2939105813958030e-01 -3.7153778328918641e-02 2.8296931599756903e+00 4.7792363467365112e-01 1.6313990617220497e-03 -2.4590727275106522e-01 1.0108990430021436e-01 2.3530143254155572e-01 3.9410028897822407e+01 1.1446265618015887e-01 1.2810419844756959e-01 1.5955914786576362e+00 2.0473579956309015e-01 -4.1909713657095704e-01 -6.3352264781162460e-02 9.2434720074802801e-02 -7.5722727196953676e-01 2.5905140050319420e-01 2.0062959559882107e-01 -2.3966824486768507e-01 -6.1829936310458855e-01 2.3282175570457531e+00 -2.6635825790335171e-01 -1.9806043676255736e+00 8.9590478684655839e-01 -3.4681344717538920e-02 4.3727574286778129e+01 5.5865637084279385e-02 6.2811464394494365e-03 3.0170194142047718e-01 -7.2442572883423678e-03 -5.0407823639062599e-03 1.7713453324711415e-03 2.3335038816414855e-02 2.2732985243818504e-02 3.6063569392177364e-02 1.1957139195806200e-02 -3.9738899489351054e-03 3.4094889299344073e+00 3.2091764808914602e-01 -3.8273939730437689e-05 -4.3115370442643353e-01 1.5083336356797616e-01 -7.6247780312196589e-02 7.0417970117724650e+01 9.8131066811015799e-03 3.4786216462840969e-03 -3.4844456961877608e+00 2.3595840924679479e-03 9.1558481804083769e-03 -1.1078560820286576e-02 4.8620281871612825e-02 1.6065645932415735e-02 -4.2461034684819765e-02 -9.7342234588113641e-02 -6.8549108944564452e-03 3.1897278361524126e+00 4.4342156756376494e-01 2.9723741913104007e-02 7.9625880963402107e-01 8.8558326494506900e-02 4.1698345749916932e-02 2.1100302021844286e+01 2.7289439083667655e-02 1.4004618717557982e-03 -1.4263279719004029e-01 -3.1189149034041908e-02 3.1456022002993578e-03 1.6943395939785333e-02 4.9917068750103266e-03 -1.7944687263776515e-02 -2.8252262026596142e-02 3.6485317000561235e-01 4.9905885754862211e-02 -3.9247148370864906e+00 3.5844669518814820e-02 1.6282961335019941e-02 -1.3568388909470475e-01 5.1490790819812560e-03 2.6117783647442605e-01 -5.0912322148542586e+00 -1.3938664374504428e-01 1.6664057442747824e-02 9.7563814237653617e+00 3.0338996580972555e-02 2.6646237361871425e-02 2.7711486449167899e-01 1.7735404173194197e-01 -1.7402243973677345e-01 2.3034915846830684e-01 -2.8515285639651516e-01 -9.0234343594453037e-02 -7.0808932357283947e+00 -1.2039419204759494e-01 -5.2879786312625965e-01 -5.0156179594306582e+00 1.8475631585981958e-01 1.0531225633920087e+00 -1.6034846504710217e+01 6.5572025596231676e-01 4.0519675477729855e-01 -1.1413120867777376e+01 -3.5752583932509907e-01 5.5076419555771361e-02 -1.6657135875944173e-01 7.4149433884841920e-01 1.0213041532941172e+00 -5.4020583985940185e-01 3.9103522040506493e+00 -3.8635893670344501e-01 -3.2708257915312885e+01 1.1916017290504030e+01 -9.3639581474868727e-02 1.6656593668747188e+00 1.2866745204085550e-01 1.3500520911882925e+01 
      </Row>
      <Row Index="69">
        5.5006075338255322e-01 -3.3971522817534719e+01 -6.3647963274299224e-02 -2.3645752783102666e-01 5.4369992947971593e+00 1.2650798716274500e-01 -6.3160869756319071e-02 -2.9996702909680290e-01 -1.7602622629347600e-02 -5.9491542955766273e-03 3.1455373347400795e-01 -4.6334558430429262e-01 -8.3716386236017348e-02 -1.5211378553854393e+01 -1.5056546892522735e-01 -4.6014957207029600e-01 -2.5238176430462373e+00 -4.8781520417657653e-01 4.1779445670360893e-01 1.6809335695525171e+01 5.8511106642883126e-01 -1.8191886162811666e-01 -6.8825780413540176e+00 -2.3443746803455329e-01 2.6119629424237845e-02 -6.5888611343353221e-03 -1.5484744917419219e-01 -8.4887952405463818e-01 -4.0260274179230948e-01 1.9727356655914963e-01 1.1787006703462517e-01 -5.7194425255389980e+00 -4.9138945466460004e-01 -2.4294185819599257e+00 2.2673326275776780e+00 3.0370663236704731e-02 -1.4260241956423725e-02 -1.8612530928809676e+01 8.1510887854420677e-02 -4.7990798250610034e-02 5.1858840568388276e-01 -1.6504667196634237e-02 2.4101190592086041e-02 8.5922788486538559e-02 1.0113268712398777e-02 -3.5528581202840304e-02 -1.9284627162609702e-02 5.8546152472384018e-02 -2.1971818479878280e-02 -3.7717630327960316e+00 -6.7691990511234937e-02 8.0077483453973475e-02 6.3589207228750888e-01 -1.8789921511054919e-01 -8.0242394930371219e-02 -8.1309518346030636e+00 1.6881331508622477e-01 3.2892546191009675e-02 8.7309588411399108e-01 8.8827044855146475e-02 -4.9198611405537385e-02 2.0247952901609523e-02 7.7072557738196323e-02 3.1746710879667761e-01 8.3049349613599333e-02 -1.0191290266613251e-02 4.6830457202651665e-02 -1.1494679993701382e+01 1.6313990917019017e-03 1.0439320329579882e+00 -1.1071334855966106e+00 2.2790509527599834e-01 -4.7925435926602378e-01 -4.0961650352691834e+01 -4.5135911092327707e-01 1.7682370249393364e-01 7.0004367552117301e+00 -9.6552171322394909e-03 -1.4756747512608262e-01 -4.8389885913445341e-02 1.9802796840711123e-01 6.4148243130250104e-01 1.7735554187397018e-01 5.4345510756816477e-02 -1.2787477989936485e-01 -1.3020084097298692e+01 1.6501403532863815e-01 1.9560954132621369e+00 -2.1272490741068202e+00 8.8005593203105770e-01 -1.4985831616356826e-01 -1.2005084992862542e+01 -5.4877323223348595e-02 -1.7278063011922917e-02 7.8181076205343469e-01 1.9917141986316486e-02 -1.2269508321196554e-01 -4.1049038112728760e-02 2.3512215394833613e-03 9.5116148666438249e-02 -6.7363706327544293e-02 -2.8872680356361660e-02 1.9723611134347285e-02 1.1889141072033073e+01 -5.3210302111129204e-02 2.1122228859891568e-01 -1.1452393107494285e-01 1.4180870184555516e-01 -6.1928788243689858e-02 -3.3952367043071149e+01 -1.3918719219991083e-01 -4.4851285625938431e-02 3.6181168753755530e+00 -2.3381301803375720e-03 2.7613026297533594e-02 4.0237690555137817e-02 -1.4213111790985966e-01 -6.6925376929162644e-02 4.0422857838557036e-02 6.3368606235414404e-04 3.6236220028715849e-03 -4.2341693565180716e+00 5.0890582309280230e-02 -4.0638571758084829e-01 -1.9008708811055408e-01 4.7165785518654246e-01 -4.9588169476499466e-02 -7.6109681687419695e+01 9.7313315995332106e-02 1.1733191232194073e-02 1.8203952668307266e+00 5.9265885667553864e-02 3.2103657757818205e-02 -4.6393000338201595e-02 -1.1590435869526350e-02 1.2907538301828225e-02 5.5820798862362686e-02 4.6123121300795766e-02 -1.2309075127381153e-01 5.5595645178119213e+00 -7.6478585508221730e-04 8.0087061029894269e-02 1.5976588195486539e+00 -1.0390002621687433e-02 5.2731469992950752e-01 4.9742364697911796e+00 2.7196782367685302e-02 -1.9960281537309257e-01 -1.2373731675477160e+01 -1.2341231971392186e-01 -1.4967612505614863e-01 -3.5095828556505770e-01 2.1758641470914913e-03 -2.0215700269518727e-01 1.3106830351924645e-01 -1.2190849201039672e-01 -1.2957922962118906e-01 -3.0700873821051036e+00 -3.8406521040603642e-01 -9.1564660365014605e-01 -1.4396564052308485e+00 -3.1872260524101942e-02 2.1608236381963426e+00 -3.1632562074123745e+00 4.9188713956024053e+00 3.7861744933667296e-01 -7.5131482780161356e+00 9.4082060231714593e-01 -5.2568467527995377e-02 5.7339958162572202e-01 1.0004035979800596e-01 -2.1283541604189748e+00 2.8167037448354124e+00 7.9937397723807457e-01 1.8101337702933620e+00 -3.3837930239912765e+01 -3.2921186431742981e+00 3.6259790797556661e+00 2.5204358466063457e+01 -2.9720690612755565e+00 -4.6074701029598096e+01 
      </Row>
      <Row Index="70">
        -1.9019024603752348e+00 6.9308115603081774e+01 -1.0070918002969099e+01 -7.4494324673187826e+00 2.0146310148356119e+02 -5.5556814193648396e-01 -3.3397421054347909e-01 1.2745910825697013e+01 -3.4810967494986906e+00 -4.9154689477452980e+00 6.6148889337404952e+00 1.1042015736722259e+01 -3.9075715120176691e+00 -2.6879026667528439e+02 4.2910795924726486e-01 5.1090995466504499e+00 2.3187794398818130e+02 5.1397450388140333e+00 4.9097350348997404e+00 1.1319351155861414e+03 1.9623034431396462e+00 3.1027320175549793e+00 -5.3056035227820658e+01 -7.5137331757974941e+00 -1.2032644776505999e+00 2.8641741050797505e+00 3.9189996670005725e+00 -4.5201097135965789e+00 3.9321769858704601e+00 1.0358956873151172e+01 -1.3403110372176748e+00 -5.9445221248170185e+02 2.8186406301462172e+00 3.8847057928275017e+00 2.8291970334228587e+01 -3.5893381191259195e+00 -2.7514391692869555e+00 -2.1784096247723141e+01 1.4632313689820053e+00 2.1949565944883176e-01 -1.4323029574622660e+02 -4.3604659656082845e-02 -5.2504335305575012e-01 1.1817922004638959e-01 3.4896300279708714e-01 -8.7216780445591624e-01 -5.8862672857096143e-01 -6.4379153405254963e-02 3.0460624948676696e-01 6.2876611042291202e+01 4.8326825710680310e-01 9.7637662190723518e-01 -1.4231749627941936e+01 2.2079587277435806e+00 -4.0418543941369904e+00 3.2926197393593966e+03 -1.6690074952951264e+00 5.4045323318560179e-01 2.6552944408107948e+02 1.4724737138352992e+00 4.4579319917875893e-02 -2.3353215824647862e+00 -6.6958240968269678e-01 1.9140987093942279e+00 5.3982069787329579e-01 -4.3589047991684673e+00 4.7214669637560931e+00 -1.7994919639298899e+02 -2.4590727063442452e-01 -1.1071334837812223e+00 3.9252638864537067e+02 -2.7025698407446024e+00 3.3670847233455237e+00 -7.6223595272621560e+02 1.0274859430829306e+01 4.2507188287504558e+00 -8.2944793745717720e+02 5.2211853792026730e+00 2.6727364012864037e+00 8.3372365532586485e+00 -4.4212170273013851e-01 -4.6251105591158677e+00 8.5330671833998224e+00 -2.1770507453006577e+01 6.1348671790808478e+00 7.5403541574522035e+02 -6.3513294100470645e+00 -1.2585136282766104e+01 -2.4568795042822535e+02 -1.0735971019109659e+01 -6.9411540620761514e-01 -1.1366121584012694e+03 -1.0966984255728196e+00 -1.3223918543305153e+00 -1.9603217782023881e+02 4.8876464343381176e-01 -7.5107813510356891e-02 -1.8346799485288516e+00 -8.7173377342743896e-01 8.1871561752377886e-01 2.4957306434356497e-01 1.4052264480937104e-01 2.4682658483477482e-01 1.9787887433014390e+02 8.8013407341057004e-01 6.6269584521837643e-01 -9.0608275237792157e+01 -1.8847383639063082e+00 1.7151375277392731e+00 2.8043011086876595e+02 -1.5890526927582016e+00 6.0158139805106714e-01 1.6358981457180192e+02 -8.6418081456807272e-01 9.5052306585915147e-01 1.2453771856639975e+00 -1.0750139165215593e+00 -9.8853050080772320e-01 7.4875387099490354e-01 1.0479938603001386e+00 5.5282365248577747e-01 -3.2095817066057981e+02 1.1885451427532701e-01 1.4667843669402529e+00 8.6724146124339015e+01 -7.7652394167454659e+00 2.6900576937006448e-01 -2.9285579822923592e+03 1.0903073856648202e+00 6.5056395297173353e-01 -4.1102483243112238e+02 3.8922957217352305e-01 -6.7978659552522203e-01 4.1979462234074560e-01 2.4076186390072252e-01 2.5299723456154766e-01 5.9598982259008437e-01 -2.2420962094376407e+00 -3.3184327262570434e-01 -1.7942624078781500e+02 2.1072496666597917e-01 6.1893487927532931e-01 -3.0334239154324962e+02 -6.0607822435122216e-01 4.9086524494703330e+00 -6.6541548666841663e+01 1.8201206135769503e+00 -1.9759635584177384e+00 8.5719130464761747e+01 -3.5817719091378617e+00 9.8255136309714219e-01 2.1387903060244074e+01 2.4668658613316663e-01 -1.2756102846745147e+01 1.7652755433031537e+01 6.3909287669728165e-01 1.0165675539758112e-01 3.3104385910334003e+02 -1.9257540588284117e+00 -2.0342426394519251e+00 -3.8817274248233815e+01 -3.2089518685678513e+00 -2.7493075108318550e+00 9.0342107253966469e+02 3.8438168504840888e+01 1.4801019171812541e+01 3.8572389741464995e+03 1.1941284236969295e+01 -2.1400340671341649e+00 2.7870368200925277e+00 -2.1584312902376102e+00 -2.6946058107768856e+01 1.9768530042639121e+01 -2.9905641250436148e+01 1.4310741966619617e+01 -2.8007253551047406e+03 1.4746194843934859e+01 -1.3145657297268180e+01 -8.5450779148093734e+03 5.3655492304355221e+01 5.4707434763559843e+02 
      </Row>
      <Row Index="71">
        1.2312090008226191e+00 -5.3354682126520068e+01 4.6592478244577830e-02 2.4508492583292121e-01 -4.4522884423040061e+00 9.4075526384407276e-02 -7.6216200222626651e-02 3.3861760761009130e-01 -1.7475451510883050e-01 2.8009642646618776e-01 8.7143468743045216e-01 -5.9615670679536792e-01 -1.4899749927869965e-04 1.2558024690491028e+01 -1.4877738443693833e-01 -1.5098641075347596e-01 -3.5704262644087170e+00 -7.3337438556485357e-01 4.7340405070938091e-02 7.6720470446962722e+01 2.9661519870290021e-01 -2.4088327983491617e-01 -1.4499229614170650e+01 1.3301172989442028e-01 -1.2265439961446356e-01 7.9847056734897492e-01 3.0037025556140778e-01 -2.7875430458988171e-01 1.0249799832314696e-01 -3.0659043642247197e-01 2.7717961538504768e-02 2.5182725841225807e+01 -4.0295425129393120e-01 -2.1401425644089644e-01 1.2578306096560914e+00 -1.5674054434189064e+00 4.9879988694379873e-03 -5.5250483527991570e+01 2.9035522702792721e-02 -6.7842259081163592e-02 3.4094898451831419e+00 1.4953960078682549e-02 1.7073538042158387e-02 2.6371556638244975e-02 -2.1952579220716167e-02 1.6045075378324858e-01 -8.0193204328219414e-02 7.9138110623324875e-02 -1.7326473139174015e-02 -7.1978177376223931e+00 -1.2208252827201806e-01 1.1149356762281570e-02 -4.7033749659921964e-01 -3.8560330391805153e-01 -2.2737627413001782e-02 -4.1036516238453885e+01 9.5561666416436264e-02 3.2282032305082398e-01 3.8721002435657748e-01 -4.7769226681673604e-02 8.2139553075475602e-02 -2.4184991707070624e-01 -2.3519199573330751e-01 -1.1372311956128822e-01 9.5345773417690793e-02 -3.3834388026229600e-01 -8.8686441846006492e-02 -8.6767281900133355e+00 1.0108990432340570e-01 2.2790509526151936e-01 -2.7025698443812471e+00 1.0799864954568306e+00 -7.2407144145704150e-01 -1.9169427918711719e+00 -6.4362803754584008e-01 4.0588444842034437e-02 2.3942816402962430e+00 -2.0356848303984421e-01 -4.6579162002789318e-02 -8.1918459753219874e-01 1.7471641181589082e-01 -8.9495444530304960e-02 -2.7363005055928735e-01 9.7312297055454255e-01 -1.7334056345289928e-01 -1.1098535289030018e+01 8.1417486452018961e-01 6.4160465163635683e-01 2.8985432747675040e+00 1.8293402207118119e+00 -1.4031674797334404e-01 3.9984957211910590e+00 -4.7379415617674336e-03 4.6104060214276821e-02 3.0597513240251981e+00 3.3199372979512282e-03 -2.7312371432586247e-04 1.6540541140847576e-01 -6.5567135892738132e-02 -1.4311943249849968e-01 9.2821824011885212e-02 -8.0220097934929013e-02 -3.6874220698839721e-02 3.9580434744960300e+00 7.3971127301320827e-02 -6.3069085976738215e-02 -9.9586597798040022e-01 5.6129381310967918e-01 -7.9877259903254227e-02 7.0214155981952160e+01 5.7558608269910216e-02 -3.2765134547644070e-02 -5.1171307290200323e+00 2.2579590691583995e-02 -2.1631233492212409e-02 -1.9753292133882017e-01 1.5904805058963167e-01 5.1368424885331887e-03 6.6410529101919025e-02 -1.6657980091074620e-01 -3.6907468967173784e-02 1.4233799363376013e+01 2.6046321972505826e-01 -2.1575247793045627e-01 2.0259598387549849e-01 6.5917611849928548e-01 -5.5187029146207545e-02 -1.6976115326637789e+01 5.4543806015880159e-02 7.1058732558050952e-02 5.1159167589315828e+00 -1.4717395847271941e-02 2.3227176524042825e-02 -6.4511449965263701e-02 -6.3554743535218949e-02 -4.3739736798581674e-02 -4.7319898847701936e-03 5.8069586661489669e-01 -2.7214944754015313e-02 -5.3337371644478395e+00 1.3968284611454995e-02 3.7985887073526570e-02 1.7014377997943302e+00 3.6903361137876622e-02 6.5008002702814383e-01 1.7549615504140519e+00 -2.8573144281351193e-01 8.0243598549909645e-02 -8.1105083553545718e+00 5.8282381721123988e-02 -2.6667448258697335e-01 3.8222466520313247e-01 2.2274881346348302e-01 -7.9689312877428087e-02 7.3517455538522702e-01 4.9288114118311230e-02 -1.1126581881992142e-01 1.6638302237272494e+01 2.6776710465685127e-01 1.7491346306008948e-01 -8.5196329875058563e-01 -1.0504150602026603e+00 3.0710577197287510e+00 5.0624638100511197e+00 2.3157028379185132e+00 1.8633042927848873e+00 1.9836648723483314e+00 -4.7856780052240211e-01 -8.3254756248362416e-01 -2.2739667759981286e+00 4.5634074521190984e+00 8.9996641233329011e-01 -2.8461606700332642e-01 5.7144261491551198e+00 1.7725222443336008e-01 -1.1888910088867767e+01 3.6531968479229668e+00 2.8448214539307166e+00 3.8464934944521580e+01 -4.3142188270416444e+00 -1.4100994196482890e+01 
      </Row>
      <Row Index="72">
        -1.1439990427376364e+01 -1.4811582883498437e+02 -5.3799223049230915e-01 -1.5311473276398666e+00 -1.5180891001209751e+01 -6.5847958846948351e-01 8.9947728179941011e-02 -1.1148072374202140e+00 -1.4206017414601408e+00 1.1682181227651030e+00 1.5149337036403838e+00 2.3142729769307495e+00 -5.1082198717606220e-01 6.1944501298704928e+00 9.4426637804225932e-01 2.9121613154911685e-02 1.3590409307360066e+01 1.1334658463167901e+00 -2.4235500210953074e+00 -1.3169517327484579e+02 -2.2969862183645189e+00 1.1245280192383607e+00 -1.3284748364391795e+01 -5.1832050432876531e-02 1.1227903624218891e+00 4.4478738459254819e-01 -8.7739584520344438e-01 8.1319496993797502e-01 1.0876943986073608e+00 2.3282941454530235e+00 -1.1308169507109436e+00 -9.4513890608878782e+01 -1.8271108989499923e-01 1.3306055196568747e+00 -9.9978263597641686e+00 9.6583704489984523e-01 2.4539959906828246e-01 -1.2235231980018136e+02 -3.8479746979973678e-01 -2.3234017165811638e-02 -3.7420126459991749e+00 -3.1331488634472215e-02 3.8885241420940964e-02 9.1580868291945894e-02 1.0997852302482192e-01 -1.3445218229454547e-02 -3.6001981212934586e-01 7.0752445425900756e-02 1.3548760938138904e-01 1.4364549892095031e+00 4.5915702744397047e-02 3.5529712235450539e-02 2.1038846764960000e+00 5.1298782402499876e-01 4.8365777900320328e-01 1.0120574637969150e+02 -1.7696582282638440e-01 -6.8303496687764564e-01 -1.6555419226377865e+01 1.2601138280341617e-01 -9.0861843346573989e-02 1.4792088115358659e-01 5.3447485756937096e-01 2.3626299794715289e-01 -1.3649722999552161e-01 -4.6576483477762665e-02 8.9240096387603884e-02 5.1742788564295012e+01 2.3530143278852078e-01 -4.7925435946006667e-01 3.3670847185175887e+00 -7.2407144143827284e-01 1.4676712989995570e+01 2.5990262450062738e+02 4.7091496851448751e+00 1.6025630096648293e+00 -4.6070728170622196e+01 2.0105487069613606e+00 -1.4395694701560267e+00 -1.2008381788979410e+00 2.6812095809168666e+00 -3.8121324939661725e+00 -1.3542384236711502e-01 -1.3557817908392245e+00 1.7388377617292625e+00 6.5510292812139312e+01 -1.9779997181353766e+00 -1.3252015545397904e+00 1.7253978327485147e+01 -3.3748689026836218e+00 2.4441270411982661e+00 -2.3506833584496863e+02 -4.3337527132301434e-02 -2.6773856873514701e-01 2.2138707083626610e+01 -9.6004749347551238e-02 4.0130593079100052e-01 -4.7354203054236765e-01 -1.3561548162819625e-02 7.8417316589523800e-01 -2.2481846727609156e-01 3.4109119392647613e-01 -1.0005869200657713e-04 -4.5867586709747222e+01 1.0615466372977433e-01 -9.6304614438435188e-02 -2.0997048405878793e+00 -2.8708835342567252e-01 -3.4510691445399466e-01 5.1919767697798250e+01 1.9779186462793019e-01 -1.9843957753744412e-01 -7.1144284386294689e+00 -7.8615214738437800e-03 8.0892385603950956e-02 3.7724449664410908e-01 -2.7053332425071863e-01 2.6149054302798014e-01 -1.7087185619441669e-01 3.1794264860750587e-01 3.3452240446229631e-02 -3.2121040614062345e+01 1.1088713946419615e-01 2.6595038342315558e-01 2.2447136356686217e+00 -9.3044553045273037e-01 8.0530694396071922e-01 2.7585019100137941e+02 -2.0879718658133350e-01 -7.4610050076897139e-02 -5.9116109357374569e+00 6.8851639685421517e-02 -6.4368807498071945e-02 1.2742560329151065e-01 2.3149253856423874e-01 -7.3058117106613807e-02 5.7365551670167214e-02 -4.2904293774657276e-01 2.5790456470940271e-01 -4.7507980551169048e+01 9.1712938925939680e-03 1.2795004821446909e-02 -5.9069306796098715e+00 -6.3115229425401598e-02 -3.9797665195658527e-01 -1.3356226121787330e+01 1.7546300313951919e+00 9.7400211016492166e-01 9.4646272141955361e+00 1.1157693002827269e+00 -1.3891401696734818e-01 -1.9836266579951438e+00 3.3905696389030948e-01 -1.5976104079946127e+00 1.9729004222204756e+00 3.1295862655215143e+00 1.0024012000394017e-01 -2.0735000876879202e+01 -1.1434712326418175e+00 7.9117733872936746e-02 1.5374736803620104e+01 -3.2998709258749326e-01 -3.9827703721747028e+01 -1.8457901159091847e+01 -1.0876685104340170e+01 2.0475065131924630e-01 7.1253184462526633e+00 1.3446048130834214e+00 -1.4689199779442417e+00 4.7315840925731365e+00 -1.1308707255970855e+01 2.2030738763731281e+00 -4.4255170795561636e+00 -6.7303019861957623e+00 -2.8670904095878740e+00 -2.4246188733418938e+02 6.6258013127569626e+00 -3.1602548749108728e+00 -7.2007960879387156e+01 6.6664296537992414e+00 3.2377745261121980e+01 
      </Row>
      <Row Index="73">
        1.7474910474497366e+02 -2.0918850358253665e+04 7.9027674579718905e+00 1.8809694955988743e+02 8.8104863724239203e+03 1.1310463939982381e+02 1.7127999416156854e+00 -3.0554932812612549e+01 8.0981305470068605e+01 1.1985610195244863e+02 -1.6225761259939281e+02 -3.6252280776427051e+02 -4.9714457034358816e+01 -5.1681072863395821e+02 1.4225141087503346e+02 1.8033841272230620e+02 -1.0495651029387755e+03 9.9041776467792062e+01 -1.7466203510049917e+02 -2.6311999105075651e+04 1.5122459883804595e+02 8.7749568798279086e+01 1.6241025217206850e+04 -7.6308627869540018e+01 4.5133228827833136e+01 -1.2140439595150912e+02 7.0690777668221202e+01 8.5759788268680040e+01 2.7098087310950348e+01 -1.6082915178031726e+02 6.8398570327065443e+01 1.1922966902410028e+04 4.6600428982270103e+01 1.9858115897106217e+02 3.5699520568253865e+02 -7.4289690993641102e+01 -4.5365914264742855e+01 7.0513739485976228e+04 6.5461782056806896e+00 -1.8368443543287185e+00 2.0395111856564363e+03 -1.0463757399337283e+01 -9.5441048840825147e+00 1.1370752774239463e+01 -5.0547495846437300e+00 -6.0847265986459433e+00 1.0276845581551470e+01 -1.2559004052569179e+01 -2.2313855680375809e+00 6.6402161154373539e+02 -2.5811689446399750e+00 -3.3229368075162711e+00 3.7311086313741157e+01 3.3102548400968772e+01 2.8390120786408261e+01 9.4612880199678271e+04 -1.6888514906929686e+00 -1.4521749820069999e+01 5.8923177118928124e+03 1.7818406083230457e+01 -1.0183618572775686e+00 1.9934103699605203e+01 -1.7374572344048374e+01 -4.1355950223204218e+01 2.2762573144094858e+01 1.1818737168642519e+02 1.8426107251810208e+01 -2.3595589211976258e+03 3.9410028664702537e+01 -4.0961650431893304e+01 -7.6223596002144541e+02 -1.9169428700008666e+00 2.5990262446413794e+02 7.6465348062287096e+05 4.2501819358918937e+01 -2.5201682901766389e+02 -1.2321150215323241e+04 -1.3554396190881562e+01 -1.0184982981405648e+02 -6.4476296415270326e+01 -9.2434939322028640e+01 -9.6816834153449250e+01 -1.0706576140036123e+02 6.4273029528269967e+02 -6.0551269148058509e+01 4.9176598802081571e+03 -2.6743588685097086e+02 -4.4573859338371312e+02 -3.9668611974148553e+02 -1.7511357986589110e+02 -8.7090271394977208e+01 -7.3555177050858983e+03 1.2129753018209385e+01 -1.0048563724506039e+00 -3.2289489624718790e+03 1.1866292973067068e+01 1.3576504699845827e+01 3.5074984729543530e+00 7.3872692428802580e+00 4.4788169245748577e+00 1.9553308595693579e+01 -5.6871978211620103e+01 1.1539272601835592e+01 1.9394541433177960e+03 5.5205426195541691e+01 -1.1010441618730511e+01 5.4571373969385525e+02 1.0725141306408659e+01 1.7838527286762655e+01 -2.2458524658060080e+04 -3.2714573227586015e+01 1.3106529531648448e+01 3.3354495493486102e+03 9.9189563783957055e+00 9.0792837613034862e+00 -2.7083864425603679e+00 6.8569126298393712e+00 1.3834810598001468e+00 1.9675928970005771e+01 1.2394220880068133e+01 -8.0297746687251674e+00 1.6995839419124759e+03 6.2180999701394285e+01 -8.4319506648444076e-01 -3.1973164605325474e+02 -7.1586771361282445e+01 -4.4733236985981648e+01 -1.0274262652376179e+05 -7.3159547372642919e+00 2.8915420675843961e+00 -4.7141640064538860e+03 3.3119755077709669e+01 -5.2317618781353303e+00 -5.6712458841716398e+00 2.2614563523479262e+01 -1.6728318278280312e+01 1.6612578562481758e+01 -4.1388080161502785e+01 -3.8102426019974246e+01 7.7970866287969147e+03 1.5677544501017508e+01 1.0397433488560637e+01 1.0970572518629924e+03 -7.7190863055693626e+00 2.4642797550618866e+02 -1.7646471626732455e+03 1.6832876748513445e+02 3.8042519048105419e+01 -7.3737127996173667e+03 1.7845579839297443e+01 -4.9513155940023239e+01 -1.9926262879842579e+02 5.8195409653579546e+01 1.0433347701081084e+02 -2.3601846950436800e+02 5.5425863781082171e+01 -3.9327525568403416e+01 7.2826785660629757e+03 -6.5168860744586965e+01 -5.5270587572422073e+01 1.2877408087375165e+03 -7.1283745202881619e+01 1.3122467336756590e+03 -5.1317116982679698e+04 5.2938178031311418e+02 9.4560202854305317e+01 -1.8502066180287651e+05 4.1024877225829550e+02 -1.2869625218526835e+02 -1.0157546426148838e+02 1.2496183053753384e+01 3.1487588896221308e+02 1.1220915215579589e+02 -6.1534144481713884e+02 6.6801263190273312e+02 6.6078513982643257e+04 1.7740130553304480e+03 -3.0802542906152667e+01 1.3840814512090945e+04 4.5422645586240105e+02 -8.2996641252550689e+03 
      </Row>
      <Row Index="74">
        -1.9982259847523707e+00 2.3245320995361485e+02 -5.5807114788552168e+00 -2.8796149119899273e+00 1.6781148023465594e+01 -5.4693893062231891e-01 1.0616873494102113e+00 8.5622885524501147e-03 -1.7358135970768649e+00 2.2275516228144474e-01 -1.5094106807960559e+00 -1.5579610214211481e+00 -1.5181120840198994e-01 -1.0502211788455992e+02 -2.5663515652324498e-01 -4.9444307208235194e-01 -2.9048030320469920e-01 2.5597264362787295e+00 -1.7507461116442680e-01 1.2879938040991357e+02 -3.0137520968673437e+00 -1.4486195355592830e+00 5.2747714094942602e+00 -3.2699664174504095e-01 1.7670418388360609e+00 -1.9779703741809864e+00 -1.5251340192764180e+00 6.0091580195464767e-01 -3.4652905712375635e+00 4.9913943710541275e-01 -4.3556490467245301e-02 -3.8083330620162080e+01 -6.0896699290629186e-01 9.9542814473673003e-01 -2.9780008059090823e-01 1.3179023514431019e+00 1.4173900993581512e-03 1.0080270792144196e+02 -1.2379347481796822e-01 1.4342664107528633e-01 -1.2608344969119758e+01 1.2876416418321560e-02 6.9266335624087710e-02 8.5162600826154539e-02 -2.4150139991142038e-02 6.1643016107351914e-02 -1.8082541657242818e-01 -3.7585014395562721e-02 -1.0927778907219804e-02 2.4479986690569373e+01 1.4447529579293777e-01 1.8256805639723192e-02 1.9373574198758714e-01 4.1784455617487354e-01 1.2773233736668418e-01 2.0588083734877884e+01 -3.2656880731592275e-01 1.8397897415769374e-01 2.6924966127559991e+00 -1.5071890122980475e-01 -2.9821549459920210e-01 4.5998964432293687e-01 4.7663131182522783e-01 8.6687239060153590e-02 4.1432017938731364e-01 2.2821535673917984e-01 1.1416120608499414e-01 1.3255515367571274e+01 1.1446265635107417e-01 -4.5135911055068778e-01 1.0274859403284765e+01 -6.4362803716390260e-01 4.7091496851732932e+00 4.2501819086787407e+01 1.3880258073110676e+01 5.3379219227590591e+00 -6.5971785520305701e+01 2.3540657576265778e+00 -3.3031732313875968e+00 3.4734900336394254e+00 3.8764726298984553e+00 -2.0943496901531158e+00 4.7820064750771536e+00 -9.4002213551876290e-01 -7.0611736260462177e-01 2.7728920726693593e+02 -1.4468212585252289e+00 -5.1000435246983775e+00 -7.2772033866002612e+00 -5.4362854981565221e+00 3.6366555645591009e-01 -2.1061482589648122e+01 -8.3727046976507324e-01 -4.0830844118326143e-01 -2.7444597715017114e+00 -1.4971867488680435e-01 -1.3184346242090639e-02 -3.8877671988978757e-01 1.3829205836933289e-01 -1.5885034727383301e-01 1.3005795550858099e-01 2.0481593603201503e-01 1.6817162637947447e-01 -3.3502666068152983e+01 8.7021715855964216e-02 -6.6284884935231825e-02 -1.9037183121583112e+00 -3.9464490368096594e-01 1.0073484637539601e-01 -6.9376613645439789e+01 1.0619806856001002e-02 2.3049236029484679e-02 1.1041074520249005e+01 -5.1509536727326555e-02 4.6510332729055803e-02 4.1563610338203671e-01 -5.8453926213257665e-02 -2.4719373164139960e-01 -2.7570637689132627e-01 2.7379164444970300e-01 -8.0017712876297706e-02 -2.2802661769538425e+01 -1.4191867033151145e-01 5.2300162598382183e-01 1.3956407192682327e+00 -1.0836927459932870e+00 -4.7426199362353844e-03 2.8753593742998726e+02 9.1032015959407450e-02 -5.0481141586253275e-04 -3.0062075514008825e+01 -8.8486969897035000e-02 -2.6968089137741152e-02 -1.1416963182935187e-01 4.0588289530594443e-02 -8.0163670234985496e-02 6.0826934543226630e-02 -8.7810857169121503e-01 -1.5217628567166830e-01 -8.1543426973079942e+00 -7.8140370076848834e-02 2.5073325057083998e-02 -3.4749678582834971e+00 1.2755041809586684e-03 2.1167146663129470e+00 -3.6298090210299137e+00 4.1685844791521740e+00 6.1567559301945540e-01 2.4233643097908378e-01 1.3293858481617686e+00 -3.7550979860053280e-01 1.1164177392242198e+00 6.1948753266165724e-01 -9.5915129758641626e-01 -4.1591060921931033e-01 -2.0371000440485449e+00 -8.2729183792737615e-01 1.2074046164228216e+02 -2.1078080536575357e+00 -4.1496416884298242e+00 -4.1122576032284242e+00 -5.7108492468805183e-01 -9.3503539422885424e+00 9.9567073964124887e+01 -4.0837939550427471e+00 -3.5513387915949615e+00 9.0819934924652173e+01 -1.6783341112254901e+00 7.5204106569490792e-01 3.4041062283319699e+00 -2.2270404290832380e+00 -6.1129662403130229e+00 -1.2325375003695616e+00 -8.7999485450206549e+00 2.0724060177878325e+00 -8.6010987911280310e+00 6.8844102652131145e-02 -4.1040646713519990e+00 -2.3198202949864114e+02 7.2976520115496886e+00 7.2576097584308357e+01 
      </Row>
      <Row Index="75">
        1.3673826632671284e+00 2.8666645984582285e+01 -1.7424656653977415e+00 -5.3897277908845442e+00 1.8307496719393082e+01 -6.7558438783097541e-01 9.5290328879836128e-01 -2.4526439267385363e+00 -8.3666848253050163e-01 9.2469222065948675e-01 6.1359679021639124e-01 -1.5913409355362251e-01 -1.2411963967753376e-01 9.4758863058238916e+00 -4.0903387003218572e-01 2.9828826424049737e-01 -2.1151922088023028e+01 1.1066092718309974e+00 -2.1633661591993278e+00 2.5722570847880846e+01 -1.2389037666879874e+00 -4.2624985032883460e+00 4.6743387134075917e+01 3.6059504716124624e-02 4.4314274994672775e-02 -8.0508789251746204e-01 -7.6560670442271861e-01 -1.7774701992786301e+00 4.7282520321360411e-01 -4.3672894506477355e-01 -2.0347181475613424e-01 -7.3269329181476465e+01 -9.0107428744052376e-01 -4.0289276196313306e-01 -9.7833236825082643e+00 2.9619467608748318e-01 8.0939909323466397e-03 2.4852684198707777e+00 2.6968657291431075e-01 -1.1623799702318216e-01 7.4016580178433040e+00 1.5836213980797709e-02 -1.2951789578446338e-02 1.9646502186397186e-02 -1.5247918650474457e-01 6.1750494759722052e-02 -1.4106425520228782e-01 2.8845465106101642e-01 -5.5211645777801133e-02 8.6993237901988394e+00 3.3403651162072889e-02 4.6328070174705971e-02 -2.3343094187670319e+00 -2.0027253517655375e-01 8.3941847730081065e-02 2.5238596800604529e+02 -1.2697283326384756e-01 1.4365663516462881e+00 -7.4467989648302364e+00 -1.4546654969626616e-01 4.3740280420504263e-02 -5.8917975288168734e-01 1.8575761310749606e-01 9.5148316905670072e-01 2.1816670098999680e-02 -1.1496219388659412e-01 2.2750193087262005e-04 7.6956990913570849e+00 1.2810419836306819e-01 1.7682370253484692e-01 4.2507188271804281e+00 4.0588444863908890e-02 1.6025630095394623e+00 -2.5201682886868957e+02 5.3379219235151618e+00 1.1803481218915843e+01 -7.5137239140118517e-01 1.3569525625456247e+00 -2.7849244097788639e+00 3.7019548295407185e+00 2.9829294892252034e+00 1.2384735446880115e+00 2.9899177806726782e+00 -2.9450900228478782e-01 -1.6931971073546315e-01 9.2008091043937469e+01 4.0994069559393886e-01 -1.7291211374267375e+00 2.6194114731395388e+01 -1.6246355239733274e+00 -4.9064971128942148e-01 2.4235541912440127e+01 -6.7918207130630703e-01 -6.4252192250001627e-01 -6.3257886570963429e+00 -2.1344335724077235e-03 1.0282394866169398e-01 1.1345165838012594e-01 -7.0477335884315151e-02 -7.2592352991151188e-02 1.2553808942850964e-01 2.8297097632177337e-01 -1.6115499308643244e-01 2.2098611803640278e+00 6.7679351117041264e-02 1.1221714999900101e-02 1.7798034168696741e-01 6.0587601784767742e-02 -6.1100443888420841e-02 -9.8886748437907272e+01 1.1697932397128952e-01 -5.7138648015172322e-02 1.4980164761684023e+01 -5.1290220846802015e-02 7.9172457098458437e-02 -6.4589155292036082e-01 -3.2612622146336889e-01 -7.3694174011323010e-01 -4.2954022774779332e-03 -3.3194048096499529e-01 -6.1940951824329460e-02 1.3178154296661384e+01 1.5487057387067793e-01 1.5719326212966678e-01 -2.2661914453989098e+00 1.5674388045322729e-01 -4.8888242238992596e-01 -9.8522251701031934e+01 6.3882085342737760e-02 2.5644001741625999e-01 -1.0334798111126936e+01 -1.7417778461304678e-01 2.7359193967768647e-02 -1.4976952080259309e-01 -7.2704510838549119e-02 -1.3508618399781369e-01 3.1615570286547268e-03 4.9295078541236137e-01 1.7244895313869435e-01 3.9439961982885166e+00 -4.0267126472277592e-02 1.1895957664947687e-01 -1.7090516523307908e+00 -2.5905152172160939e-02 1.0271412374534163e+00 -4.0004625611562005e+01 1.8720784734583691e+00 1.5451227112355519e+00 6.1865255856961909e+01 6.3551842705722628e-01 -1.6194022846166358e+00 3.5581885021335768e-01 1.3127089224998525e+00 7.5148511682582519e-01 3.6804991313412865e+00 -7.2403032200381112e-01 -5.0336805424254139e-01 1.9231475580447029e+01 -8.1622281375880212e-01 -1.6185202429671084e+00 -2.7817591453448927e+00 -3.0530345603876397e-01 5.5024798029512549e+00 -4.8324722848685724e+00 7.6249123331172513e+00 2.7048392913478807e+00 -1.7990036676496553e+02 -2.0059438326694305e+00 -2.2770424079992573e+00 -8.7869929421898672e+00 2.5091367949243670e+00 -1.8429948312954750e+01 -2.1029602691584879e+00 9.1295525446737607e+00 -1.9574046487675787e+00 8.3543856826076038e+01 3.5317927354882670e+00 -1.2904919337747884e+00 -4.5407390373931911e+01 -8.4412649028242748e-01 1.7858682508505777e+02 
      </Row>
      <Row Index="76">
        -4.7664926719830774e+01 5.5067681457070839e+03 3.5756102225958315e+01 -1.3939090870528048e+00 -1.1090745133369132e+03 1.0922961746844813e+00 1.9160195377747868e+01 -7.6382540547787556e+00 1.8692523074795474e+01 -1.8698963356153087e-01 9.6460474004456955e+00 1.3335134929889338e+02 3.4632179968761847e+01 2.5223568599209834e+03 -2.4396356670807460e+01 -3.5321326377422793e+00 1.0018717833911364e+02 -6.8282180275115508e+01 1.8971537976291380e+01 5.4425207969864641e+03 -6.0102359723341863e+00 1.4200902877480006e+01 7.4269032034471911e+02 -4.4947040115123249e+00 5.9534247695655580e+00 2.7020530032342705e+01 -1.8753050828272805e+01 1.1803571982008407e+01 9.2979265217358424e+00 3.9495558684968728e+01 1.4329300743599655e+01 3.2820959202670656e+03 -2.6121962389472614e+01 -3.0892459671009824e+01 6.3952635422402608e+01 5.0474837495315668e+01 6.9870117449075657e+00 5.6027876887957964e+03 -5.1059187996320148e+00 -2.7728562803801537e+00 7.2085311040275587e+02 -2.5438337930499983e+00 1.9085734948123445e+00 -5.4756606888264230e+00 2.0298328014289240e+00 7.3668488809629196e-01 5.4156297553487889e+00 -4.1389659402628922e+00 -1.9553059901617331e-01 -4.6937596908590353e+02 -2.0642629505761789e+00 -3.4938847725554183e+00 3.9338660778865219e+01 -6.1164477291169419e+00 7.6070323038184142e+00 5.5356040419064902e+03 2.2286899358200003e+00 -1.0590947604984876e+01 -8.6546321948503703e+01 6.1231696808380320e-01 -7.2696443259144985e+00 6.1961504717237403e-01 7.7050487314056966e+00 -1.1250064377101069e+01 2.3035247098810032e+00 2.4215464311559344e+01 -6.7198577124795520e+00 -5.9393056102273567e+02 1.5955914492459291e+00 7.0004367529625142e+00 -8.2944793704725930e+02 2.3942816251777543e+00 -4.6070728223529024e+01 -1.2321150209476773e+04 -6.5971785647248510e+01 -7.5137243444109458e-01 7.5484362071056694e+03 1.2910237798521436e+01 2.2893292251215566e+01 -5.3012818070669788e+01 -3.6959724232465895e+01 4.5151946407036165e+00 -9.8790959646117543e+01 -1.8267623794888033e+02 -5.7132075629866549e+01 -8.4528134472675356e+03 7.7064810221845164e+01 4.1644422499413977e+01 -6.4697624726294271e+02 6.2205667182888050e+01 -9.7192016635337950e+00 4.0653166509426965e+03 -4.7226380763701883e+00 4.3140331671364152e+00 -3.4420532475793846e+02 -3.1961417473636118e+00 -3.3438318350304144e+00 2.1321036805722806e+00 7.4326215393804498e+00 -4.6663186566645436e+00 -2.5260455755991416e+00 1.2550408766642889e+01 -9.8609734869221199e-01 1.0364515500737177e+01 3.5847154707479945e-01 9.2779101437963618e-01 4.6753911620054726e+02 3.6662318174695656e+00 1.0972519646916226e+00 -3.8285244391295892e+03 6.0937530998113516e+00 -4.2231569123725876e+00 3.8000899967780242e+01 1.9840836646251319e+00 -9.4710160681664775e+00 -4.2504635661898647e+00 -3.6117737830419401e+00 8.3438244299183566e+00 6.4215616177398260e+00 -1.0801039263833445e-01 1.9520636725134182e+00 1.3091651790550459e+03 -1.1701527594379684e+00 1.1809567671492687e+00 -3.1000147713991419e+02 2.1540071898067254e+01 6.1212974568599634e+00 -1.8639090855605889e+04 -2.2753051079294835e+00 -5.2868725797918614e-01 1.2551628963787552e+03 -3.6446750053388541e+00 -1.3724499229296043e+00 1.3082583181878817e+00 2.6540439586348370e+00 7.7294591906565984e+00 2.0064131884606695e+00 -7.1496872789159625e+00 1.3330316021195131e+01 2.0895068444634808e+03 -1.0491360198747941e+00 1.4892573545279220e-01 5.1982680068133413e+02 1.9940609357244057e+00 -6.8038123772806614e+01 2.7188800076953271e+02 -3.4513420213464883e+01 1.2395096573145985e+01 1.2757306861676584e+03 8.1210499906304534e+00 4.4136208189149443e+01 -2.9387723584735994e+01 -3.2734725436341890e+01 1.1185891048993795e+01 -6.7327983613530847e+01 6.2785257802985015e+00 -6.2710727846790100e+00 -2.2742574955006048e+03 2.1055779943078488e+01 3.9443888310601096e+00 -2.0802860668480787e+02 2.2226662312887683e+01 5.9292338604619999e+01 2.7460352053886791e+03 -9.4699874064574942e+01 2.0570442703457957e+01 -2.5366282042451734e+04 -1.1545292352001525e+01 1.1845913660870156e+02 3.8369946750002413e+00 -1.2835687761062167e+02 1.6892639458978300e+02 8.9845307671531600e+01 -3.0434304788950612e+01 -2.1343672545540539e+02 1.3440493367446959e+04 -2.5870092268214648e+00 1.8739421684922718e+01 2.0746623313957909e+04 -1.5172388665962092e+02 1.7617553442921319e+03 
      </Row>
      <Row Index="77">
        -2.0682204666636395e+00 -9.0249012282891101e+00 -5.9871002492912018e-01 -6.5769109057629271e-01 -1.6040101542420253e+01 -1.8359667766771661e+00 -2.7518820572970104e-01 1.0529860132407447e+00 3.9890036220590186e-01 -3.9209344656696149e-01 2.2686793058045596e+00 1.1218990741364110e+00 -3.1259104935849358e-01 5.0085796744384254e+01 -7.2571217007315492e-01 -3.8505150139631961e-01 -1.5324679021199987e+00 1.3438107052045234e-01 1.2698763681528211e+00 -3.9695432090587332e+01 -8.5231556292863542e-01 -5.2074692122588173e-01 1.1035314923861691e+01 -3.6310496573359652e+00 -5.1808780515056729e-01 2.9154724004601118e-01 1.1401924963979539e-01 -4.3314563973021514e-01 -5.0327601754403384e-01 -1.1489230390616472e+00 3.8520181424764610e-01 8.6988864929137719e+00 -1.1581672895527464e+00 -6.9949877505861568e-03 -1.2751235416606850e+01 1.0448119179345952e+00 1.9204188418162826e-01 -2.6576547797415586e+01 -1.7483108820030402e-02 2.4451266643393699e-02 5.3396140095247402e-01 -1.8457871486091593e-01 5.0431000511370783e-02 1.4152086395665764e-01 8.5096489107838180e-02 1.7773011251083848e-01 -2.2972760796360947e-01 -1.2306001063253902e-01 9.0440465649435031e-02 5.4729464684730305e+00 -1.9659411103613571e-02 4.0942440223504795e-02 1.5838261317025972e+00 2.0920828036386263e-01 1.4682329756642876e-01 1.8606001129463783e+02 1.3502050721243286e-01 1.4528628196192295e-01 -1.7009912192463705e+01 7.8290574680329517e-01 -8.0648376373044117e-02 -1.0811262230471153e-01 8.6697519568517567e-02 2.5848078351601900e-01 1.8849678950239479e-02 8.1706495227265519e-01 5.8294079227756024e-01 1.4450891821453212e+01 2.0473579954441443e-01 -9.6552171689534561e-03 5.2211853750462218e+00 -2.0356848303706432e-01 2.0105487067054306e+00 -1.3554396472924907e+01 2.3540657581362456e+00 1.3569525635027944e+00 1.2910237808743560e+01 6.4895657953147756e+00 9.1391929045648945e-01 -1.1510230643493173e+00 -3.6160435610663511e-01 5.1578819106915119e-01 -2.2963404011877184e+00 4.2923511600798891e-01 3.7517477074321048e-01 -1.6943857914470826e+00 1.9476044391034013e+00 -9.6620541601469578e-01 1.2755114223159621e+01 -1.5255078583779860e+00 6.5280712947200659e-01 -1.5045912074106758e+02 -2.1220228848970213e-01 -2.4639417416985143e-01 5.6455469483325018e+00 -1.0138104395484823e-01 2.2538784534724243e-02 -1.4427058360679584e-01 1.4124051184515510e-01 2.2524644672783722e-01 -2.7019091652486793e-01 1.9162728524208283e-01 3.6859450570873842e-01 -8.2222493284443665e+00 2.6852936740061017e-01 7.0609737158069841e-02 3.0137008431403101e+00 -3.6439840925619471e-02 1.7959796236794379e-01 3.0268999351035802e+01 -1.5775481689694892e-03 4.2744507582454183e-02 2.6199915459018825e+00 8.6138256936090229e-03 -1.0544557756772654e-01 1.4831678342818488e-01 6.6391613313419029e-03 -1.1865625141996439e-01 5.7269669067885332e-02 1.0115223424416619e-01 -7.4107260767068972e-02 -5.6744095965393484e+00 1.9322879832857942e-01 -1.6933974407755148e-01 2.8243273516993384e-01 -2.6434377683611210e-01 1.9302956230214119e-01 9.3908004820124305e+00 1.7996732317582131e-01 2.7161366609646187e-02 -1.0827267146633801e-01 7.1314731928254527e-01 -1.5527671931892861e-01 -7.3656598364480796e-02 -8.5194142942282669e-02 -4.9927354277697233e-02 2.1479098468290303e-01 3.9900231002505837e-01 -4.5370740212427929e-01 3.3910268965047585e+00 -2.8619797436110483e-02 -1.2156822265694989e-01 4.0270281789481235e+00 1.1620821485674959e-01 1.1811093864074302e+00 -1.5484985676481386e+00 6.2548950457700991e-01 7.0101228985812503e-02 6.4573059445056709e+00 5.9119952569964118e-01 9.7934999794045186e-02 1.6974422783703602e-01 1.5244587523157316e-01 -2.2763205025700373e-01 -4.2747842869309705e-01 1.6188962897034109e-01 3.6637469906786935e-01 4.2194121728164909e+01 4.2260162696485581e-02 -1.2659022841345013e+00 -4.4197711728096778e-01 2.9520545691519295e-02 -1.3242612461468077e+01 1.0084967914658511e+01 9.2396721260837911e-01 -2.0010355726586582e-01 2.2134919678621273e+01 9.8591684159167663e+00 3.3382798050668203e+00 8.4718290377688610e-01 -4.6376012660381285e+00 -1.4351346338855955e+00 3.1012897701300188e+00 -7.6420662652078875e-01 9.8042045004720322e+00 9.3063034647052632e+01 8.6168009524849865e+00 7.6358343001912488e-01 2.6689214489096017e+01 2.1707380614140295e+00 3.8648224489325955e+01 
      </Row>
      <Row Index="78">
        3.4609552333274463e-01 1.2802941174005917e+02 1.0302451872903431e+00 9.7671335756764854e-01 6.8017318764016395e+00 4.7445329033438691e-02 -2.9570994462821973e+00 3.3277742741114915e+00 -1.3144626369138575e+00 -1.1911541127381229e+00 2.9125884153273525e+00 1.5198515238910306e+00 -6.5401430551665896e-01 -3.4928068293734000e+00 1.9435541637792797e+00 1.6576193791241209e+00 1.5941799256568547e+00 -2.9099798872770837e+00 1.0976429390960227e+00 -4.3762312083695377e+01 6.8954645116055646e-01 8.3467088784774157e-01 -1.9652852286575758e+01 -7.9160377665008841e-01 -4.5850359579340410e+00 -2.0427863359947163e-01 6.1318926613512492e-01 -3.1208933196543587e-01 2.0701264522176532e+00 2.2654291259336188e+00 7.5057143330538201e-01 9.2573802958906498e+01 1.1765230047628459e+00 2.5743056802100250e-01 1.2543385866919527e+01 -1.5169715453536203e+00 2.7863781116118691e-01 3.5733747575306950e+01 4.9783579503898612e-02 3.1066950473996435e-02 1.1775516858319683e+00 -1.2075946298889262e-01 1.6468471373061910e-01 -2.2514659226688538e-01 -6.9889584874925470e-02 -1.7315307696588533e-01 2.1486475759497869e-01 2.2528182004925235e-02 1.1721223091963934e-01 -3.3797182951696154e+00 6.0483805946384347e-02 -3.0860226927149625e-02 -7.6747728264859560e-01 3.0526979085335038e-01 -2.2337502532307063e-01 -1.1301889617114169e+02 -4.4691761330269530e-01 -6.7724466460052035e-02 2.9624356258265117e+01 1.3774388996432663e-01 -2.3338085829101107e-01 3.3082191906078862e-02 -2.6296900457602934e-01 4.6014999459133676e-02 -1.0694331470005736e-01 -3.2336819397159022e-01 8.2263353785165805e-03 -4.9218186889362578e+01 -4.1909713660560449e-01 -1.4756747496642220e-01 2.6727364050807321e+00 -4.6579161990179863e-02 -1.4395694706349862e+00 -1.0184982950173975e+02 -3.3031732316831199e+00 -2.7849244105509046e+00 2.2893292238963159e+01 9.1391929017778772e-01 1.0201729012415248e+01 -1.2467735561780575e+00 -5.8959589153043523e-01 1.5007920469243687e+00 -8.9493933323118338e+00 -1.3660611422850717e+00 -2.0903186158212517e-01 -5.8989192428496700e+01 -5.5359156663541809e-01 -7.0053779843537978e-01 -2.3931709957817851e+01 3.2535732044921195e+00 -8.8872309571190300e-02 -1.0573567982637340e+02 -9.9642432874183173e-02 1.7199039232432201e-01 -6.9142204109673919e+00 5.1573602253327827e-02 -2.9762465090398393e-01 3.2939280528645853e-01 -2.1489291040448733e-01 -2.0981583420008576e-01 -4.0417830313256964e-01 -3.5551340936198494e-01 2.0426619088535825e-02 9.5560910909929166e+00 8.2364756366518632e-02 1.4604972517544423e-01 4.5052347918853952e-01 -4.5914341093597777e-01 1.9559282321461691e-01 -6.7115696235251107e+01 -2.4857133497308448e-01 7.0168885646204160e-02 1.8437667894501786e+00 6.4125241821670897e-03 -9.0803024838924706e-01 -2.3114185074651949e-01 -4.3061231841674541e-02 2.1550639772791702e-01 4.5202664159769057e-01 -3.4709365379946355e-01 1.5850998654824089e-02 1.4303965690521281e+01 -3.2995111366119456e-01 3.8158848829262304e-01 2.1712683415597489e-01 -7.7921016128777865e-01 2.1162466514569767e-01 -1.6472469567300868e+02 -1.3649224675434790e-01 7.3738815750121312e-02 -4.6551668407872171e+00 -3.5312460796236955e-02 -3.0661038546094588e-01 9.5246729859416845e-02 -3.0921391901233108e-02 3.2136677807763192e-01 1.8912528262172312e-01 3.6254976213319523e-01 8.2498239297575715e-02 5.4285751919898431e+00 -6.0684175313856614e-02 -1.1016682940947664e-01 -5.7697900028885947e+00 1.5736556300665105e-01 2.6718864495908201e-01 -4.3946764307124511e+00 -1.2667402175343687e+00 -8.4035343027877152e-01 1.4505983928716372e+01 6.4148234379092006e-02 2.1630317916585398e+00 2.0507273187271968e+00 -1.3558683631427828e+00 -1.9883247387580694e-01 -3.0285742614827842e+00 2.3877732238962763e+00 -8.9072105617751918e-02 1.6808301328075082e+01 2.4814449967862906e+00 1.2284021103610554e+00 -4.7764080626879171e+00 -8.0056358467586897e-01 -2.9719562947944524e+00 -7.7274173207795087e+00 -9.3983465701925439e-01 2.0961734952599897e-01 9.3380303914225706e+00 -2.6123721840839664e-02 1.5314354009788424e+01 -1.5716709311478567e+00 7.2784084826113666e+00 -5.5398783515161032e-01 1.0058091481856110e+01 5.2530526231502108e+00 -1.2969726420539445e+00 6.6471712111799199e+00 -2.3374557479537827e+00 -3.3786579113911550e+00 -1.3797701633310285e+02 5.5796057625049755e+00 5.1178524563594912e+01 
      </Row>
      <Row Index="79">
        1.7641072932461594e+00 2.5813793526328419e+02 -8.4370402975702286e-01 -1.8870038583691378e+00 7.5152709079758836e+01 8.3897912058635649e-01 3.3775471272930524e-01 -9.5299709498006759e+00 4.8413603514062853e-01 -6.6606944409677471e-01 -3.4030907316228962e+00 -1.5523394688773973e+00 -6.8182270028684222e-01 -1.5544339623482173e+02 -1.2334352658074059e+00 5.7174975221784052e-01 -1.6102114906471229e+01 2.0531218880493300e+00 -3.1596757472174151e+00 -3.5558093506682326e+01 -1.2157007050680164e+00 -2.2836616123947189e+00 8.7953331366470707e+01 6.2414815228273768e-01 2.3341770652851324e-01 -9.3529119745603424e+00 -1.4374985105646709e+00 -4.5376869792671426e-01 8.8067319765473440e-02 -3.0387952121532260e+00 -9.0798697371497838e-01 -1.0437295324571375e+02 2.8477404681339480e-01 -1.4204153627286065e-01 -1.9427646809545521e+01 2.3762341048117519e+00 -1.8855054452257125e-01 5.5440853884983724e+01 1.4042448553698472e-01 1.0584016104699323e+00 5.1341406017599915e+00 -2.9460788004847416e-02 -5.5254763146564301e-02 4.9688271118950311e-01 2.4993028076712775e-02 -1.9910421784412513e-01 -1.1677104329218047e-01 9.1854696035516881e-01 1.4250322613437127e-01 4.5283104479675842e+00 8.8540463503620159e-02 7.0132812808694212e-02 1.1504059337777761e-01 1.7069334299152672e-01 -1.0185196270757046e-01 2.3055437079742251e+02 -5.2519251237809428e-01 -7.1941958614528190e-01 1.0461742352052445e+01 -2.2226976598903292e-01 -3.9848328668647071e-02 3.0634956450305992e+00 5.1906754540180700e-01 1.3190882354642355e+00 2.6695372191397837e-01 -1.9197354252749221e-01 2.5303858613349206e-01 2.2805026214026782e+01 -6.3352264778502421e-02 -4.8389885580533587e-02 8.3372365528195616e+00 -8.1918459739360561e-01 -1.2008381790689417e+00 -6.4476295976363417e+01 3.4734900358307108e+00 3.7019548290107789e+00 -5.3012818013906880e+01 -1.1510230655508975e+00 -1.2467735557695012e+00 2.6948810567031849e+01 8.6835870965794149e-02 -6.6412918790959985e-01 3.5575913195059488e+00 5.5270206170266545e-01 5.1068976291831802e-01 2.3185139051431804e+02 4.9268321490197853e-01 -1.7552462030348597e+00 -3.1613504098257650e+00 -3.9527494156936225e+00 -1.2237458610801326e+00 1.7342241265012612e+02 1.9693125819974533e-01 -6.3258656038322769e-01 -1.9947823990177611e+01 -3.7806982565997571e-02 3.2695177815145371e-01 -2.6297420721076863e+00 -1.9585649345967290e-01 2.5217533646753054e-03 2.9319893752661841e-01 1.0740089565013733e-01 -6.1704204638856730e-02 2.3811874467873935e+00 5.8363291985445542e-02 -6.0048410625551440e-02 -4.8371717391835745e-01 -7.6571547700467590e-02 -4.0503917179965043e-01 7.9403073154243884e+01 -3.8820157189104521e-01 -1.0138009726449582e-01 1.8092813326475472e+00 -9.5198460082812630e-02 -4.6173711122882821e-02 2.1424571300003379e+00 -1.6112079841622773e-01 -1.8929254504022275e-01 -2.6376568477331830e-01 -8.3529159972718503e-01 1.6421168039122591e-01 2.2650427069987700e+00 2.1996997818641972e-01 9.5745207339639649e-02 7.0683761527047224e+00 -1.6733595749621344e-01 -3.9430692658995525e-01 -2.3879760709227401e+02 -1.3795612500798704e-01 -7.0291297143497289e-01 -1.0256791860675175e+01 6.1791552349557577e-02 -1.4753415546444870e-01 2.0533663789441192e-01 -3.6779348738125606e-02 7.6673139706002758e-03 3.0933389250022003e-01 1.7090349812741437e+00 -2.1502113147789714e-02 9.1388526818689115e+00 -6.9960331444244517e-02 9.0949298642826193e-03 -9.7877352032300351e+00 -3.3233401388323003e-01 -2.0184313476797264e+00 -1.8701639711835355e+01 1.7796842672312243e+00 -7.7137030787181160e-01 8.5391000288259491e+01 2.9790627175564133e-01 -6.0606348553894973e-01 5.5189712598556557e+00 -8.3953694892110864e-01 -1.3933176223264798e+00 -3.9250771723242783e-01 -3.5687249214695740e+00 -9.7666076157384429e-01 -3.4715672237164426e+01 -5.3822413724997120e-01 -1.0881641343193040e+00 -2.5571330174915232e+01 6.4559493374593913e-01 1.5975793598735905e+01 6.1210095280768300e+01 -5.0239350113085592e+00 -2.6600380020760571e+01 -1.3479812705120423e+02 -5.2643867784939857e-01 -3.5271059569955021e+00 2.5783993509681231e+01 -6.9111376067470216e+00 -1.4646289742001006e+01 -3.7514396894087838e+00 2.6833498910532779e+01 -1.2873368908973362e+00 1.6493380168621650e+02 4.4644506806696711e+00 -2.2961061880641438e+00 -1.5554470116733845e+02 3.1964053699954817e+00 1.7947236455741930e+02 
      </Row>
      <Row Index="80">
        2.6600780712208834e+00 2.8812875835343527e+02 3.7320963508466187e-01 -2.0625941556669662e+00 6.5219702741108421e-01 1.1183693068302636e+00 -1.4933462622900955e+00 -2.2267762162994598e+00 -8.0085637000361238e+00 3.1321962400382835e+00 -5.0841862813172156e-02 -3.8660850023458160e-01 -1.6923536010456761e+00 -6.6333883052053082e+00 5.3229637598792046e-01 -7.7721088580644582e-01 -1.4563882581487006e+01 -2.8165411827998121e-01 1.2025242383587844e+00 -1.7475743523686731e+02 -3.4561864723518809e-01 -5.5391924780850710e-01 8.7070596947602183e+00 -9.9220576417276773e-02 1.6584217668297327e+00 -1.4947614190271408e-01 -1.3577134309990437e+00 2.0193424703138252e-01 -1.1943431077814082e+00 -1.1402877498511548e+00 1.2315966165022016e-01 1.9886598111373495e+01 1.0357241240413906e-01 -1.2471271697714625e+00 3.6260833350612431e+00 -1.2066546906707449e+00 1.5096562002458436e-01 -4.1842424830598048e+01 -4.1254860031176788e-02 1.9146010464475183e-01 1.0820703337430126e+00 3.7745241994837198e-02 -1.3937871745668351e-02 2.3836494352197923e-01 -5.9484177218647660e-01 -5.4612559590297938e-01 -2.4418249015278071e-01 -8.9481043804175098e-02 -4.0119979487685087e-02 -5.7770536046299821e+00 1.6057168180140462e-02 -1.0768694087770081e-01 -6.9125746176605807e-01 1.1753771006106639e-04 -3.6335599357020154e-01 6.7450594620568523e+01 -6.2607307372924392e-01 1.9479093582648321e-02 -9.1482583444517847e+00 1.4462838264341471e-02 -4.4514100341740859e-02 1.8904701773400756e-01 -1.1350393461451751e+00 5.3480975039061018e-01 1.2203782815195119e-01 -1.1517853540718104e-02 -5.8528758658609625e-02 -5.3157826019603291e+01 9.2434720152765881e-02 1.9802796855537208e-01 -4.4212173227335150e-01 1.7471641209314637e-01 2.6812095803686011e+00 -9.2434939289533986e+01 3.8764726282000961e+00 2.9829294877520209e+00 -3.6959724039040310e+01 -3.6160435666639090e-01 -5.8959589033050497e-01 8.6835867551664947e-02 1.1546066919892437e+01 -1.3113556285945325e+00 3.5416109723098304e+00 3.1043965983991053e+00 1.9484296714284652e+00 1.2188046707771105e+02 -1.3073240822536625e+00 1.8230354330141902e+00 1.5835601470505306e+01 -8.9025021664867321e-01 3.0123160871860044e-01 -6.7098511560700445e+01 -7.6543652688308961e-01 -1.6520738163392856e-01 1.0263868386534732e+01 1.4979835066236805e-02 9.2956603086946643e-04 -5.7341171235703037e-02 -8.5978670447363670e-01 -2.0162762112896360e-03 3.9037900051997276e-01 -7.1806729224676236e-02 -7.6797899818800586e-02 -9.1178361907470027e+00 -8.7990126856966056e-03 -4.4296065082074509e-02 -4.2106863222391837e+00 -1.0087214449755422e-01 -2.1917059432529484e-01 -1.3759575568826105e+02 -8.8617068986889480e-02 1.4035783899327914e-02 8.6209552316589431e+00 -6.6895247006216074e-02 2.3684008430898995e-01 2.0460217322035223e-01 3.5094776169772990e-01 -6.0363883905392912e-01 -1.5790831956335083e-01 6.3797259663465056e-02 8.1593490190812190e-04 1.2767760108585954e+01 1.0125710678125399e-01 3.5841262955468256e-01 -1.3061827237453627e+00 -9.8329144026889637e-03 6.1078670431320203e-02 1.4177736616025521e+02 1.9041507991190665e-01 -3.1239330757879991e-02 -1.4376503791140529e+01 -1.3804468470298792e-01 1.3580572353627129e-01 -7.7564999511166022e-02 -4.4643672964819614e-01 5.2055639512307295e-02 -1.4549889864127241e-01 -1.4984471606989258e-01 2.5946070771308616e-02 -2.4364738721574774e+01 -5.6787430397532868e-02 -3.0297434784480215e-02 4.4247224176421227e+00 2.9303687287884683e-02 6.0495087072227607e+00 -1.6228089454545028e+01 3.7168545687012200e+00 2.1267784173642579e-01 7.0713104865807050e+00 7.1391804437452855e-01 -4.9216035048136636e-01 -2.3107065405493881e+00 1.4023682474235399e+00 2.0769259741708272e+00 1.8720088713536889e+00 1.5435628831692627e+00 1.6662692939600943e-01 1.4082968244420775e+02 -5.6345464982037929e-01 -2.7282936745007813e-01 3.8951458277724695e+00 -2.2435680800444682e+00 -6.2888444447487650e+00 -2.0551028287999898e+01 9.0057123525915124e+00 -2.5938537474137995e+00 -1.7376079126677965e+02 -1.4490528441792954e+00 -5.4184501989907403e+00 2.0279579522901194e+00 3.9689811414305439e+01 -1.6534925457605766e+01 -5.2902853030948247e+00 1.0121996668850386e+00 2.4974293696268290e-01 -8.9085078767724269e+01 -1.3820401770541579e-01 -1.7201195307551380e+00 2.2528756524386985e+01 4.8568924367771160e-02 7.7901479832002522e+01 
      </Row>
      <Row Index="81">
        2.7245325458960696e+00 -1.6662288270331089e+00 7.5834361958922181e-01 -7.2362125770550900e-01 -1.3732060310861760e+01 -6.7641331780846836e-01 -2.1367727682493460e+00 1.5968075716757084e+00 -1.0193215870765875e+00 -5.9756863983027042e+00 1.8339946499999644e+00 -2.3003397107061900e+00 -4.2911924952227309e-01 2.4264983184206791e+01 2.0830176899322659e+00 1.1644553104976048e+00 -1.7659790407494103e+01 -6.9018225423752633e-01 -2.7567884022148786e-01 -1.4420557297947789e+02 1.1965899564434994e+00 -7.2246743428393567e-01 2.9511119834636126e+01 -7.5551162947501183e-01 -2.8115499658508414e-01 1.4643011784350097e+00 2.7473160613552916e-01 -7.7614875377091650e+00 -9.2583448701414128e-01 -3.0456164071060905e+00 9.4041635680390201e-01 -6.0475096111463273e+01 1.0260803654534008e+00 -6.1400205048672496e-01 5.9935718361761099e+00 1.5267929296988703e+00 6.2179056479535810e-02 4.1784585184206918e+01 4.7145519457828922e-01 4.6072609567371403e-01 -5.4040947046101149e+00 -5.5835915354423449e-02 -2.0800657944798351e-02 7.7974330767676570e-02 -1.6534410032640645e-01 -7.3027577314522851e-01 2.7583413950268731e-01 -3.3103645417154226e-01 -4.5011135256076584e-02 3.1150241720493955e+01 1.3892970354124234e-02 -9.4385606407314526e-03 3.7265041866917707e+00 -2.8855338536500152e-01 -8.3367500423186414e-02 3.1762440783969663e+02 -7.8484223728628955e-01 6.2750748241926324e-01 -5.7302382969997637e+01 2.0772498732185696e-01 2.1260655932854444e-01 -4.5480264323906638e-01 2.4654568345888439e-01 2.6815390840014448e+00 -8.7129082104290489e-02 1.1099119398672350e+00 3.3170620190563227e-01 -5.1122939187807617e+01 -7.5722727207774221e-01 6.4148243119630877e-01 -4.6251105568737012e+00 -8.9495444726765960e-02 -3.8121324939364420e+00 -9.6816835118336002e+01 -2.0943496913888557e+00 1.2384735448305966e+00 4.5151946087716883e+00 5.1578819092258121e-01 1.5007920469908511e+00 -6.6412918733743531e-01 -1.3113556294991846e+00 1.9528701759605891e+01 -5.5529109188616950e+00 6.9673806473609599e+00 6.4721565293920591e-02 9.0539545799283687e+01 -1.9491017602472662e+00 3.2177108193359456e+00 3.0286375594983909e+01 1.7757061584459439e+00 2.2202612034887892e-01 -1.8629225570183257e+02 -1.8234622239093663e+00 2.4017491021581350e-02 1.1692628091158586e+01 5.6327490349443454e-02 -2.2673274177577696e-01 3.7562162953585698e-01 8.4895366864513822e-02 -4.3429953734621307e-01 -3.8858398390687832e-01 2.6329950663937307e-01 2.6990054895777638e-01 -1.0571643384813829e+01 -8.7331086014406578e-01 2.3515627489034685e-02 8.0521781433648378e+00 1.6076772293754260e-02 8.0734788279607983e-01 -1.0661332927852243e+02 4.9748832382716657e-02 5.1569042793081543e-01 4.7182661662463090e+00 -1.3700193257894000e-01 3.3307249230983871e-01 -1.8077646026464933e-01 -9.1575318046077214e-02 -2.3928834626943312e+00 -1.8699585834696109e-03 4.4589013763953744e-03 -1.4044065493351887e-01 3.5749885033726514e+01 -1.0978989451224561e+00 -4.3508883925742481e-01 -1.1000056016732469e+01 4.9069146169201083e-01 -1.5161964572520592e-01 3.1410282843537897e+02 2.3302189030498122e-01 -2.5057855795274442e-01 5.3771276164923592e+00 -1.0256819579725729e-01 6.7281571222501668e-02 -3.1449394400209840e-01 -1.4914963320937535e-01 1.3069994573512851e+00 1.0078886721925961e-01 -1.0446839288374719e+00 -4.9273155225528953e-01 -2.5421335339326589e+01 -8.7574598024305228e-02 1.3294837774407497e-01 2.1384027143153112e+01 -1.9412194388764625e-01 -1.0098993860488896e+00 -1.1040767076445945e-01 -4.7143947604955194e-01 -2.4062717011402235e-01 -2.9258995472333464e+01 -9.9714739517843021e-01 -8.5319710092206180e-01 2.5343627458253462e+00 -1.8684977380637293e+00 5.4559529054191689e+00 -3.9658869193110413e+00 1.5952397385083246e+00 3.9909444044142983e-01 5.3477503712372062e+01 1.1494702277410440e+00 3.5113869247219345e+00 1.9508802864429661e+01 1.9287180424074926e+00 -5.5042781281256588e+00 -5.5861162829822185e+01 2.7287987127604964e+01 -8.1648117050072990e+00 -1.8589018937810607e+02 5.0366295503474134e-01 -1.6649826643839489e+00 -3.8234874026273147e+00 1.0357847859947292e+01 -4.6851516323047548e+01 5.9338366583616455e+00 -9.7839335484517136e+00 8.5392960900148012e+00 8.2655786256476773e+01 -3.3986621802360041e+01 4.3165548129062543e+00 3.7173974683786889e+02 -5.9257823312391036e+00 -5.4295875138100122e+01 
      </Row>
      <Row Index="82">
        5.6392012660073831e-01 1.2120308980271386e+02 -1.4451036324642943e+00 -1.0471813309544231e-01 5.6913695562563539e+01 6.4604341974213941e-01 3.7688529364485150e+00 -2.7997932297090249e+00 8.9788985504165986e-01 3.4872571766597078e+00 -8.2639480369002705e+00 -5.3467038068326955e+00 4.9076297985483830e-01 -1.1424466620257677e+02 -2.9572954343480529e+00 -3.4020763120895170e+00 -6.3853805182966514e+00 3.5910473864732522e+00 2.6003856843578710e-01 2.9435215788474284e+02 -7.7995523283077350e-01 -1.7038988342684280e+00 5.5028326224621509e+01 1.0851084425948494e+00 1.9604307388656093e+00 -1.2295011731384426e+00 -1.5335082787791723e+00 9.8436313842842349e-01 -5.2276697749642453e+00 -5.0811588041614071e+00 -5.5499977097174158e-01 -1.3256185746208510e+02 -1.4076773204850614e+00 -1.3513106938217929e+00 -1.7012539372303500e+01 1.4040133090985663e-01 -4.4449213276645794e-01 1.3575406740320386e+02 -8.7832257296602601e-02 4.0939722228729547e-02 -3.8779297929648990e+00 1.5831672807657249e-01 4.6380381347220556e-02 1.9751163365078028e-01 7.5896539038939448e-02 1.6203247794247444e-01 -7.7985549566685908e-02 5.9379391994228037e-02 -1.6221084975362143e-01 2.6567618301058289e+00 1.1008942869228711e-02 4.2782365897339858e-02 -2.6526613048101542e+00 -1.5967325545612443e-01 -7.8451058083250480e-01 -1.1414183285155765e+01 9.3984040672216551e-02 2.2640236257327384e-01 1.1414208296033621e+01 -1.6352435679172661e-01 1.7273013384640734e-01 2.7932610910414191e-01 1.9040222752126068e-01 1.6731105558010739e-01 -4.9931068839744341e-01 3.4480888428374090e-01 6.0532121377386616e-02 6.0541062494273021e+01 2.5905140053260112e-01 1.7735554190213687e-01 8.5330671716163753e+00 -2.7363005037785726e-01 -1.3542384187402989e-01 -1.0706576093170389e+02 4.7820064771508068e+00 2.9899177810701123e+00 -9.8790959567957003e+01 -2.2963404016034690e+00 -8.9493933322322370e+00 3.5575913194445805e+00 3.5416109762786263e+00 -5.5529109187725236e+00 2.0890402857121735e+01 2.8275382136625717e+00 5.7751267047082600e-01 2.3459789780781324e+02 1.6379095892105855e+00 3.9307916719145100e+00 1.4388196901657881e+01 -3.2222329144148318e+00 -9.9383987737383706e-01 2.4289712215558899e+02 7.6204509916793972e-01 -2.6977048747071564e-01 -2.8343304249581749e+00 5.0542188611456623e-02 3.1041376784052943e-02 -4.5667122977033792e-01 -7.4072164296701493e-02 8.9833361473910855e-02 9.9645745464549407e-04 1.7870310631352471e-02 -5.5211743145409109e-02 -2.1741187945791417e+01 -1.1932350834530991e-01 -1.7224242372938292e-02 -9.6310258090750409e+00 -2.9776298180071592e-01 -5.8963540960608185e-02 -3.4527475831633524e+01 3.7932394365089461e-01 -1.5513807380408906e-01 4.9723584297559977e+00 -4.3562910176461855e-02 4.9190140395644733e-01 2.5503572150529585e-01 -1.6513234908355212e-01 -3.3219990352081119e-02 -1.1468347615565619e+00 1.8160954560076092e-01 -2.3232210543293164e-02 -5.6253965561915038e+00 3.3315280057351027e-01 -3.2290075143718511e-01 4.8933703866330056e+00 2.1884728689111199e-01 -4.0585847704730682e-01 -2.1472725382707846e+01 -1.2825015812552021e-01 2.4489354214827230e-03 -2.1756871991345392e+01 7.9221995938697276e-02 2.3414629232693684e-01 2.4260606434957310e-02 7.0425942568730360e-02 -5.8072092363135752e-01 -4.5647284525348830e-01 -5.1413186904015085e-01 -4.2249264668832787e-01 4.3415105008113954e+00 -1.7769896486721226e-03 1.9460935383972533e-02 -6.6301004892588491e+00 -6.7271525467936577e-02 1.1799751135280023e-01 -6.3324694796079370e+00 2.5240029603450185e+00 1.0436503040286578e+00 2.1185726959517709e+01 -3.4897742305714452e-01 -2.5699595785636191e+00 -8.7219078643648107e-01 2.8022437234411472e+00 -6.5445156584176845e-01 5.9865402342705902e+00 -7.5061371223314897e+00 3.5177848238137965e-01 -7.7618721801308759e+00 -2.6987003085847614e+00 -9.5312285853677547e-01 -1.1778024028342292e+01 4.8664989464359465e-01 1.5702090714710735e+01 1.0407076559310502e+02 -1.2405785890653476e+01 -2.7875301389563560e+00 -6.8138332556603132e-01 5.2152588126403998e-02 -4.5692542468554613e+00 2.7679883295996461e+00 -1.0924645945645262e+01 1.5877690078823008e+00 -1.0941976708682882e+01 -3.2697575227610542e+00 5.1248487039971735e+00 9.2780415427899783e+00 3.7977615813331624e+00 1.4386695989865927e+00 -2.4084934232987268e+02 -2.1305560926754996e-01 6.8076733667971027e+01 
      </Row>
      <Row Index="83">
        2.8438382044432773e+00 -3.7364762201526872e+02 1.1144558594381873e+00 1.0172044584582274e+00 3.3458649075982372e+01 1.4666533185128885e-01 -1.5394009323660995e+00 -2.4645611118620994e+00 -3.0094498620735237e+00 2.0198021379125368e+00 2.6435186790427068e-01 -2.2687511631771802e+01 -1.1366810753881857e+00 -2.4222183838605844e+01 1.0533652644425977e+00 2.2559213563816400e+00 -7.9175840420640711e+01 2.7112860146819955e+00 9.5393217170502176e-01 -2.2326757733208296e+02 9.7716089558632646e-01 -1.0709171543116609e+00 5.7920174647699127e+00 -1.7539564218502726e+00 -6.4880575971388299e-01 7.6898584020837646e-01 1.5093752026551464e+00 -3.2437607418911556e+00 -3.6074502798041586e-02 -1.5170352988720767e+01 2.4736419261087983e+00 -5.9158653826160915e+01 -1.3065758953831808e-01 1.3808971620974668e+00 -3.2505462694488571e+01 -1.2714097245780107e+00 9.5362199495769562e-01 -6.5601294099546999e+02 4.1942162193046029e-01 3.6940910235550461e-02 2.0734037404848024e+01 1.0050640748919548e-01 1.1593779465736986e-01 3.1723220131755880e-02 -4.4699780476383832e-01 -3.0856633248860810e-01 -4.5565281041039185e-02 6.7752750507908743e-01 2.0040136815139942e-02 1.1934829003853196e+00 -2.0822807515315223e-01 1.1850772516972441e-01 4.7615177285854848e-02 -7.7841698912917323e-01 -3.4572030006324894e-01 -4.1201598961528134e+01 2.0108997381372617e-01 2.4854732381981393e-01 -1.0096836259808735e+02 4.4606093061223362e-01 4.5196962200877877e-01 1.0582410633718098e-01 -1.1579584419376232e+00 1.2933638345859322e+00 -8.0525792263838980e-01 -6.9723984327174193e-01 6.0131090528550146e-02 1.6473964708728772e+01 2.0062959656042167e-01 5.4345510156320387e-02 -2.1770507442819621e+01 9.7312297025352024e-01 -1.3557817905810561e+00 6.4273029437135085e+02 -9.4002213479623342e-01 -2.9450900029004590e-01 -1.8267623783219466e+02 4.2923511436834649e-01 -1.3660611397900833e+00 5.5270206660918397e-01 3.1043966032143078e+00 6.9673806444275996e+00 2.8275382149441430e+00 4.7141619847721181e+01 -6.5975322526496960e-02 3.0515798740400953e+02 -4.1103816643986213e-01 -1.6725403056015207e+00 1.1946782164170392e+02 -1.1916123396899838e+00 2.2210421543077530e+00 -4.8998613852692205e+02 -1.4590264264157531e+00 1.9671359236592778e-01 8.8547751250402413e+01 -5.1446772905188620e-02 1.1338495439815688e-02 -5.1213989702247886e-02 -5.5082123307271846e-01 -3.7044736875782291e-01 1.1101950977122499e-01 4.4212131730581383e-01 8.1402752942613610e-01 -8.3771301365187497e+01 1.6897834492550423e-01 -4.8187782800562573e-01 -5.1627650128714402e+00 9.4441226219377938e-01 -1.1645215171240864e-01 4.6113536996130279e+02 -3.2816033927944943e-01 -1.3766655021495922e-01 -5.7179125475115868e+01 -8.4451527854113806e-02 4.0879166230332942e-01 3.7214836767567760e-01 8.4101618802455391e-01 -1.1402894045130889e+00 -1.2413174696436613e+00 -1.8134747181807427e+00 -7.6596810690895722e-01 9.5083196893467630e+01 4.8751379715872289e-01 -9.2276987718720704e-01 2.9366420080358324e+00 2.0874990128670277e+00 -1.3590943312786159e+00 6.9742497714927015e+02 2.1663702275568397e-01 -9.7466508244941963e-02 5.6139228018453373e+01 6.1595254355584927e-01 2.6074507371122024e-01 1.0746892834382749e-01 -7.4288312048404048e-01 4.7725808337195019e-01 -7.5832265660297082e-01 4.4398513580428371e+00 -2.2139422721373236e+00 -1.3531746854066319e+02 -2.5506361871606309e-01 -1.0367726136646738e-01 4.0308618126438802e+01 -1.5791421302900943e-01 2.9746499843358372e+00 -3.3597750324884146e+01 3.2675876305685492e-01 -9.6015995369799767e-02 9.3960299543523988e+01 -9.1961631778948494e-01 -3.1925507609844948e+00 -1.1052949131536796e+00 1.2049193417180550e+00 5.3796700019570451e+00 2.5663120408184943e+00 5.4501832863968831e+00 1.0273108168057190e+00 -3.3471376199301730e+00 3.3915558120737888e-01 1.8209530051421936e+00 -2.2160541651873171e+01 -8.6118011402261985e-01 -2.4309602113863150e+01 -8.4340940854940413e+01 2.8662587779086280e+01 -6.0377602998100883e+00 1.2518137914312319e+00 6.5525018044191938e+00 -5.0310245806815690e+00 2.7428428618875920e+00 3.1772703343946148e+01 -2.6176059253122077e+01 -1.4086570530216989e+01 4.6125445877758381e+01 3.7661835402306451e+01 -2.4491823335882884e+01 6.9012245667066168e+00 6.9032193747202726e+00 7.0892687156103295e+02 -1.4041929257559957e+01 1.0469829110749427e+02 
      </Row>
      <Row Index="84">
        9.2203596909120833e-01 -7.9268668892846790e+01 2.0953065702759449e-01 -5.9981236138605265e-01 -7.0798117532727076e+00 5.9983339287913884e-02 -6.9519733264299455e-01 -1.3492997031495646e-02 -7.8982673051844521e-01 -3.3563949615367283e-01 1.7855844361132505e+00 1.4505953191263328e+00 -4.0630042008925820e+00 3.8670870753970739e+01 6.9616401235815306e-01 -9.0699099575143616e-01 1.9584158346893243e+00 -3.7142884790471364e-01 -1.6527498131051606e+00 2.7031250255144539e+02 5.0155758313599530e-01 -8.1199798139404672e-02 -8.4192008670419227e-01 -1.9940520669223227e-01 7.7140680962080621e-01 -5.2246014404763275e-01 1.6077233745626424e-01 2.9028509738174613e-01 2.7230984087110699e-01 -8.6430707978188970e-01 -2.0758008411498339e+00 -1.0212754692090094e+01 1.0887719484820628e+00 8.8206082243644102e-01 -1.0907830138676966e+01 -3.3798684085206920e-01 -3.2154123339970864e-02 -6.5206851264119507e+01 1.6982630879308230e-01 1.3547336462549886e-01 1.4290534272066644e+00 4.8362656477075827e-02 -4.4955372163057117e-02 2.9427806146669067e-01 -1.1157457308307084e-02 -2.8519673052374905e-02 -2.4020247635692060e-01 3.4421563946657585e-01 -7.7329947883134076e-02 -1.3740620410302036e+00 5.7954457842235518e-02 1.0409041671277475e-01 -1.4098679089533892e+00 -6.5522263758263755e-02 -1.1208290363672901e-01 1.1291837438765356e+01 -2.6508898746850473e-02 -2.3181642946697201e-01 1.3103861589376002e+00 5.4757825956835671e-01 1.4888189341558977e-01 3.8554881366062954e-01 -1.9268674074654957e-01 1.7469781301272524e-01 -1.3315795367400440e-01 -9.6519264864982635e-02 5.7417992865591216e-01 1.0940849430421196e-01 -2.3966824469172687e-01 -1.2787477987493379e-01 6.1348671704998905e+00 -1.7334056331542635e-01 1.7388377612772452e+00 -6.0551268946296219e+01 -7.0611736134731817e-01 -1.6931971083144925e-01 -5.7132075591859092e+01 3.7517477047165432e-01 -2.0903186105716506e-01 5.1068976328070548e-01 1.9484296730240036e+00 6.4721565149391980e-02 5.7751267041813104e-01 -6.5975323149719878e-02 8.7361485656220683e+00 8.8634558798228824e+01 -1.0051217986291081e+00 1.2005531794859836e+00 1.7377756796280284e+01 -4.0911480055573857e-01 1.6519073284854358e-02 1.4112954198901789e+01 -8.5220183910776681e-02 -7.9915341080515123e-02 2.6531330430830735e+00 2.0172345919716617e-01 1.7422636163400185e-01 -3.4493999229665206e-01 -2.5011810299218729e-02 2.0728065231982029e-01 -1.4189938042519223e-02 3.8143193035282985e-01 1.4081844707911284e-01 4.6545168684039879e+00 -2.4637714438265479e-01 -1.2650866935196703e-01 -9.0265135525075166e+00 -5.5595407526087826e-03 -3.0943268131797907e-01 1.0366704407071381e+02 -4.1726068197755417e-01 5.5285461866798613e-03 -6.9936667288322809e+00 -2.3417163598118407e-02 2.0712688256862677e-01 6.6202063671206535e-01 9.3195146729242673e-02 -2.3400854706919105e-02 -1.2025597825643075e-01 -8.2316137899656816e-01 -2.4840935896936323e-01 1.3821776578528784e+00 -2.1548032774597004e-01 -1.6918141131586761e-01 6.3652644923523276e+00 1.3249356861112283e-02 1.0162661393505523e-02 9.6226740077606919e+01 3.0350769402564204e-02 -1.2129424630663443e-01 -1.1067316832679449e+01 4.8148166309633833e-01 6.7781484443103501e-02 -2.7750869955257329e-02 -4.5093271338299545e-02 2.4151371984173053e-02 -4.8097371568461611e-02 1.1342096365801195e+00 -1.2922370056773875e+00 -2.9942774898299845e+01 -2.2671079393903892e-02 -4.6975053457942728e-03 2.1759263902573771e+00 -1.9204414363768363e-01 8.7479863442519556e-01 -1.2949503261289067e+01 2.9576949922635265e-02 -8.2860666173557207e-01 1.1538290897656246e+01 1.9493395816263126e-01 -9.4951263886218995e-02 -2.0278743975643110e-01 1.1379231078863707e+00 7.1754583899350521e-02 2.3063748182441435e+00 1.3726094332894423e-01 1.8414977844637166e+00 5.7991750752305123e+01 7.1466326785659939e-01 1.0426224923203078e+00 3.3877152820766554e+00 -1.0271573870967057e+00 3.5547761012948378e+00 5.0960032283756640e+01 6.5065225738273398e+00 -2.4382006958629958e+00 5.7777988189021997e+01 6.8324869421842607e+00 -4.0692161399469367e+00 5.8301006434652551e+00 3.3827748140252032e+00 -1.6787820327203320e+00 -1.9837536022306423e+00 1.6141955420621343e+01 2.1451360868200453e+01 -4.7275133212251021e+01 -6.9035197132279933e+00 9.1182044437379517e-01 -1.4981647052338079e+02 -1.3357226044218642e+00 9.0351965424131564e+01 
      </Row>
      <Row Index="85">
        1.3889797344170285e+02 1.1410115693595195e+04 -8.2326682863998911e+01 -6.6234920665830316e+01 1.4476278058565172e+03 3.2983013619101058e+00 -5.6278845962638059e+01 -3.9008526618731267e+01 -8.4137441098024752e+01 -2.6840720457810026e+01 -4.8958867664454608e+01 -2.2079253587246660e+02 -7.8071944752432699e+01 -5.2759433294430137e+03 1.5577824649651125e+01 3.0595121419144885e+01 -4.2326088456668674e+02 4.7532514355067114e+01 -5.8601026553346813e+01 3.2033440792251939e+04 -6.4287338745513239e+01 -6.7009429109750883e+01 5.7473441888595517e+02 1.4533888401911952e+01 8.5274563597408815e-01 -6.0347854141741408e+01 6.2385183681847050e+00 -7.5519209828090084e+00 -5.9513897722596823e+01 -1.4919620590121684e+02 -3.6555686452729489e+01 -5.5479495311459932e+03 1.2340739672330958e+00 2.2986618896927183e+01 -6.3014508785760245e+02 -5.1594763419836774e+01 -1.2041926353332293e+01 -5.8026717362325337e+02 2.3269157287448508e+00 1.8145872139815538e+00 -7.4230940117545879e+02 1.6616601912623992e+00 -4.0162059333420927e+00 1.2122412753709568e+00 -4.9879241043037155e+00 6.8777924899910658e-01 -5.8972630329112690e+00 -6.8121793819998402e+00 1.4206666762528215e+00 2.0514197787563476e+03 5.3220008139476249e-01 3.5667998025414818e+00 -3.9340386473238212e+01 9.8737629193317389e+00 -2.1947553449013867e+01 -3.5279031425649155e+03 -2.1626964950109368e+01 2.9443303509833754e+01 -9.7280668587962373e+02 -5.7483472420533417e+00 1.7475568381323569e+01 -3.4710782323670628e+00 -9.2695581879138444e+00 8.3791009835449586e+00 -1.3816641773527408e+01 -3.9402165273248784e+00 1.5198130321031158e+01 3.1773050745387227e+03 -6.1829934266415876e-01 -1.3020084074806846e+01 7.5403541460072825e+02 -1.1098535271715832e+01 6.5510292742152018e+01 4.9176598775908305e+03 2.7728920731767022e+02 9.2008091006021829e+01 -8.4528134369644267e+03 -1.6943858545631514e+00 -5.8989192380445999e+01 2.3185139047032533e+02 1.2188046724774837e+02 9.0539545819850559e+01 2.3459789774130533e+02 3.0515798710402066e+02 8.8634558700973116e+01 2.4827221950407082e+04 6.7625689278853036e+00 -2.7963430024651416e+01 8.1134041514298815e+01 -4.9893186082147480e+01 -1.6640053421508583e+01 -3.6239697632346197e+03 5.1710406303784282e+00 -6.8529011409762006e+00 6.9295857063910626e+02 5.1919288231566441e-01 7.4352299754064006e+00 1.2968543113154283e+00 -1.4049491887051772e+01 -7.6913126544841361e+00 9.0459844654785684e+00 -1.5671121591118379e+01 1.4040500165691867e+01 -1.8818277349772936e+03 -7.0330860494740364e+00 -4.7369798159454604e+00 -4.1630971276136421e+02 -6.8810418532980293e+00 -1.0554238942886514e+00 1.4683456858243124e+04 -2.6406918401003168e+00 4.3260465268394910e-01 -4.6103846791065780e+02 -1.2476723687705089e+00 2.3068347378238741e+01 -9.3619195798191868e+00 9.7584154105209109e-01 -2.2679815497573259e+01 -3.0429160434132427e+01 1.8516397364217028e+01 -9.8767672560666142e+00 -6.0394959653709157e+02 1.8337107768954866e+00 4.0481653641109006e-02 2.6120179374946218e+02 -2.0804778140811322e+01 -1.9259589225852665e+01 4.7011226231246765e+04 -2.3752172226831476e+00 8.1948905890701553e+00 -2.3546454418758935e+03 7.0468388474753283e+00 3.9687787224615931e+00 2.5840925301263269e+00 -6.8871625424568776e+00 -1.7490596855439890e+01 -1.0063761873624344e+01 -1.3822429157780107e+01 -3.4884005256375303e+01 -3.3480318431024643e+03 6.1572516789649967e-01 1.0559932304597623e+00 1.2581971743586985e+02 -5.4418520739095584e+00 1.2969763844479291e+02 -1.4856279534282003e+03 1.3078363988825538e+02 -4.1490856578451968e+01 3.4869487403085413e+03 1.4519156622764626e+01 -1.0455080917189746e+02 1.2093070930610259e+02 3.4906982027018813e+01 5.8179308009951228e+01 9.7251043503727317e+01 -9.3067397263604903e+01 -2.3420124211650318e+01 6.0002221112280213e+03 2.1724840906052165e+01 2.9817587287848255e+01 -1.2997537304934472e+03 -2.9388238411964956e+01 2.2389821742353706e+02 1.0377514425386533e+04 -1.8709915092239737e+02 1.8839304474891833e+01 4.9900939213217316e+03 3.0978560188645133e+01 -3.1053730090936926e+02 -1.4223194569321890e+02 3.5793314025544294e+02 -3.9036508566874988e+02 -4.1089065459075846e+02 -3.3188962407164627e+02 5.4514430069022274e+02 -3.0719034053855148e+03 -3.7960987285283409e+01 -7.2581166167952233e+01 -1.3657306826804452e+04 1.6779333630326835e+02 1.0902664674797757e+04 
      </Row>
      <Row Index="86">
        2.6785212946602242e+00 2.1012597854721707e+02 -4.4919095988345425e-02 2.6094060659395879e-01 -6.8462527243789904e+00 -6.5253477973539165e-01 2.0474688090396320e+00 2.0626715290752804e+00 1.8902922475957717e+00 1.7760647426001310e+00 -2.2402098064148017e+00 -1.8788800976896720e+00 4.0926445789911226e-01 7.7163947959868295e+00 -9.4834709340856271e+00 -1.7037856653499286e+00 -1.0545163349347542e+01 -3.8827555549883903e+00 -1.2326703847218345e-01 -1.9274172106823289e+02 -9.6261365165777590e-01 -4.8841491730888809e-03 -2.2891490367239946e+00 -3.2093025124623242e-01 -1.2587923643394858e+00 1.4583010579311653e+00 -5.6369892143476680e-02 6.0141918018024310e-01 -7.3141928218003116e-01 -1.4269129361643191e+00 -8.5808632364758497e-02 2.0188924300651003e+01 -9.4376765554598183e+00 -3.6465442718901140e+00 -5.3320660560368722e+00 -1.7356844677444450e+00 3.9343849417139232e-01 -7.1056103412928877e+01 1.1604581144371817e-01 4.7944722051031619e-02 1.2016227221425559e+01 -1.4476788805922070e-02 1.7717321789406171e-01 -3.0665465309554207e-01 -4.0612854233312845e-02 -3.7000135419020808e-02 3.1302938058801644e-01 4.5881289657701885e-01 3.2145047987439224e-02 -2.4146196098774482e+00 -7.3231619336412734e-01 -3.6954314682034806e-02 -3.1224128031392531e+00 -1.8968233156225978e-02 1.3038616359602884e-01 1.8315469999356230e+02 1.0163820801915335e-01 -2.9037491479575905e-01 -5.4050007531419269e+00 -7.2953168820525605e-02 -3.3112753104801840e-01 -3.7269571339868435e-01 -1.7595220009331669e-01 -2.4054257534530521e-01 -1.6960297954804560e-01 -3.1016405791485013e-01 -3.5446708918840386e-04 2.5437751366061661e+01 2.3282175566615955e+00 1.6501403510274670e-01 -6.3513294253285091e+00 8.1417486415978324e-01 -1.9779997209587461e+00 -2.6743588534897521e+02 -1.4468212603067589e+00 4.0994069641706687e-01 7.7064810456151292e+01 1.9476044389379563e+00 -5.5359156626515915e-01 4.9268321586225450e-01 -1.3073240844064866e+00 -1.9491017594151199e+00 1.6379095888503965e+00 -4.1103817397284265e-01 -1.0051218004812705e+00 6.7625687072791010e+00 2.1679497651620085e+01 2.5472361188699377e+00 -2.0874390072694791e+01 7.8250403564855571e+00 -7.0823193915359184e-02 2.0871278218658267e+02 3.3852851628246317e-01 1.4030577599881511e-01 3.8552795320000399e+00 -1.6371702162386370e-02 1.1708534933535475e-01 3.0112503128225399e-01 1.2800130730436621e-01 1.7013487263184857e-02 -5.2990579509113900e-01 4.4587046734469560e-02 7.4118666155360557e-03 1.3871729335540586e+00 1.7566003572928697e+00 -2.6968812132007969e-02 4.0856818205447576e+00 9.3243428972591857e-01 4.3977062771958231e-02 5.0329679813727989e+02 2.5936345713744302e-01 1.1523559918475001e-01 -2.4545616324016279e+01 2.9269457860067405e-02 -6.1856409762613396e-01 -4.0102905708729253e-01 2.7180100650075900e-01 -2.0847900441328449e-02 9.3312607055395347e-02 -6.2590851800074176e-01 -3.0030194994417059e-02 4.8669608821782049e+01 3.0590731262821613e+00 -1.5270627206484022e-01 2.0940019444858038e-01 7.2724601270995493e-01 3.8656072162837773e-01 -8.2396986119456237e+00 -1.8794114865913869e-02 2.2924191083049550e-02 1.0244942695732632e+01 -1.1102730764330815e-01 -2.2834031086603801e-01 2.2477694881497001e-01 1.0631668312152076e-01 1.0639092396758087e-01 -5.1947650132809997e-02 2.0523414618738158e+00 2.9949979482283595e-01 -1.0459216621409610e+01 1.9671713147434744e-01 1.0272444814622617e-01 5.5225449329229903e+00 8.6203562830274194e-02 1.0045613505092463e+00 -3.6454432352654976e+01 -2.1028041241486992e+00 6.8318508740972561e-01 9.3407045237473767e+01 8.8131323297764830e-01 4.4116749098238017e-01 3.9935028689844732e+00 5.1019280781939402e-01 3.1439276788780024e-01 -1.1361975152738930e+00 -3.6854470251682629e+00 -5.1253413766496836e-01 -3.4374700733297161e+01 1.8331728590434124e+00 -2.6961056845944236e+00 -3.4478206794380895e+01 1.5653679601123125e+00 -2.4299877298995263e+00 -1.3196129733308712e+02 -5.5248547324611081e+00 5.3689780943137322e-01 -3.3477896623230635e+02 -4.9235728901567200e-01 1.1323923713859564e+01 -3.5125644982058564e+00 3.9295377712711810e-01 3.5088814194869644e+00 2.2049349559466833e+00 2.1617095651833296e+01 -2.1323452547833313e+00 5.0044692450306911e+01 8.1236010294915673e+01 1.6673073369921241e+00 2.1055981870089488e+02 1.0119306346504437e+00 1.9861905465012927e+02 
      </Row>
      <Row Index="87">
        3.7669594484938107e-01 2.9129258458073730e+02 3.1630257003907034e+00 2.1259849485413529e+00 -2.9310336561530733e+01 9.9223644541003309e-01 -1.6755876770266376e-01 -3.2423713895098425e+00 8.5664027670242859e-01 -4.7639193262813717e-01 -1.9663456942641879e+00 9.1541787092426752e-01 -4.6626052453789590e-01 -1.6897275093244893e+01 -1.0240093211857393e+00 -9.9725695197606061e+00 6.9559371008753361e+00 -2.8515669284002119e+00 2.2260053253100476e-01 2.8773551195527955e+02 8.2915916984332405e-01 -1.7525246843988604e+00 -4.1106562420402440e+01 -1.7233250838923553e-01 2.0241163438310532e+00 2.8243725239696982e-01 -1.3676944916014362e+00 -1.0682872424054963e+00 -2.9519853280343331e+00 -1.8106266328021707e+00 1.4550575115797848e-01 -3.4717676262828832e+01 -1.9180518278505179e+00 -1.1462321385049263e+01 1.7431314042268038e+01 -1.0175752012633899e-01 1.1591861751910015e-01 2.0124843899474428e+01 -4.0370322064923858e-02 -9.1023931719341533e-02 -1.5093265528604505e+00 -1.6851424380497804e-02 2.9131732862002657e-02 3.1253839473773226e-01 1.2621258952420611e-01 4.9004765608618150e-01 1.3645818218035899e-01 4.6844889817855062e-01 -5.0077479200068442e-02 -2.3258704383262625e+00 -2.5384435113914972e-01 -2.8561253037712220e-01 2.0635840277241275e+00 -5.5662919729067895e-01 -2.4685381287105201e-01 -7.3341808479449924e+01 4.5465474657058280e-01 7.4967382860108955e-01 -1.2824980013495313e+01 3.7214542180132781e-01 2.1322829290235745e-01 3.9832504020040460e-02 -7.4572559896864732e-02 2.2129926038515180e-01 -4.6504742203717342e-01 2.6097170774167822e-01 5.8027331838935936e-02 3.5734216508861891e+01 -2.6635825795298373e-01 1.9560954132090913e+00 -1.2585136307931737e+01 6.4160465171184811e-01 -1.3252015544382627e+00 -4.4573859343535770e+02 -5.1000435281915388e+00 -1.7291211378877076e+00 4.1644422613691994e+01 -9.6620541511350178e-01 -7.0053779908278169e-01 -1.7552462062184275e+00 1.8230354302725718e+00 3.2177108205480192e+00 3.9307916694305653e+00 -1.6725403034621515e+00 1.2005531785135775e+00 -2.7963430282022372e+01 2.5472361198732316e+00 2.5612863962577173e+01 -5.3341562778244551e+00 7.3857105793134306e+00 -9.5981516449286630e-01 -2.0717942169542312e+01 6.8401831285509296e-01 -1.4399153018311139e-01 5.9355669813856871e+00 1.9870188031597014e-02 -2.5525523607194600e-01 2.7972739138565572e-01 -7.8960468006314954e-02 -3.0110430578531577e-03 -2.8866093866066223e-01 3.6969290007000577e-01 6.1819544492399459e-02 1.6250321750479621e+01 -8.0657812711828569e-01 6.9540000075352992e-02 4.8145281855882693e+00 2.5092770042213886e-01 3.7385154929750541e-01 2.0072684092029931e+02 4.2264447635780300e-03 -1.4102664465583103e-01 -2.3542465127841638e+01 6.8327702626191922e-02 1.5915503274591458e-01 -4.0240794050940565e-01 -8.6619014841669895e-02 1.4892811353395174e-01 -4.9848934393935451e-02 -4.5663800133873167e-01 2.2682552150008917e-02 -7.7565970409546026e+00 -1.8579887350503199e-01 -4.6711612261906055e-01 -1.3708543806080371e+00 1.7247476065762726e+00 -1.3971506325624361e-01 -1.3503959564797276e+02 -5.7402064292993771e-02 -1.2572288646779839e-02 2.1960613786932853e+01 2.3079931825793665e-01 2.7533233324740536e-01 -1.7349021910901996e-01 1.2062664358029540e-01 -4.8465037960744439e-01 -2.8570005763962314e-01 8.8608799171763764e-01 -3.2760325627295828e-01 -2.0693332762956686e+01 1.7023558940969963e-02 1.1775122314978148e-01 8.2108491620094526e+00 -1.6379649431644694e-01 -5.8951545571729436e-01 3.6850780090094986e+01 -6.3084643228829762e-01 -1.0771054935407793e+00 -1.0635908821743880e+02 -9.2534464545108719e-02 1.2119081340333162e+00 -4.3055894523787570e+00 1.3322810144037047e+00 1.6211399365717782e+00 -1.0401427607663103e+00 -1.9423677229096330e+00 6.4068381119010276e-01 2.5886258770635990e+00 -3.7068898692488272e-01 3.0573261933837603e+00 2.1810567291978998e+01 2.4712177962339172e+00 8.2179792505730518e+00 3.0100655728711217e+01 -4.8389350629291155e+00 -2.5216717373820998e+00 -1.8592950999550840e+02 3.9872296599662036e+00 -4.9933354017730514e+00 -2.0421529574553219e+00 -7.7906498336313303e+00 6.3223053214255449e+00 6.8938408831863285e-01 1.1000860428613265e+01 5.1272477434265511e+00 -1.2356610347041214e+02 -2.3401423336149037e+01 4.9740592025431312e+00 2.7826732555272383e+02 -1.0456972447543016e+01 -2.3510695446781051e+02 
      </Row>
      <Row Index="88">
        1.1852196788634160e+01 -2.5212926012993130e+03 1.9431748886470785e+00 -7.9630347204097447e+00 2.9402330841497061e+01 -1.9845742169397116e+01 -3.4530022333527981e+00 -4.9192904857649555e+00 -5.0391817179263967e+00 -1.2314146867792144e+00 5.1139563404702812e+00 -6.9430884588098564e+01 6.4008437122805120e+00 7.2505231641448825e+02 1.3038966040872677e+00 -1.8997904560677476e+01 -6.6421887941351667e+02 3.1138073019877314e+01 -3.2094815816448481e+01 -1.7090150770647833e+03 3.2975376301127213e+00 -1.1828819344499339e+01 4.5093893640618103e+02 -2.5217499396622678e+00 -4.2239004178026534e+00 6.2431350609177194e+00 5.2295887625292368e+00 -1.7447245277924864e+01 1.0760893810159120e+01 -4.6407909058316349e+01 -4.2912020384068086e+00 -4.9811924800552549e+02 7.4719395504367316e+00 1.8264085352609257e+01 -4.2280927656107053e+02 1.5894830280452688e-02 1.7008527058713589e+00 -1.4998834691671229e+03 2.6627018232361834e+00 1.7861998686867722e+00 1.2557817660291744e+02 1.4811830958679053e+00 1.0432487148435143e-02 1.9495927459367053e+00 -1.6316299466839510e+00 1.5916550484337755e+00 -4.2247281122328459e+00 -2.6790004700681465e+00 -1.6162719374126659e+00 -1.2694092493718870e+01 1.0833660686595969e+00 1.8102384486688550e+00 4.3071004336023478e+01 -4.3401613256435638e+00 5.4605085687894928e+00 2.4583857163236521e+03 2.5809917099328459e+00 4.1681217706645981e+00 -8.5793107757124574e+02 1.1768329467012961e-01 3.8385522970720558e+00 3.9762613156460702e-01 -3.4414933915301020e+00 7.5834585537266719e+00 -2.3238097022199327e+00 3.7236934915179631e+00 -2.9856944667082530e+00 3.3879668537609200e+02 -1.9806043659969248e+00 -2.1272490818644343e+00 -2.4568795042142719e+02 2.8985432713412109e+00 1.7253978332449840e+01 -3.9668612657313088e+02 -7.2772033731091774e+00 2.6194114757222021e+01 -6.4697624676771648e+02 1.2755114218372643e+01 -2.3931709940347851e+01 -3.1613503684848610e+00 1.5835601504107267e+01 3.0286375582682531e+01 1.4388196910442929e+01 1.1946782168655335e+02 1.7377756815036491e+01 8.1134044465496302e+01 -2.0874390051190183e+01 -5.3341563197115143e+00 1.5079288142872554e+03 -2.8573167005570866e+01 1.1046712814103842e+01 -2.5136304132789855e+03 -6.3170338643040154e+00 -2.1345811651433166e-01 5.4506898245606237e+02 4.4988620122127099e-01 2.9764071029873094e+00 -2.0268945040780295e-01 -8.4863218018253406e-01 3.2113572347975037e+00 1.4212419348695278e+00 -9.9038794987503209e-01 -1.8924790888841123e+00 -3.8132329691017918e+02 -2.4367842023030803e+00 -1.9731558301880767e+00 4.4301089689937498e+00 2.1669826147534650e+00 -5.4320468063442320e+00 -1.3602075417746164e+02 -2.4192013699051529e-01 1.1389898083955643e+00 -1.5528549836195549e+02 2.5145824219350743e-01 2.4260956139296468e+00 3.8393292424701713e+00 4.9818112013867335e+00 -7.8642525770055016e+00 -2.5968000774300890e+00 -4.8590502766427335e-01 -3.7276912324054479e-01 2.1163794612980610e+02 -2.8513090439247790e+00 -4.8819544533874080e+00 -9.0600930113058226e+01 6.6119218056805096e+00 -4.1783676346605176e+00 2.5507435184950082e+03 3.1993577647487932e+00 -2.3343859725491853e+00 4.7193800921816057e+02 -3.8171659063874586e-01 1.4767544231137606e+00 -2.0112689497742338e+00 -3.6611743428534140e+00 8.8722994095786589e-01 -1.0276711916023089e+00 -3.1589657389243655e+00 -1.9223445840589193e+00 -2.9938449260561072e+02 -4.2052643333327921e-01 -2.1614773409820032e+00 3.0587522245489561e+02 1.5599414639296469e+00 8.2632990739793399e-01 -8.6490862965156339e+00 -5.8066994308110971e+00 5.7163095519331897e+00 -3.3863557155587893e+02 -8.2431670964448642e+00 -2.9597007871982655e+01 -2.4217222539829208e+00 1.4714920084427616e+01 1.3197168020076049e+01 2.4831833509900719e+01 8.7244276990915637e-01 1.6899308817339858e+01 -1.6018962610747121e+02 -1.1590990908698089e+01 -6.2932799296785191e+00 2.3204318427946271e+02 -5.2535031938241161e-01 -7.7134141504945546e+01 -1.0274597285198429e+03 1.4806491710778459e+02 -4.3555412609863197e+01 -3.2558828488619793e+03 -5.1768242100154112e+00 -6.8244460309989719e+01 1.7069010227436323e+01 9.5221808193328442e+01 -1.3881933731112974e+02 -8.9242720242403152e+01 -4.3428919863094961e+01 2.0910312778713433e+01 1.2052046038838653e+03 -6.9519970384757130e+01 3.0709997743421354e+01 7.9254718999132874e+03 -5.4095786825322804e+01 -6.4717112015561997e+02 
      </Row>
      <Row Index="89">
        6.0944131126323393e+00 -1.5201234945748553e+01 1.1878095098547607e+00 3.8944921104588381e-01 -1.1467447104227189e+01 8.7286922410664614e-01 -1.5837001379033282e+00 2.1653054356261503e+00 -1.8051401011191215e-01 -3.1546401466611651e-01 1.4096440905287100e+00 5.5120004883641105e-01 -5.6786714812970229e-01 -4.6499287713840545e+00 -2.1427639912112513e+00 -1.7584989647257290e+00 -1.0677159228839916e+00 -8.2580792493718480e+00 -1.6337572543900758e+00 2.1299321571521477e+02 1.1315555364345111e+00 3.4542112202132236e-01 -3.9027286296162593e+01 6.6083740032237581e-01 -1.0703070331793159e+00 2.9337163457855349e+00 5.1515612029037450e-01 -6.9749662241596511e-02 1.0762700011925388e+00 -1.2969214419733772e+00 -2.9988603907978750e-01 9.5492724684440603e+01 -3.1976232608475352e+00 -3.1511038864280048e+00 7.9906296296003383e+00 -5.8926209994407586e+00 2.2861569847248409e-02 -1.2343614342202598e+02 2.5252646348435093e-01 -1.3241647320998284e-01 1.2128655494752682e+01 3.3766149209186302e-02 1.4437594047563618e-02 5.9304998956074773e-02 3.2081047803818041e-03 1.4811362261302419e-01 2.9200188165450491e-01 5.9504068879873451e-01 -6.4280458506152161e-02 -1.4660075922423228e+01 -4.3941907158647431e-01 -2.6545922193959015e-03 -3.1420641575911250e+00 -9.9106387010404706e-01 -4.6213734916990035e-01 -1.7615099529546245e+02 7.6650312542864896e-01 3.6718443773877052e-01 4.7108338851253535e+00 -5.0585623868801832e-03 9.9747648948510736e-02 -4.6782871063396847e-01 -4.9545159422336571e-01 -5.9610676213394065e-01 -2.7695164472302025e-01 -6.9439194171228102e-01 -1.0560829537748617e-01 -1.0616221747639798e+01 8.9590478670954177e-01 8.8005593216834832e-01 -1.0735971025113294e+01 1.8293402205937981e+00 -3.3748689035350519e+00 -1.7511357927468111e+02 -5.4362855006295918e+00 -1.6246355247993725e+00 6.2205667277146688e+01 -1.5255078586911299e+00 3.2535732042819072e+00 -3.9527494169005331e+00 -8.9025021948017313e-01 1.7757061587023686e+00 -3.2222329154228389e+00 -1.1916123435845392e+00 -4.0911480201082373e-01 -4.9893186304153375e+01 7.8250403558489960e+00 7.3857105797357105e+00 -2.8573167012279956e+01 1.6922849530134521e+01 -1.9716224377207396e+00 2.5820033796484563e+02 2.4113571181249660e-01 4.3662605304650004e-01 -5.8667368129051320e+00 6.3717478669858885e-02 -3.9229903404837785e-01 7.2278970048683000e-01 -5.8064713818331004e-02 -4.6303605185199359e-01 9.0081428904387195e-02 1.0365703401764792e-01 -6.4675437051175733e-02 3.8038611120797036e+01 5.6693114917494247e-01 1.8637106146664451e-01 1.4632121586653195e+00 6.6491755178574152e-01 -3.2577140302963237e-01 3.8104493145551419e+02 -2.0597141020927801e-02 4.5772501872312077e-02 -2.7571516180228215e+01 7.4058364141436073e-02 -1.1766543601019208e-01 -4.0832120999130517e-01 1.5499396233256757e-01 1.2290987800304398e-01 1.2492849922242044e-01 -9.7910867915441102e-01 -1.1886256166770082e-02 6.3908575969697381e+01 1.3318339771041003e+00 -2.4931493566184493e-01 1.4739897774784332e+00 2.0948531042569378e+00 -1.8739753501419276e-01 -5.7206371013961871e+01 2.8764812052596955e-02 1.1876921380324923e-01 2.1711177614793087e+01 2.1513746548134982e-02 1.7415335175742541e-01 -4.1209406632686907e-02 8.0963689703124064e-03 -6.9683353612255416e-02 -2.9526469440930825e-01 2.7406853723795148e+00 1.2790233466706269e-02 -1.3569775046228415e+01 9.9752419196598163e-02 1.6633285370213624e-01 7.5928682561159082e+00 1.2560509929385510e-02 1.5675025626637156e+00 -3.2800215963378889e+00 -3.0449792687315771e+00 -6.9003205423059488e-01 2.3356483485701578e+01 1.0724379906568071e-01 4.8324600842220822e-01 1.5142772263431965e+00 -5.7989917846203531e-01 1.0507930562076782e+00 -3.1683939403385714e-01 -1.4566971795612016e+00 -1.1987449286394241e+00 -2.4419116990253197e+01 2.3120128089702181e+00 2.1095971872928163e+00 -2.0869725128822090e+01 4.3590024481272760e-01 2.8176512961474323e+01 -4.3433153726539757e+01 8.8326680373313291e+00 4.4071462050526797e+00 -7.8205428658701493e+01 3.2980548753369021e-01 6.3279621706930111e-01 -4.6819020760601422e+00 8.9639209488991263e+00 6.8684381231923917e+00 1.9817375327527209e+00 3.0844628803279100e+01 1.0090241877649646e+00 4.8864877958039123e+01 2.4361728852629142e+01 4.0105220436287681e+00 2.1570774695790115e+02 -1.1956504123594280e+01 7.0191150941287228e+00 
      </Row>
      <Row Index="90">
        -6.9867531794131601e+00 9.1543688786069765e+01 1.3376285762209246e+00 1.0660241444684984e+00 -3.4200119725563667e+01 -7.3127747960208522e-01 -7.3310464715356183e-02 3.8892370809588483e-01 1.8576049332133604e-01 2.2320754275062080e-01 2.1858347753509939e+00 -6.8744908611962963e-01 3.9984627894329117e-01 1.0298457064768311e+02 4.7611617185987853e-01 1.2336190529530999e-01 1.1721858589299886e+01 1.1183810700855776e+00 4.6226986234108125e+00 -1.1934528378085962e+02 -5.5726480560417091e-01 3.5300722573702908e-01 2.0388046102529547e+00 2.2262896660831655e-01 4.1927823376921664e-01 3.7603465803031089e-01 5.1611681478416438e-01 -1.0249739588199436e-01 -6.3792385946302077e-01 1.3323752710838610e+00 -3.7992562793482509e-01 -1.4770246204516477e+01 2.8769547237964338e-01 9.4198696433879658e-01 -1.3176591357906480e+00 4.0382976767918660e-01 9.3521354712696048e-01 4.5738711059509836e+00 -1.8567827397948489e-01 1.9548096172131046e-02 -1.9476144688748214e+00 6.2681949159131278e-03 4.3774883569960288e-02 7.3523522707841238e-04 -3.1991147710870749e-02 -3.4623789434024221e-02 -1.4624504532800575e-01 1.9844818194484048e-01 -1.7030160323668553e-02 1.3418149659625449e+00 9.3099011107891094e-03 1.1053395275890665e-02 8.9120195394051138e-01 1.9724784332217560e-01 5.7708982445186408e-01 1.2534345460341845e+02 -4.9604394221956838e-02 -8.0124078297316714e-02 -7.4448858790470531e+00 3.8593768780039284e-02 -6.8802175091346562e-02 1.3686351470507674e-02 4.9369122187771453e-02 4.7964327653065375e-01 1.5102705689749030e-02 1.9318114708303469e-01 5.4405154238207132e-02 3.0669561401366764e+01 -3.4681344732149455e-02 -1.4985831642695402e-01 -6.9411540822197648e-01 -1.4031674803601746e-01 2.4441270413144172e+00 -8.7090271896117159e+01 3.6366555666286410e-01 -4.9064971081950504e-01 -9.7192016779396919e+00 6.5280713013374814e-01 -8.8872309333149227e-02 -1.2237458603200047e+00 3.0123160808665289e-01 2.2202612037089597e-01 -9.9383987772698190e-01 2.2210421569681067e+00 1.6519073838068943e-02 -1.6640053353164483e+01 -7.0823193321363109e-02 -9.5981516633002073e-01 1.1046712817576408e+01 -1.9716224376148990e+00 4.6254505925644764e+00 -4.6427464875312558e+02 -8.2306326479414160e-02 -1.5415483423630860e-04 2.8697051404122337e+01 5.9473272479345640e-02 5.6862418734169751e-02 -5.7968451897703943e-02 1.9267637753441669e-01 3.4436799226598680e-01 -7.4742009700209167e-02 2.6809695635216357e-01 -6.4572743626792217e-02 -4.3636947072197579e+01 -8.4991682936794710e-02 7.9945023408422244e-02 -3.0863578876118640e+00 -1.1698081821091222e-01 1.9794616867184089e-01 -7.1241803639191858e+01 1.7451810382507205e-01 9.1854321060964139e-02 2.4484579147385714e+00 -4.5766113165253586e-02 2.2139398852814907e-02 2.1929759630385348e-02 3.4538310732417088e-02 -2.2664978777467049e-01 -2.7277653903647092e-01 8.4456197878054695e-02 1.5620570708083648e-02 -4.7614934321424016e+00 -2.1827127714299888e-01 2.0348940951382843e-02 -4.6641955085084685e-01 -4.2942418311424291e-01 7.5258853367906653e-01 -9.6445019909112943e+00 -3.6603573577598247e-02 -7.1005000349378733e-02 -1.6189956874922515e+00 -1.0690968970790138e-02 -2.5094544653867956e-02 2.1180477612311677e-02 -2.8183872930857223e-02 1.6555800638299445e-01 -1.8295860135918218e-02 -3.1664528695324279e-01 -2.5379523999884412e-02 -3.0063424844150305e+01 -7.0872286470460288e-02 -9.8554175595001681e-02 -7.8116845897072840e-01 3.8563602256104446e-02 -6.0756008690405316e-01 -2.7329462810782275e+00 1.0259210255485425e+00 8.8879979820507038e-01 -3.7361561313717246e+01 1.0134367041972107e-01 2.3729613838244173e-01 -4.2953884234787831e-01 9.9074106595761424e-01 4.0518241034654523e-01 5.7864058623611758e-01 2.7584427717948286e+00 -3.9318842262999865e-02 5.9183447092160101e+01 6.0013597968877108e-01 1.3660453158366406e-01 2.7220931557268148e+01 -5.4127535628684276e-02 -6.0941637950436672e+01 -6.6275073904497681e+00 -3.9989283582692892e+00 -2.1448856610783409e+00 -2.8352489704151900e+01 1.2954849609548091e-01 1.4117869151255531e+00 8.4118751463727359e-01 -1.7711628560430115e-01 -6.1237472102207331e+00 -1.7360314659140430e+00 -1.0271915945521926e-01 4.4606032272668017e-02 -1.6247426065853233e+01 -3.2067461983358783e+00 -4.2570447864715355e-01 -2.0019356932731494e+01 2.9300984124317520e+00 1.6948980366602207e+01 
      </Row>
      <Row Index="91">
        7.2634520041683732e+02 -3.5421901879832047e+04 -1.6371159170056072e+02 -1.4757211426745238e+02 2.3196845035246042e+03 1.2273469486892708e+02 8.6214605871355616e+01 -1.2857856337702981e+02 6.3928851460854446e+01 -7.2092546803208455e+00 -2.1920647622048364e+02 1.9311932828914541e+02 -7.3256667474203141e+01 -1.1160587526534808e+04 -1.6536780154323580e+02 -4.5708218340810916e+01 -9.2933255024135292e+02 -1.2077891265439143e+02 -6.0986045966411302e+02 -4.3522848897890144e+04 -1.3297326063880860e+01 4.4610988636708605e+01 1.6811754767322145e+02 1.3190022589297371e+01 -1.2807947469674900e+01 -9.0255299130013213e+01 -1.3283536406261322e+02 9.4616713593053873e+01 1.3939800067999488e+02 -1.9086951741387696e+02 2.6234657641123363e+01 -3.5765470823283511e+02 -1.1260432847202708e+02 -2.0702840149070926e+01 -5.9544723066701215e+02 7.0861900479785405e+01 -1.3325692203892396e+02 -7.4412958032730876e+03 1.0066792017383221e+01 -1.0427191427182720e+01 6.7686041334887705e+02 -3.0834614329296528e+00 -6.0081858234801189e+00 -7.8178004241472081e+00 6.2997609961491889e+00 -5.1518228726711186e+00 2.3151786071310653e+01 -3.4644565303892705e+00 -5.5746420864693391e-02 -1.5262445103845430e+03 -1.6140651322139490e+01 6.1445917685296081e-01 -3.8255508914936070e+02 -3.8807654031158336e+01 -8.7795971825653396e+00 -4.3071854902087245e+04 3.6285621525573788e+00 -4.9461845310757099e+01 9.6497501215763589e+02 -1.1635111405532825e+01 6.7504005136690921e+00 1.7159629001204848e+01 3.8832366906474590e+01 -6.7201464924010907e+01 -7.9802092316786002e+00 6.2539381832912341e+01 -1.7916084142255386e+01 -3.0839681173443787e+03 4.3727574294929582e+01 -1.2005084962224828e+01 -1.1366121575954401e+03 3.9984957145560429e+00 -2.3506833592049134e+02 -7.3555176186491826e+03 -2.1061482680543371e+01 2.4235541848291358e+01 4.0653166530695403e+03 -1.5045912082239823e+02 -1.0573567984311555e+02 1.7342241261419548e+02 -6.7098511593379072e+01 -1.8629225572716541e+02 2.4289712224006979e+02 -4.8998613900229640e+02 1.4112954118875848e+01 -3.6239697734142765e+03 2.0871278219215881e+02 -2.0717942011303649e+01 -2.5136304140690390e+03 2.5820033794946750e+02 -4.6427464880128809e+02 1.2351976214205514e+05 3.4887239301394175e+01 -5.5992205987622583e+00 -5.7832890311937226e+03 -5.3070688969060313e+00 2.5326848526165122e+00 -1.0393613085569541e+01 1.7793200769380860e+01 -1.5869139444182110e+01 3.2244960222652935e+01 4.3855610303277672e+01 -1.9839697631286413e+00 5.7301884388136732e+03 2.3791505063732984e+01 -3.9625729862418666e+01 4.4918227422229114e+02 2.0799512149184011e+01 -3.3611948136410319e+01 2.9325072347680107e+03 -2.2187454302790911e+01 -1.7945992512276007e+01 -6.9827383501311715e+02 7.2283175704451423e+00 1.3875357957376764e+00 1.3015346306835454e+01 -1.6721664323367804e+00 2.4444402556531372e+01 6.2644474606131553e+00 -1.3283647223562184e+01 -3.2465168441440255e+00 7.9859394193968910e+01 8.9647763769694620e+01 -2.2958124000760563e+01 2.4269700064367441e+01 9.0796333373910784e+01 -1.3344878212788672e+01 4.1767211310279643e+04 -1.7030841474141880e+01 5.9462854931862239e+00 -7.7959528478873153e+01 1.3249135452024348e+00 8.6798180065502493e+00 -4.3754195846504444e+00 1.5197122794460483e+01 -6.7588583951346664e+00 -1.8169157206893942e+01 3.5907869340893285e+01 -2.7760375415691669e+00 4.0688142800867718e+03 8.4127894074728715e+00 8.1931178471370458e+00 7.8449170265270845e+02 -1.4379631459221628e+01 -1.0120179304177682e+02 -1.1022654491451613e+03 -1.7724273404048975e+02 -7.7202314365241648e+01 6.2493520221347844e+03 -8.3083297906434126e+00 -2.1116289577251589e+01 -5.8804158311447509e+01 -1.3786703919344674e+02 -1.0178197335311972e+02 1.4203757466850800e+02 -4.6766252314594874e+02 -2.4532168106452616e+01 -9.8179705485580926e+03 -1.0351840212930345e+02 -8.8698634419391510e+01 -3.7433412212919620e+03 1.1652055015527004e+02 7.0421904755229280e+03 -3.2383270309322288e+03 -5.5175979876629845e+02 4.2651363085941739e+02 7.6621892625718156e+03 -4.0888405709705694e+01 -2.4146692789131760e+02 5.7154029964429355e+01 -5.5553684930741576e+02 9.3170368530255860e+02 -2.6354345638215682e+02 3.3998687498541335e+02 1.0115820397058997e+02 -1.0134755789176828e+04 1.8736699000188055e+03 1.8844053348941543e+02 2.0710958614254931e+04 -6.0567743040497282e+02 2.1429020321402795e+03 
      </Row>
      <Row Index="92">
        -8.8992139393295117e-02 5.1857528620911552e+01 1.4151091703048990e+00 7.5232729050666058e-01 -4.3000738580938194e+00 6.7975852126037184e-02 1.5477333261592535e-01 8.8429646964522629e-02 5.1999789692227871e-01 -6.1541727694042814e-02 -1.0711068058488995e+00 4.3493602595324909e-01 1.8267325375846358e-01 -1.2728211096886763e+00 -4.9483195160008220e-01 -5.8829601599480075e-01 5.8017377199958506e+00 -4.0040530488597958e-02 -1.8898279049652364e-01 7.6982535819494743e+01 -2.9981970125197925e+00 2.5382721001111185e-02 -1.6644622364429651e+01 3.9128463596296603e-01 -1.0936983241976850e-01 -2.6360466308963831e-01 3.7308240997102371e-01 1.2068511219405105e+00 -1.6527786834507771e-02 4.3991754971183383e-01 2.4322115572391068e-01 2.8530985825096248e+01 1.7366802803378067e-01 -3.5707770446357656e-01 8.3815417574870743e+00 -7.7564117399169796e-01 6.7147107149818211e-02 2.0921262529096921e+01 -3.6743352521363382e-01 5.0658893852995990e-02 -3.1068466944687918e+00 2.2760552748559787e-02 -2.4696071178580636e-02 -8.0251299812112015e-02 1.1652086168630175e-01 3.4418726656590781e-01 3.4199914082568617e-02 -2.2093847854038906e-01 1.0770877393850117e-02 1.3132187202463292e+01 1.8857600858767976e-02 -1.5262246659352358e-02 -8.8180906382004820e-01 1.0174689625202271e-01 2.6066399171318344e-01 -1.0387866877300247e+01 -4.3059091222152091e-01 4.6902530101106704e-02 1.2445681539089446e+00 -1.0164857795462551e-01 3.1866496007263850e-02 8.0201777746343295e-02 3.8498684335883104e-03 -4.3300841362659459e-01 -6.8759664541814036e-02 -3.6679601052346600e-01 -2.2790154211418118e-01 5.5938010223693745e+01 5.5865637070204782e-02 -5.4877323181435955e-02 -1.0966984277538212e+00 -4.7379415913252065e-03 -4.3337527360603867e-02 1.2129753097262570e+01 -8.3727047001770394e-01 -6.7918207148111231e-01 -4.7226380537928661e+00 -2.1220228848215125e-01 -9.9642432882423027e-02 1.9693125796777844e-01 -7.6543652723445055e-01 -1.8234622236301410e+00 7.6204509886564320e-01 -1.4590264274426437e+00 -8.5220184365787738e-02 5.1710405920588993e+00 3.3852851651464438e-01 6.8401831334595609e-01 -6.3170338682605847e+00 2.4113571191640587e-01 -8.2306326429508081e-02 3.4887239308380217e+01 2.6280037317460998e+00 -6.6155415450223770e-02 -1.8422751884646249e-01 -1.5877820599156760e-02 -3.7351327797197964e-02 -9.2302705614985381e-02 -6.7545810259285244e-02 -2.4970676215181786e-02 2.0822386688742595e-01 -2.0143562065355747e-01 -3.4528745946572723e-02 -1.6374648307357102e+01 2.9172024365556576e-02 9.3158339202373264e-02 -1.2363271459939502e+00 -9.6141751126459285e-02 -3.5792763785071952e-01 1.3961875264860942e+02 6.1873759381618831e-01 -7.8511540108720690e-02 -9.3118271791821936e+00 3.4936204121182146e-02 -2.9564186686993121e-02 -1.5768033425957750e-01 9.1633548048491525e-02 4.1583078275711094e-01 -3.2891756245678749e-04 1.7776966550029860e-01 3.9590805341652879e-02 -2.1785466738787715e+01 1.0018086870423611e-01 9.7515969484527121e-02 2.5244866076534400e+00 -9.3376069077401647e-02 1.7741050793736562e-01 9.4457353167271137e+01 -4.9142216549599937e-01 1.8785431682037057e-02 -1.5504804603491524e+00 -3.0009297591493428e-02 7.5123878983189285e-03 8.3337825039069224e-02 -7.3153375198472467e-02 -3.2935323236849978e-01 -8.2794491197709985e-02 -3.0957476737968054e-01 1.1394865427115919e-01 -3.7816881975237222e+00 2.8879831024785724e-02 -6.3950777626186173e-02 -3.5497829494799094e+00 2.5410821300342001e-02 -1.2034769929770173e-01 1.4442088665576569e-01 -5.2581866498013308e-01 9.0970692664657224e-02 -8.1043782129043662e-01 2.7065160253270409e-01 -7.8243944636349733e-02 3.0299970980057767e-03 5.1649513661500258e-02 -5.9191007632122572e-01 -3.4756247694323772e-01 -6.9837626039344247e-01 3.6617476177300323e-01 2.3622191397787180e+00 2.7455757942791315e-02 -2.1759372241895297e-01 1.3599057067913911e+00 -4.4272011786172538e-01 1.3244567583948950e+00 2.1900621398317337e+01 -4.3082985842632183e+01 -1.4583300155305139e+00 3.1736953643344499e+01 -1.0767623417841539e+00 -3.2624840368207164e-01 -1.1055097307745117e-01 -1.9599800068442061e+00 1.0341189730316271e+01 -2.0198768992443918e+00 -4.9134976933465317e+00 -2.3610070310079463e+00 -2.3223192521840559e+01 2.5596910471444350e+00 -1.2668716141574126e+00 -5.6568523880822440e+01 1.9720492628024608e+00 2.0053181022406996e+01 
      </Row>
      <Row Index="93">
        4.8332628778946579e-01 1.5091644470158691e+01 3.1770659928035133e-01 3.0599688087137422e-02 -3.4871162158263727e+00 -6.7615028823106521e-02 -1.2760313379311433e-01 -3.2425299027913773e-03 -2.4597707250302442e-03 8.1770612707162779e-02 3.8102840042351777e-01 -9.3295206688132903e-03 1.6289129253571411e-01 1.3657888282386022e+01 1.1049204280563635e-01 1.9616777055516288e-01 -4.0343934922422825e-01 -5.2325192550743438e-01 1.2001670758392322e-01 5.0161416594842535e+01 1.9775922669531559e-01 2.0712035043638388e-02 6.0793728221278598e-02 6.8542195304500786e-02 -2.0237605707325834e-01 2.2831070398112199e-01 1.7903102067093019e-01 3.1730262375001378e-01 3.7480915947242316e-01 9.3207403716262932e-03 -4.3532033197876518e-02 4.6515849994329788e+00 -8.9845582168060920e-02 6.5870160576211506e-02 -9.9262458251613084e-01 -9.3765682439930859e-02 -1.1664708449417086e-01 -2.9944718557641117e+01 -6.9144227850251039e-03 -6.7630694443193265e-02 3.0363235927831713e+00 1.6965630264170195e-02 2.6007333182019615e-02 -5.5501975837998777e-02 -1.6229524438376788e-02 -5.3794750053602972e-02 4.7852847387303832e-03 -9.5510574048108005e-02 -1.6989423804128885e-02 -5.2615000160233381e+00 -1.0050802153556297e-02 1.7322946653191063e-02 -2.1950882053085713e-01 -4.4040658309673630e-03 -3.3107203933630980e-02 -5.8638790901340094e+01 1.4409171066163484e-01 2.3465416787272039e-01 2.8051091675896829e+00 -2.7143630219550352e-02 1.3144740465817706e-02 2.2931992647490324e-01 -1.0853669993804807e-01 -4.2325060591516583e-01 -5.8605593425020697e-03 -7.1923360520164334e-02 -6.2248177937585969e-02 -2.0875101089945858e+00 6.2811464286187668e-03 -1.7278063012342665e-02 -1.3223918537583423e+00 4.6104060216358447e-02 -2.6773856855839551e-01 -1.0048564711320180e+00 -4.0830844108063324e-01 -6.4252192235934036e-01 4.3140331541171033e+00 -2.4639417416363435e-01 1.7199039221584320e-01 -6.3258656025183169e-01 -1.6520738156891163e-01 2.4017491068894600e-02 -2.6977048733994269e-01 1.9671359305742603e-01 -7.9915340996998568e-02 -6.8529011299294220e+00 1.4030577569735217e-01 -1.4399153034104392e-01 -2.1345811243647117e-01 4.3662605287238254e-01 -1.5415486751224616e-04 -5.5992205931358372e+00 -6.6155415461615491e-02 6.4915839883060278e-01 4.8358044840301151e-01 4.3151507637759273e-03 -1.5660683199421710e-02 3.9019222660781183e-01 3.0089656138381722e-02 -2.8148731362290469e-01 2.1265544388860413e-02 -3.6057334007259204e-02 -2.0369279358384319e-02 3.5760700571374127e-01 4.9892600520395347e-03 -8.7971192629678896e-03 1.2724925659653685e-01 -6.6191435142378685e-03 3.3712860783202736e-02 -6.7854766171491860e+00 3.0046640007077074e-02 -1.0709253387672679e-01 6.9674231182351676e-01 9.7739023881225906e-03 -6.5740537209946770e-03 -6.1479569895404595e-03 3.0320139318167127e-02 1.3844462186616047e-01 -8.2760452864878431e-03 6.9319136904086198e-02 9.8586946003964004e-03 6.6190943720435822e+00 -1.2335834351261094e-02 -1.7947287702640979e-03 -5.3333654182240497e-01 4.4782181444868507e-02 -3.0235173144231436e-02 -3.5760270764096667e+01 -1.9444758370248595e-02 3.5172188510763980e-02 4.0261757551984516e+00 -1.7022745030873532e-02 1.8386500354151070e-02 1.7280348550312019e-02 -2.1057197446716754e-02 -9.5339004144983086e-03 -3.8356001935439921e-02 -7.5776949479720968e-02 5.1271807741441799e-02 5.7535773913856705e+00 1.7515531134756332e-02 -5.6891518315093925e-03 -2.3267394350605297e-01 3.3487030343309548e-02 2.5205180935709687e-01 7.5970560967849021e-01 -7.1565418405024617e-03 -4.0821752141233497e-01 -6.6410783935344031e-01 -2.0384149962318143e-01 -1.4650406967050669e-01 -2.9643347266706643e-01 3.5965273802750206e-02 2.5944875899759812e-01 5.1048344582898753e-01 1.6290601899361087e-01 5.7812524772264569e-02 2.2263932419412029e+00 1.5146450586789459e-01 1.2223932638640636e-01 -2.9195319600473617e+00 -2.1614947907824811e-01 1.0582724980110227e+00 1.3965645196663594e+01 2.1245015250121506e+00 1.9165173764765910e+00 2.3767376384364773e+01 -4.6923801460162418e-01 3.7579542925493792e-01 3.0873546426366971e-02 1.9741879811180740e+00 2.8370510679760201e+00 -1.2250897948800393e-01 -1.7741920842883845e+00 -1.2743217404615050e+00 4.0676757323743757e+01 1.5633481932227866e-01 2.8864273566600573e-01 1.5178975316707604e+01 -6.5579531154285586e-01 -9.0020169366136553e+00 
      </Row>
      <Row Index="94">
        -3.3436313949566340e+01 4.8354482326709103e+01 1.4169886534779197e+01 1.1748899527615698e+01 -3.7667054090528802e+02 -8.3977507992049283e+00 -6.1547246978655323e+00 2.2507900614442073e+00 -4.2313183181154415e+00 7.0535425687547066e+00 1.0187809004015953e+01 -4.4164303214976925e+01 2.0159065608296221e+00 4.7836052969268940e+02 4.8060840027163092e+00 -3.0522955342651574e+00 -1.9330480084015744e+02 1.2204021236261376e+01 2.1266581131304907e+01 -5.8641342958549637e+02 -1.0738551278106101e+00 -3.9897501931349471e+00 -2.5167566248208345e+02 2.9406533390923286e+00 3.2535507650822026e-02 2.5529982070683364e+00 4.0861180842953360e+00 -3.3793057973901952e+00 -6.2171405641247617e+00 -1.8559295395723069e+01 -5.5296922418241330e+00 -7.7772144879000621e+02 -3.4501105740817342e+00 3.1505084891852224e+00 -1.4243010905834038e+02 -6.5854615891263499e+00 8.4409116805396316e+00 -1.9378328194093560e+03 -1.2738988999279979e+00 9.9832641142566558e-01 1.9436291112477420e+01 7.5232237188815532e-01 9.9284081222225140e-01 8.6378090167473687e-01 -5.8649411252298833e-01 1.2577823588589112e+00 -9.6497325238943432e-01 -2.1110128010553808e-01 -3.3776188204916746e-01 -1.7494769947512196e+01 -6.7622547897805063e-01 1.8254299825450460e-01 3.1579912707435433e+01 -2.9452533443773632e-02 2.5793989277570972e-01 -1.7598340196011973e+03 -1.1751819280641911e+00 2.5804938091403784e+00 -5.1451684500603540e+02 -4.9597259625969059e-01 1.0233675651470477e+00 5.8476969248187061e-01 -2.5281696062967995e+00 3.8618251953798222e+00 -3.8382168406309916e+00 -2.1880187056089540e+00 -1.5218047705285755e+00 4.1986367802745758e+02 3.0170194510338888e-01 7.8181075686416079e-01 -1.9603217797362964e+02 3.0597513219559112e+00 2.2138707069395942e+01 -3.2289489654157874e+03 -2.7444597962247883e+00 -6.3257886463418878e+00 -3.4420532265959173e+02 5.6455469518898838e+00 -6.9142203944875282e+00 -1.9947823981456679e+01 1.0263868377235127e+01 1.1692628089649233e+01 -2.8343304434557255e+00 8.8547751239979476e+01 2.6531330388718413e+00 6.9295857022385258e+02 3.8552795914992650e+00 5.9355669530961990e+00 5.4506898229823526e+02 -5.8667367901237508e+00 2.8697051400727332e+01 -5.7832890294357012e+03 -1.8422751771526436e-01 4.8358044702874281e-01 7.7259316138089730e+02 7.7727550785879895e-02 -1.5356882142782524e-02 1.9021740587562306e+00 -1.1996718607437309e+00 2.3383135366125885e+00 -2.8713172488549219e+00 -3.9071981785821421e+00 4.5759481359974075e-01 -7.9437213285336247e+02 -7.6995552935212430e-01 9.5072039802685993e-01 -3.3941715935827858e+01 1.7731244247108862e+00 -3.5555648805051590e+00 4.5178185213286542e+02 2.4019630547414863e+00 9.5252503442173975e-01 -2.4443561011374680e+02 2.8145887735442443e-01 1.4423226931423301e+00 -1.2136071425012176e+00 2.4338643417892882e+00 -3.0716711530220451e+00 -5.8291524064620717e+00 4.5387194888741078e-01 -1.3453797587585825e+00 -4.3122088726336642e+01 -9.9067834975117108e-01 -3.8549905181379245e+00 -4.2409943032621243e+01 2.8580740151528801e+00 -2.8049618309301252e+00 4.6319663442222773e+03 1.8034914992445756e+00 -3.7337895134524501e-01 2.2941328051454178e+02 -9.9777955091383319e-02 6.8299415379664197e-01 3.9586844531112320e-01 -1.5635054162052171e+00 -9.9937451808966671e-01 -1.1256542213173191e+00 2.6683659237177153e+00 -2.6820990887322296e+00 -7.4660652109796513e+02 -5.2459015864668856e-01 -1.1054755732017014e+00 2.3915949290950823e+02 9.6550348693943988e-01 7.9845050646301994e+00 -8.5515363616054856e+00 1.0997567976969872e+01 2.9347965221420407e+00 -3.0118528253307568e+02 9.6853851481071995e-01 -1.1708486851193895e+01 -1.2278835076315893e+01 9.0559513515546453e+00 1.5006809439391109e+01 8.3109799421764396e-01 2.0520204400500095e+01 -8.2391107333318203e-01 2.7843717168476127e+02 5.3693525123176373e+00 4.9143255143184916e+00 1.3163705940061251e+02 -1.0552822497498759e-01 -3.9183470498320060e+02 -1.5246977192417955e+03 -3.3983363227587517e+00 -3.1735834994767970e+01 -2.4547262587720525e+03 -3.3024673082938989e+00 2.3291354721343946e+00 -6.6007047468499707e+00 3.7074816529265007e+01 -5.6794352053672249e+01 -4.5351995755318399e+01 1.0178267399169812e+01 3.8650056034607587e+01 -2.5329905137373753e+03 -2.4410304957318772e+01 2.3101027476169520e+01 5.2454091226179962e+03 -1.3280907059935139e+01 -4.8250754171954742e+02 
      </Row>
      <Row Index="95">
        1.1506540154243844e-01 2.9154825785527461e+00 6.6400137733082287e-02 2.0537343566893185e-03 1.0619016543884283e+00 1.1140721100853375e-01 -3.0429380881260154e-02 1.0642123932075950e-01 1.3090335623046193e-02 3.6022248338173211e-02 -1.8397510580120754e-01 1.8943458435629779e-02 -8.7581832027824755e-02 3.4100054118298715e+00 2.4787689790994986e-02 6.9589068447166072e-02 2.5709408202002054e-01 -3.3908411887435236e-02 7.1526646971910732e-02 9.0471577441951467e+00 2.0460544755274204e-01 -2.5355034702813438e-02 2.4074931144260177e+00 -6.9238781366852381e-02 1.8209190602247460e-03 4.2020128997254380e-03 3.4645234387094548e-02 -3.8351859776437652e-02 8.7525168633076703e-02 -9.9561402253436349e-03 -7.4851224031090874e-02 2.1132045278800353e+00 1.2147381996772682e-02 -3.0766795448245485e-02 -6.0546195746167464e-01 -1.0017035635524962e-01 -2.2762113160727855e-02 5.2737686363602192e+00 2.5937171350452481e-02 5.0309646143254227e-03 1.6778673304283021e-01 6.3496279963452529e-03 -6.3608508556695365e-03 1.0599112483790196e-02 -1.1522690883885078e-02 -1.2450231293998942e-02 -1.7123795612889514e-02 2.1744482595294823e-02 -1.4311921433566022e-02 -1.6205100601673905e-02 7.1800748275891307e-03 -1.0026437596944437e-03 -1.5029381813288184e-01 2.0305484180926536e-02 -2.0259902580819333e-02 -7.7119479521928440e+00 2.7910969240958372e-02 2.1632329480563761e-02 1.4662809702275901e+00 9.4024145150300109e-02 1.3802937457334907e-02 -6.5923303583255155e-03 -1.1733259494380421e-02 4.4420697188849612e-02 -1.7853013993556655e-02 2.4898410036909291e-03 2.9387905201028852e-02 -9.3600178456159444e-01 -7.2442572943620109e-03 1.9917141983978037e-02 4.8876464397627806e-01 3.3199373043958091e-03 -9.6004749235697531e-02 1.1866292935641503e+01 -1.4971867466992733e-01 -2.1344335141003090e-03 -3.1961417569037804e+00 -1.0138104395017454e-01 5.1573602201975211e-02 -3.7806982448550991e-02 1.4979835230486495e-02 5.6327490295656618e-02 5.0542188759461190e-02 -5.1446772569528822e-02 2.0172345929057017e-01 5.1919289757806064e-01 -1.6371702316916092e-02 1.9870188039801895e-02 4.4988620229508847e-01 6.3717478618739248e-02 5.9473272472353678e-02 -5.3070689013870389e+00 -1.5877820584440566e-02 4.3151507645786125e-03 7.7727551778184134e-02 1.1755053099898657e-01 1.5579902582964600e-02 1.5220404584954883e-02 2.1912640606903636e-02 5.2925225504467655e-02 -3.2530540096950000e-03 -8.7380082493072192e-02 -6.3021814073298349e-02 1.7504812595424246e+00 -4.9722821954826524e-03 2.2027327664937368e-02 -7.6502685398896686e-01 -4.7292328479249246e-03 -3.7120358985154311e-02 -1.4248162635711168e+01 -2.9649440758774348e-02 2.1017071200683524e-02 1.3815270090242919e+00 -9.6350421008664089e-03 1.6508087814091743e-02 -1.2264119783695793e-02 -8.7610169294786711e-03 -4.6660095110171718e-02 6.8535055486327323e-03 -6.3648801353874740e-02 5.3528890243275118e-03 9.4443469358546750e-01 -2.1961061182696362e-02 -1.2499697333149262e-03 7.3264285616009950e-02 -6.4358394806378394e-02 1.7478246537969699e-03 -7.8538468631979157e+00 4.9304553160350595e-03 6.4137044188399273e-03 -5.7997087885153586e-01 2.3343977187858800e-02 -1.5526512837551465e-03 -2.4306483671743262e-03 1.1385219837353328e-02 1.5348820512495642e-02 1.0499848493762287e-02 -3.2173253025075010e-02 -4.5579245259213197e-02 7.0690874552813909e-01 1.6348634858267867e-02 1.2134930259500798e-02 -3.1156702223393218e-01 -2.8207447089245163e-03 1.0107765117090595e-01 3.7047563530644423e-01 7.6988974342950017e-02 -2.8765934962209961e-02 -1.4318641273300414e+00 -4.2317989114429966e-02 1.1215080935263813e-02 7.9168609417332780e-02 6.9192833007344801e-02 6.3273554053266512e-02 -5.2694929900083176e-02 -2.8341669924425536e-02 -1.3119700415852281e-02 2.6730147060735248e+00 3.5805756017360399e-02 5.9175744052135694e-02 6.4655769301053589e-01 -1.8386466836512461e-02 -1.6306314208903649e-01 7.8550526965015939e+00 1.5629131813882009e+00 9.6802743479696973e-02 1.6360432543132568e+01 4.7715408088287958e-01 -1.7452754507829790e-01 -1.0639450607822393e-01 2.8484427132607704e-01 -6.5755018061757475e-01 -1.5836388031897197e-01 4.4488519061188464e-01 8.3578523546375649e-01 1.8099772192855553e+01 -2.6328683386161966e-01 -6.1028396032779098e-02 -1.3155917186050749e+01 4.6744294926792584e-01 -4.4958507436329820e-01 
      </Row>
      <Row Index="96">
        -1.4123080762135065e-01 1.9540318924300834e+01 4.8083547499834955e-02 -1.7476919564994278e-01 3.6780457714451860e+00 8.7117922359952055e-03 -2.7469436230822297e-01 -7.1950815772012622e-01 3.7154144693012169e-02 5.9492279519330504e-02 -3.5740039197115714e-01 -2.2203767766626742e-01 -3.3817861121486423e-02 -1.4357461327801171e+00 -5.9323825666978303e-02 1.3251806371258229e-01 -1.6757060931727894e+00 -3.4473098603921670e-02 -4.3430184838938002e-01 -2.4037940676916371e+01 2.6193050813943186e-02 -2.1903132008421047e-02 8.2076023741071964e+00 4.8604134701652479e-03 5.4327350390625684e-01 -2.7418006571579129e-01 -8.3543871954027904e-02 8.9471670883980808e-02 8.9766592172991966e-01 6.4275741206157394e-02 -1.6846486968291530e-01 -1.4254841564396650e-01 3.0009887162009627e-02 1.5442491529049124e-01 -2.4009384886777205e+00 1.7280919547267357e-01 -4.8310656983677758e-02 -3.3655816560322900e+00 -2.5055073422337482e-02 -8.3998961022805352e-03 1.3836991983573417e+00 2.0935139918125678e-03 -7.9507362107543056e-02 1.5860245271452467e-02 8.3271560384166055e-03 2.0571164408203835e-02 -1.7753938034429018e-01 8.6462612692506990e-02 1.0648437006178874e-02 -7.5678823694991770e-01 2.7678117380908307e-02 -8.5103497150544882e-03 -8.9425173872632269e-02 3.6997682521727970e-02 7.2309229247543350e-02 2.9256597498793624e+01 -2.0499898650577997e-02 2.3431775887475137e-02 -2.7780002815601827e+00 5.4982695702188167e-04 1.4166185939942610e-01 3.1266972606543320e-02 4.6630527064419391e-02 -1.1191902343498761e-02 -6.9589050926991192e-02 -7.7597978804317069e-02 1.9835287551726033e-02 5.9154218128559748e+00 -5.0407823719207379e-03 -1.2269508318957323e-01 -7.5107810555402166e-02 -2.7312370963283872e-04 4.0130593088648581e-01 1.3576504588482035e+01 -1.3184345859401037e-02 1.0282394871086720e-01 -3.3438318488491690e+00 2.2538784383221586e-02 -2.9762465085393719e-01 3.2695177844440482e-01 9.2956639253399809e-04 -2.2673274201816218e-01 3.1041377027667127e-02 1.1338495492528550e-02 1.7422636174218151e-01 7.4352300010451140e+00 1.1708534893551834e-01 -2.5525523603736533e-01 2.9764070999930103e+00 -3.9229903405819755e-01 5.6862418548973892e-02 2.5326848676392615e+00 -3.7351327770876908e-02 -1.5660683219393512e-02 -1.5356883360891249e-02 1.5579902575363500e-02 3.6223471132112195e-01 -4.5067795017430079e-02 2.0659965870967689e-02 3.1227934428448734e-02 7.1173273249406144e-02 4.2133206754558894e-02 -2.1911580255270513e-03 -4.0863168039506128e+00 -2.0315078288486443e-03 -5.2027326410749808e-02 2.9237750966446185e-01 8.1173653842077975e-02 1.2166187404186957e-02 1.8201917854333601e+01 -2.4613498015719770e-03 4.1622661142536543e-02 -3.9810193953422290e-01 -9.0511532028507702e-03 1.4210389553726177e-01 4.3492327167681921e-02 -5.6822875941792361e-02 -5.1167922698107660e-02 -1.4844369091591147e-02 -5.7159542221363324e-02 -9.3539712504018269e-03 1.8823646619877223e+00 -3.5325283486040693e-03 1.0170006876431081e-01 9.9165213550653775e-03 -9.9091055383530247e-02 4.2115998617659134e-02 6.9340965834489054e+00 -1.2534848403038645e-02 -4.1236259475581072e-03 1.2492711588206202e+00 -1.2111121451873430e-02 -9.6603004876678611e-03 -1.2901007938436848e-02 7.5209479701017767e-03 -3.7515651985911447e-02 3.9904351744829647e-02 1.4048708706344382e-01 2.2826044329361750e-02 2.2878051308736929e+00 9.2988560514498664e-03 5.3892769156616005e-03 -7.0590676414486020e-02 1.3394583329655596e-03 -2.2294840727144319e-01 -2.6632584939950021e+00 1.3801755951070659e-02 -1.1643339262426292e-01 9.2726846583051703e+00 3.6300290490019080e-02 -6.8945928392574601e-02 -7.1198874250946353e-01 -1.9422706995399660e-02 -3.9346509198717017e-02 2.3163516662756978e-01 -1.7734750241201291e-01 -1.7721133344117401e-02 -6.7143580954915905e+00 4.1699609687158024e-02 3.7202906641739392e-02 -1.0894477262249325e+00 -1.3203285193581094e-01 -1.0665507712704787e+00 -7.9139396335738965e-03 -2.2856823942194382e-01 3.4753242256410877e-01 1.2037287487521521e+01 -6.2829279408667560e-02 -4.6077741886650916e+00 -8.5210927157090666e-02 -5.3990852985725313e-01 6.5028120626507480e-02 -5.3443836281746826e+00 1.7147309018771342e+00 -5.6954320909696321e-02 4.7599118064000812e+01 1.3987318952694956e+00 -1.1511070988702974e+00 1.1427036185545727e+01 4.6880896610161776e-01 1.8469211062034169e+01 
      </Row>
      <Row Index="97">
        5.0390023866251976e-01 -3.5533992109235328e+01 2.1442133899043841e-01 1.9667776625565603e-01 -5.5697469448182302e+00 -3.2462449419020079e-01 -1.7414798330244399e-01 9.9781014494134346e-01 4.7674573063757775e-02 5.8313573393466052e-02 4.9252869079350653e-01 2.8010512968203427e-01 3.6077108604349623e-01 2.0141685445579846e+01 1.1308006648158764e-01 -1.2337364529788120e-02 4.9346866959676872e-01 -4.7144797575773179e-01 3.1538324290491987e-01 7.6502771493568645e+01 1.1529900819347519e-01 -5.8665427672927550e-01 -4.3020747600145324e+00 2.4535704527381819e-01 -3.4964518400855837e-01 7.6494887116529142e-01 2.7845577388351650e-01 2.6181182905907407e-01 3.4759055135628725e-01 -1.2639663113817035e-03 -4.7887003273415440e-02 1.1739678059348401e+01 -1.0104453306164091e-01 7.9176957327278419e-02 4.1166738783516954e-01 -2.3012005563169891e-01 -2.3266911052318900e-02 6.6976145823678994e+00 -1.1825269124793057e-02 -3.1381617614111040e-01 5.7945618855923708e-01 1.5538714991205571e-02 3.1294292941993242e-02 -2.5059312748447049e-01 -2.3177845805517322e-02 1.1044002646336132e-01 5.6448317123758446e-02 -1.1271701126185979e-01 -2.8694342661823614e-02 7.5858101246941256e-01 -3.8304857823480615e-02 -1.7238942584322514e-02 -8.7654488195980196e-01 -9.5040624846929073e-02 1.0629270301163452e-02 -4.4410116047819315e+01 8.6416289556854375e-02 8.7647610059652714e-01 -8.1548271359618640e-01 -5.6601567034511080e-02 2.8294161615568136e-02 -5.7722037039238228e-01 -1.0846994890394665e-01 -3.7268155015150117e-01 -3.7823009445305367e-02 -1.0675417708492466e-01 -7.2768358475732320e-02 2.9899550179867340e+00 1.7713453107086052e-03 -4.1049038111064862e-02 -1.8346799483131460e+00 1.6540541140118872e-01 -4.7354203047181653e-01 3.5074983377349032e+00 -3.8877671991692225e-01 1.1345165844675259e-01 2.1321036663404938e+00 -1.4427058362030837e-01 3.2939280517425085e-01 -2.6297420719573177e+00 -5.7341171403506364e-02 3.7562162966497548e-01 -4.5667122962885132e-01 -5.1213988882140585e-02 -3.4493999227747157e-01 1.2968543204852281e+00 3.0112503100576532e-01 2.7972739122581036e-01 -2.0268944691596946e-01 7.2278970040765578e-01 -5.7968451970863200e-02 -1.0393613074132453e+01 -9.2302705618568542e-02 3.9019222661901076e-01 1.9021740591685106e+00 1.5220404591025359e-02 -4.5067794978923992e-02 1.2832135774975826e+00 4.4718832817673290e-02 -2.0866486126577377e-01 6.9289244387617188e-02 -1.1269392129175090e-01 -4.3676576301393169e-02 -1.8024887713099389e+00 3.6810286144985049e-02 3.8338514614866259e-03 1.3523154732098397e-01 1.1101138398574406e-02 1.3968999126866777e-01 5.9981572275908590e-01 1.1119453418346886e-01 5.2625876321428233e-02 5.6854239669010909e-01 1.5780795560077276e-02 -2.3120231810597858e-02 -9.2006982087031508e-01 -1.0931835135748857e-02 -6.2450407756970971e-02 4.4836625951317099e-02 3.6093998543940020e-02 -1.4825445850989882e-02 9.2647062713652097e+00 -2.2585381306332364e-02 4.5754627582754726e-03 -2.3298636666901973e+00 6.4971342031487134e-02 9.8786231541966862e-03 6.1029676201014794e+01 2.6166287236270194e-02 2.7924374003734692e-01 1.4248188071990544e+00 -5.0935685797853902e-02 2.4332350143009052e-02 -5.6626473382965226e-02 -1.3365205427478676e-02 -4.5972779203134251e-02 -1.1952450506502410e-01 -2.2876281365757534e-01 8.9389333729029241e-02 1.2505813770251750e+00 3.3424449971031236e-02 9.2321533630496111e-03 5.0599427125626484e-01 9.4898659592139889e-02 3.0705969020787205e-01 -8.6489099832401539e-01 -1.8747105911041229e-01 -1.5313115205936040e-01 -1.0473080768600234e+00 -2.0732952181484360e-01 -2.1000397135516932e-01 -2.7255908223206493e-01 2.7125585280749909e-01 6.0107142110387657e-01 5.0981992524009989e-01 2.3799470409857465e-01 -9.3759502505280645e-04 1.4652752240222068e+01 2.6858027267389972e-01 2.9233059041944820e-01 -5.8473598512877345e-01 -6.4066923962919575e-02 1.0871485793232143e+00 1.2686050732800201e+01 1.1419211599494914e+00 8.6806931480853962e+00 1.3201417188766303e+01 -1.0015201218442327e+00 8.2128908508612952e-01 -1.1236932546046091e+01 1.2265343791061534e+00 1.5987689149797220e+00 -7.9210681701067431e-01 -2.7224315288230301e+00 -1.8107186581388923e+00 3.5874454311039408e+01 1.1792010577883429e+00 -2.2779346682681556e-02 2.4100169277215826e+01 -1.1772530436500510e+00 8.3091877782408794e+00 
      </Row>
      <Row Index="98">
        -6.1384161771546197e-01 -3.0327399290947838e+01 -1.9241003401713241e-01 3.4841507281365425e-02 2.0611978885542825e-01 -7.8565209852605414e-02 2.5127808281168235e-01 1.9532233339616195e-01 9.1710992881973374e-01 -2.7265442133171675e-01 -2.5249302953872144e-01 -4.9996133039949431e-02 4.4569639371141827e-02 -2.7948987557125333e+00 -1.3692512867514009e-01 -1.8928027287813648e-01 1.2644586477794653e+00 3.6591406812220550e-01 -5.0681151617695452e-01 -5.1610699476422823e+00 5.7155898363556723e-03 -4.7519685529084019e-02 1.4268292477497568e+00 -4.6045419189191028e-02 1.3332051171179368e-01 9.3359205878866494e-02 -1.5330857648864457e-01 5.2071446296946378e-02 5.0050046792375361e-02 -7.8682329576205134e-03 -1.5046836316582854e-01 -5.2490308710701470e+00 -1.0395892967834479e-01 1.9545431703628394e-01 -2.0819207378179430e+00 3.2891188074129107e-01 4.8961992232097115e-02 2.8114113285252710e+01 5.5515481552201998e-02 -1.4228584982176141e-02 -1.0419196639166648e+00 -4.5082265530707599e-03 -1.4637274211559480e-02 -2.6639034888112784e-02 8.0101726194144504e-02 4.1419249944710808e-02 1.7466433021068650e-02 3.7228822899347952e-02 -2.2201084763417811e-02 2.7062999694719680e+00 4.3870189769433347e-03 3.5455275380057147e-02 8.7967608451030022e-02 -2.1811485818392928e-03 2.5895316902769605e-01 2.4049548573750990e+00 1.9954363393822727e-01 2.6184169681973929e-02 -6.6291011597150695e-01 3.5509394117732546e-02 1.1746660587338364e-02 -5.6288088433040950e-02 3.0415426899733539e-01 -9.4338724037626429e-02 -2.5788548950077539e-02 1.4626508948288353e-01 4.4905251530969192e-02 6.6257891199094185e+00 2.3335038793370247e-02 2.3512215232010525e-03 -8.7173377005349284e-01 -6.5567135925300390e-02 -1.3561548157608155e-02 7.3872692416130121e+00 1.3829205844658471e-01 -7.0477335808410424e-02 7.4326215217728393e+00 1.4124051189395015e-01 -2.1489291047181960e-01 -1.9585649322639698e-01 -8.5978670457722595e-01 8.4895366732575847e-02 -7.4072163995547391e-02 -5.5082123276609107e-01 -2.5011810169929927e-02 -1.4049491877550768e+01 1.2800130696578718e-01 -7.8960468346248161e-02 -8.4863217800138258e-01 -5.8064714122869940e-02 1.9267637748915201e-01 1.7793200762043721e+01 -6.7545810308273960e-02 3.0089656152783778e-02 -1.1996718630028316e+00 2.1912640628727532e-02 2.0659965910186928e-02 4.4718832811236509e-02 3.6755930059405179e-01 -3.8461414859624399e-02 -2.2141110065098196e-02 4.0857106545094474e-02 1.3406895840337815e-02 3.6615587206415068e-01 2.2128750074115751e-02 5.4021735074788468e-02 6.5964256586032211e-01 1.4913068785672445e-03 6.0429238365291876e-02 2.8634392570897553e+00 -2.6321793694338291e-03 3.0192473514512486e-02 -4.1423194464577939e-01 2.4966028885409774e-03 2.4149387378583742e-02 -8.3782718501931419e-02 -5.3734586524748593e-02 -1.1646515625771715e-02 -1.0326087881203705e-02 -4.3231566249764763e-02 -1.2193120470157248e-03 -7.1315832918410615e-01 -7.9862456835640347e-03 -1.1417966713693928e-01 -3.7944039375344696e-01 -3.9068667974047649e-02 3.7305406972628449e-02 6.5824339485871768e+00 2.6186482304587262e-02 -1.4570388886231994e-02 4.5056296771880033e-01 2.3579248405105835e-02 2.1207355481695805e-02 -1.2450134435830013e-02 8.7298978573603456e-02 3.5250384069441421e-02 -2.1737767859917517e-02 -9.9832387377826043e-02 -8.0123511501495659e-02 2.0438156498637592e+00 6.0805271787195483e-03 -1.0083624438808170e-02 1.2947067532809569e+00 1.4893502333155145e-02 -1.0176583298300546e+00 -3.6438364931886369e-01 -2.6755598807296532e-01 -7.2993335693150085e-02 -3.9826402222263896e-01 3.9092100242782424e-03 1.7052594711667826e-01 1.2861168174632431e-01 2.1190363124258635e-02 -1.2937002857073576e-01 -2.6249806687059773e-01 -4.9591387485742955e-01 -1.4813876966953660e-01 -1.9598459652420075e+01 -1.0654309053473077e-01 -5.7961464814912600e-02 1.7233003707088912e-03 6.4190558781279172e-01 -8.0567200668313466e-01 -7.3569646641514446e+00 1.6364984944522081e+00 2.9191213663749283e-01 -7.8664958135185223e+00 3.8560613949567335e-01 -2.1419999188822364e-01 -6.7489807356055620e-01 -6.1245404952353741e+00 7.2647998229544652e-01 -2.6982179996706346e-01 -4.0106214512057736e-01 1.0610196633006423e+00 1.3961805172494223e+01 3.5414357337762192e-01 6.5589137666298791e-01 2.0987752073279726e+01 2.0046439098664193e-01 -6.1566682031269346e+00 
      </Row>
      <Row Index="99">
        -7.7771271646977047e-01 -1.9004971006916392e+01 -8.0702015671601984e-02 -2.6962454452247697e-01 5.7075502848622983e-01 -3.0772454030259577e-02 1.5204253668235235e-01 -2.2304734923897684e-01 2.3144853490772510e-01 -9.2229515279836360e-03 7.5714022716239116e-02 1.7802103445091400e-01 6.7160162587800443e-03 2.3880751859456240e+00 -1.7553163703215824e-01 -1.2930991981475712e-01 1.2251675562935227e+00 3.1207317728221429e-01 3.3369517516321168e-02 1.3265758616034509e+01 2.8688474393759988e-01 6.5811107840190575e-01 1.5006563015925170e+00 -9.1158877941277583e-02 8.1193178826129475e-02 1.1959054821509074e-01 1.4255800957078235e-02 8.2472879816811284e-02 2.8336215503522277e-02 1.0687660483730727e-01 -1.2297552437840115e-01 -1.2755204335353516e+01 -6.0947716643973290e-02 -1.2678065798539839e-01 -2.0082156804619853e+00 1.4513846695018426e-01 -5.7211868889010642e-02 5.0395140230669995e+00 2.7830951840652263e-02 -9.9358267228647934e-02 -6.3158094014961641e-01 -1.6431258082501898e-02 -1.7965364873030354e-02 -3.0119437378012481e-02 1.3679799107763846e-02 -2.4166184594681339e-02 -9.8108290621259364e-03 7.5881888479072845e-02 9.1064755935331698e-03 3.7031217577284892e-02 -8.0091377238502015e-03 3.2658957820582923e-02 4.0390479598847262e-01 5.4366668799842977e-02 1.8743184567877513e-01 4.5700354177280289e+01 8.1030443558389953e-02 -4.1152601812542877e-01 -2.1207219123790004e+00 1.0997217862609032e-01 1.2914966234468750e-02 -1.7876440459359300e-01 2.6582373256485825e-02 2.5114362316853578e-01 -8.4854571700130776e-02 1.4051020383303503e-01 8.8961734861749520e-02 5.6868732247243621e+00 2.2732985243227866e-02 9.5116148608618500e-02 8.1871561869166698e-01 -1.4311943251372117e-01 7.8417316600907860e-01 4.4788169451294415e+00 -1.5885034702025286e-01 -7.2592352820131351e-02 -4.6663186673167392e+00 2.2524644684294251e-01 -2.0981583428374972e-01 2.5217536272135188e-03 -2.0162760564784998e-03 -4.3429953743890359e-01 8.9833361797870270e-02 -3.7044736819579971e-01 2.0728065257230421e-01 -7.6913126280411692e+00 1.7013487296249519e-02 -3.0110433065356768e-03 3.2113572382610038e+00 -4.6303605205596876e-01 3.4436799237622395e-01 -1.5869139465924320e+01 -2.4970676213359799e-02 -2.8148731362930701e-01 2.3383135389319856e+00 5.2925225511404786e-02 3.1227934449194805e-02 -2.0866486127239803e-01 -3.8461414878779354e-02 6.3841176364308261e-01 -8.1189671865868895e-02 -3.5525792837280745e-02 -1.0513937442929611e-02 2.2013393336037268e+00 5.0414019824868150e-03 5.9385863239786785e-02 -7.9451884245023940e-01 -1.0056596122207218e-02 -1.8985460124755793e-01 -5.1452113132735406e+01 -9.6855785672157912e-02 9.0574094556692408e-03 3.3242688164434333e+00 -4.3052933442355723e-03 5.5720557712215957e-02 2.8281109957125850e-02 -4.6216000483234154e-02 -5.0357702343057809e-02 -4.9402383253166704e-02 -4.0521717823065018e-02 -4.6556036080058760e-04 -6.4540441899686556e+00 9.9973507266359896e-04 -1.5081568628413855e-01 1.8747468415153068e-01 -6.7940826119392561e-02 2.1055467383388637e-01 1.8471792625775080e+01 1.0467973889040549e-01 3.7389536973958748e-02 -2.3961372160100800e+00 4.3924947550862736e-02 -5.1432519289953404e-03 2.2196816783316198e-02 5.1881140174687479e-02 2.8254479549127964e-02 -4.3891059248033493e-03 -4.3792758419401334e-02 -4.7396619811146401e-02 3.6678543234427252e-01 1.9450063325436084e-02 8.0693724617271201e-03 -2.2678623234859607e-01 -3.0581697445624112e-02 -2.2208756054603429e-02 2.1079779995144321e+00 -4.9234438095770994e-03 2.2273903000497500e-01 -6.9767543980694224e+00 6.4383066248635185e-02 5.1286005343133621e-02 -1.5157184274790336e-01 2.0130812618392085e-01 -2.8621080502555180e-01 1.3698931740270126e-01 -6.7162927101789449e-02 4.6669578510793799e-02 -1.2361013803169580e+01 -2.2133318169102792e-01 -2.4660252912962727e-01 3.7920060031356022e+00 1.0518574403414166e-01 -4.4222844179994869e+00 1.2276907171570937e+01 2.4831519221167717e+00 2.1743103110026993e+00 2.7116716489425876e+00 1.1050258680122838e+00 -3.3395081086002176e-01 -2.9728265440457147e-02 -2.5637753293648835e+00 7.8631336822300546e-01 -3.3132429505269778e-01 2.1268072893376377e-01 1.3717619119211832e+00 -1.3095325502252688e+01 1.3915534478471869e-01 6.1932815420986609e-01 -8.2012154202132486e+00 7.4990535241144429e-01 -1.7356503516507662e+01 
      </Row>
      <Row Index="100">
        8.3618359890260963e-01 3.2260524939163901e+01 7.2561690417017100e-02 -1.5479352113949138e-01 5.1469580849699916e+00 2.4439640031889259e-01 -6.6199182258454559e-01 -6.7137967369861040e-01 -3.3062267184540067e-01 1.3303986970368775e-01 -1.9344552889393496e-01 -2.8830512804895608e-01 -8.0982455294523553e-02 -8.7554377410495121e+00 1.8507403764532188e-01 1.3705034165608185e-01 -3.0937118671051786e+00 -1.3066000797406052e-01 -4.4370673740373495e-01 -2.5532554392336692e+01 -3.2405784973880802e-02 -5.3880727042989726e-02 8.1495800907422442e+00 6.8586193318876609e-02 1.2521811062368660e+00 -2.5517071325515633e-01 4.8499352353160552e-02 1.7651554668434155e-01 1.2734271206832477e+00 -1.1467562947484466e-02 -5.4335643477356865e-02 9.8839554222524413e+00 2.4202396218157049e-01 1.8641388846749624e-01 -1.9149592336225181e+00 -4.2759517888690401e-01 -5.6252168343089659e-02 -1.7655327513073185e+01 1.6019628324717705e-03 3.0893055033420547e-02 1.9041936882689687e+00 -1.5157999497952268e-03 -1.6823629545976948e-01 1.0554517116106665e-01 -3.7758742768262410e-03 3.5689048454687455e-02 -1.3351822223520937e-01 4.1392357381724310e-02 4.5940737710802870e-03 -1.4207128515577434e+00 3.8166581405356559e-02 1.6682968174118518e-02 1.4665182533812682e-01 -4.1576690418864803e-02 1.3927691721209179e-01 -1.4060555893415108e+01 1.9955370472413136e-02 1.2427895923166377e-01 -3.2241937009593280e+00 -5.7087245206682624e-02 8.4679915343077727e-02 2.0664488478503706e-01 -5.2797256315364471e-02 -1.1724360667512235e-01 9.0991966170470562e-03 -9.6288186275437226e-02 -3.4123475417189297e-03 6.5230721782185341e+00 3.6063569390912154e-02 -6.7363706248630972e-02 2.4957306655766076e-01 9.2821824040195455e-02 -2.2481846723297447e-01 1.9553308474373619e+01 1.3005795567948386e-01 1.2553808923573673e-01 -2.5260455762862382e+00 -2.7019091676479290e-01 -4.0417830296845580e-01 2.9319893737110492e-01 3.9037900079378673e-01 -3.8858398413900175e-01 9.9645729332421135e-04 1.1101950902599755e-01 -1.4189938139864522e-02 9.0459844644057856e+00 -5.2990579548213179e-01 -2.8866093833091300e-01 1.4212419264487046e+00 9.0081429071171670e-02 -7.4742009861218150e-02 3.2244960244865823e+01 2.0822386692389472e-01 2.1265544367722988e-02 -2.8713172509377975e+00 -3.2530540296197841e-03 7.1173273192421505e-02 6.9289244359155511e-02 -2.2141110091730032e-02 -8.1189671884180470e-02 9.3878994804941129e-01 -7.2248062956570047e-02 -7.2168971389756642e-03 5.2655810255718620e+00 5.1071610162267689e-05 -5.6476712646174043e-02 2.6771102473433572e-01 -5.0695994844428327e-02 -1.3994905958952053e-01 -1.8869735046386609e+01 -4.1445093382104226e-02 4.3383431725948718e-02 4.2611820912715670e-01 8.8763332848120768e-03 3.2038880765694167e-01 1.0248630517665180e-01 1.5468166933580996e-02 9.9885302093816186e-03 -3.8518452683223359e-01 5.3523517934834786e-03 1.4573181921258893e-02 3.0450883798277033e+00 -1.8889924887006471e-02 -3.2026349843405910e-04 3.1426891204483498e-01 9.1455848373011683e-02 -1.2402053053254924e-01 -8.1515842300336772e+00 2.4555206249106121e-03 -2.3922631759134116e-02 1.0330248274177087e+00 -6.0456776822119807e-03 9.5353143214083502e-02 -6.1611784983932161e-02 -1.1006315850744408e-02 -7.2645970558715689e-02 -1.5096407109810617e-01 1.9720432586660497e-01 3.2865566119451906e-02 4.0064085899909045e+00 1.0122681527167998e-02 4.5393975257495001e-03 1.0815472238903014e+00 1.2318123361581890e-02 2.3102502288879945e-01 -3.8912998841118309e+00 2.6222611657536415e-01 -1.2350449256809037e-01 1.1756762081065945e+01 6.2597327838902150e-02 7.8572754106000509e-03 -7.0149416759210370e-01 5.9348560756798271e-02 -5.0853801200834825e-02 7.3104498140829666e-01 -1.2673535727319829e-01 -1.1144361179673190e-01 8.2504920796554471e-01 -8.2090514461593794e-02 6.5162331748653324e-02 -3.3735756788277103e+00 -5.0443004827053206e-01 4.0166761788404948e+00 -7.5743596598324370e-01 -1.2790852392630372e+00 -2.2016620286454458e-01 4.4140375719344540e+00 -2.8578558308471003e-01 -8.0827052472417336e+00 7.6791828139849017e-01 1.4551427873080345e+00 2.9065518196218931e-01 -1.0472548489883204e+01 1.5108461571992322e+00 -6.8150561447943403e-01 4.4114181235617494e+01 -8.8283692919913648e-01 -1.5509863215166009e-01 1.7516221174740281e+01 -4.2409318236626892e-01 2.1991326607359191e+01 
      </Row>
      <Row Index="101">
        -7.3687902357451796e-01 -1.9585900910197935e+01 6.3746454574960754e-02 -2.0392144593015243e-01 -4.9164997713374756e+00 -1.2742269932875416e-01 1.0065273455103635e-01 -1.2540334072474235e-02 3.8647270255943222e-02 -2.6358418649727150e-01 6.3317476620667268e-01 -4.7009789778507305e-01 -1.1319537148474851e-01 1.5881049746842944e+01 7.3780407497369305e-02 -3.1985993659297035e-01 1.1727779421440605e+00 -2.9155633257837210e-02 1.8417107717800030e-01 -9.8689854044209824e-01 -9.3573861483439880e-02 -9.2330669382157352e-02 4.4391946908812328e+00 -6.3517908699277204e-02 1.3062583171347819e-01 -7.2443031388749662e-02 -2.2438585230133798e-02 2.0173539758719716e-02 -1.1273853128717257e-01 -6.6599475148742648e-02 -2.0388414703511479e-01 4.3481275457685591e+00 -4.1042117914664528e-02 1.5986405190626918e-01 -2.0093054898952607e+00 5.5648500256169053e-01 -5.8943471521662183e-02 -2.8941458800190446e+01 -5.5294603367986403e-02 1.3164027041171061e-02 2.4254894313654383e+00 -1.8176198423503709e-02 3.1397851997335718e-02 1.6636849496457495e-02 -1.0889537948703898e-02 -5.9087501259901254e-03 -2.3947197591469904e-02 3.6975149437650190e-01 1.4041449160029029e-02 -4.0024066734078545e+00 -1.3564868903582633e-02 2.5606462715432876e-05 2.6504714751590591e-01 -8.5280213211874845e-02 9.7203913973807898e-02 8.3160309625851681e+01 4.7606056725274182e-02 -4.2682691983505494e-03 -4.9102219110500842e+00 1.0370701077358513e-01 -1.1036612348186425e-03 2.6640743277079881e-03 3.7484637055077263e-02 2.9748571396249091e-02 -4.9995300070788673e-02 4.1133321375952969e-01 1.0851138702010465e-01 6.4780570396672843e+00 1.1957139177446452e-02 -2.8872680348071333e-02 1.4052264734352091e-01 -8.0220097936685747e-02 3.4109119420535999e-01 -5.6871978301289744e+01 2.0481593615436541e-01 2.8297097629285584e-01 1.2550408740256767e+01 1.9162728519658839e-01 -3.5551340942373466e-01 1.0740089573689315e-01 -7.1806729250553439e-02 2.6329950652852568e-01 1.7870310725953326e-02 4.4212131803029253e-01 3.8143193055025049e-01 -1.5671121575224630e+01 4.4587046105308677e-02 3.6969289981309184e-01 -9.9038794723567003e-01 1.0365703374809965e-01 2.6809695621699703e-01 4.3855610328338329e+01 -2.0143562066650128e-01 -3.6057334019631626e-02 -3.9071981784436272e+00 -8.7380082493671685e-02 4.2133206767115183e-02 -1.1269392131448086e-01 4.0857106540147653e-02 -3.5525792823588365e-02 -7.2248062941936197e-02 1.1618646528050953e+00 4.8210785476650669e-02 -2.2170694769029531e+00 -5.1982903885935128e-02 -6.3253344581592597e-02 1.4280226653527670e+00 -3.3285115301787904e-02 2.3450654074024047e-01 6.6238539165028783e+01 8.5842781461545892e-03 3.7485271496122685e-02 -4.2798256942948409e+00 -4.9537235167517180e-02 -2.4716367956583385e-02 9.6450950320937201e-02 -3.5740009974072784e-02 -3.3264222201026150e-02 -2.4345876213617501e-02 -2.8450341563460868e-01 -8.2352132002637912e-02 9.3979073458170070e+00 2.1636281765341936e-02 -9.3047241116808177e-03 6.3119290845628595e-01 2.3536731531669175e-01 -1.5472319555024805e-01 -1.1043751313062117e+02 -2.4036374860484627e-02 -5.0222756420477466e-02 7.2864026452203587e+00 3.4309927846916777e-02 -1.5787482746800752e-03 -1.6934721952246212e-02 1.2979018875651963e-02 7.8499566384537811e-02 -2.4047464222061166e-02 3.7267075868853783e-01 -2.1438101976218982e-01 -4.0358008573250235e+00 -8.2915066023872858e-02 -2.4045745098191240e-02 -2.8640911985656947e-01 -4.2534576676147018e-02 -4.8058515612895936e-01 -1.1367731138340860e+00 2.0176384159733551e-03 -5.1508473592166891e-02 2.3636348488410310e+00 -4.2403315362549654e-02 -6.7674213356300472e-02 -3.8267310087286344e-02 -1.6670573335501149e-02 4.6856853783522001e-02 4.9356348005130501e-01 -1.4506123333096654e-01 -4.6690510458860301e-02 1.5854247473825565e+00 6.6558269285965088e-03 1.6686204042145714e-01 -7.9300489584435141e-02 4.0241936059130445e-01 -5.5633223414652271e+00 -6.3242473494394433e+00 7.5888239093585230e-01 -5.6475239893968876e-01 1.2233797050082948e+01 1.2339092201548123e+00 2.8689219846622072e-01 6.3474859768260328e-01 -6.4167123624823785e-01 -8.6600670856369666e-01 2.0148264341692279e-01 7.5417928265121352e+00 4.3979699585067671e+00 4.3855587132116348e+01 -3.4554961287928609e-01 2.0616187898609528e-01 1.3278071440355951e+01 -1.7469799404000339e+00 1.1042791855216356e+01 
      </Row>
      <Row Index="102">
        -3.7710862315031513e-02 -2.9090573486123965e+00 -9.9003418698501891e-02 2.5609938920805299e-02 -4.2330729601653483e-01 1.6168676791793068e-02 -6.7576463681683935e-02 -2.7013133360682728e-02 1.1821141168394171e-01 -1.2855978583777708e-01 1.1087233342603880e-01 -4.8022679461916884e-01 -2.4606103169482640e-01 -5.2057025366754353e+00 6.0469288510863202e-02 9.4734870953147934e-03 1.9665457672450742e-01 1.3691179445887955e-01 -6.6695794632490452e-03 1.2940736902608831e+01 -5.6163988683480381e-02 7.8856000260660822e-02 -1.6523828548334070e+00 -3.4093818467042625e-01 1.2059526207073679e-01 1.6168103142797263e-02 -7.9444197933178834e-02 -8.5140145791656630e-02 -1.4124290092533079e-01 -3.7472446783700258e-01 1.2869526870057685e-01 4.1665392072337548e+00 -1.3329722705549253e-02 -1.2876171396335179e-02 1.7989715452426547e-01 9.8040808984873939e-02 1.5834093826885193e-02 -1.4181836227240060e+01 -5.7664460835166256e-03 -2.3520048113255726e-02 1.1809858327930334e-01 -2.4362637084775207e-02 -1.7828053966561758e-02 5.7531269595252899e-03 2.1473106638413619e-02 1.7610419126544513e-02 4.2299313521201864e-03 2.9140147206823674e-02 1.8999285169147881e-02 1.2770205286747329e+00 -6.1296534434112093e-03 6.6941648167689327e-03 3.7983203821409650e-01 -3.1622887313434489e-02 -1.5756985322561534e-02 5.2683117032567708e+00 -2.6475559239770408e-02 -3.1436573591957506e-02 -3.4248818695088712e+00 8.3747879775501521e-02 1.3878148811414082e-02 -9.7763605256171449e-03 3.8970838701758270e-02 7.9943174266502992e-03 -5.0040137791622197e-02 2.4185011064689177e-02 1.6692736707019151e-01 -1.7716300351649661e-01 -3.9738899268922934e-03 1.9723611168229904e-02 2.4682658443421829e-01 -3.6874220686315073e-02 -1.0005872379613423e-04 1.1539272538741587e+01 1.6817162629233562e-01 -1.6115499314912843e-01 -9.8609734816711481e-01 3.6859450564039847e-01 2.0426619085290268e-02 -6.1704204698173060e-02 -7.6797899852563509e-02 2.6990054896760385e-01 -5.5211743156917320e-02 8.1402752953831858e-01 1.4081844696703116e-01 1.4040500162202811e+01 7.4118666839865857e-03 6.1819544597597004e-02 -1.8924790892000209e+00 -6.4675436936399405e-02 -6.4572743761191376e-02 -1.9839697415179156e+00 -3.4528745939423858e-02 -2.0369279361428350e-02 4.5759481387855216e-01 -6.3021814081763328e-02 -2.1911580363962457e-03 -4.3676576310693993e-02 1.3406895846120301e-02 -1.0513937447345079e-02 -7.2168971429336093e-03 4.8210785460258185e-02 2.4687890403148982e-01 -2.5074621579438467e+00 -7.1764332968085598e-04 -1.7832888535785241e-02 9.6842559525566152e-01 -8.6401106183959797e-03 4.5392231120901405e-02 2.0703101567099928e+01 -1.9323039454417601e-02 -7.3312953257660407e-03 -2.0317577333677801e+00 4.4462203265809297e-03 5.4625081181132407e-02 4.1457034499337686e-02 -1.8528613774536629e-02 -2.2130658146856774e-02 -9.8085566448419925e-02 -7.1080355128361861e-02 -7.2448881129880682e-02 2.1052037343981382e+00 -5.8331300522402318e-03 -8.6441759776944904e-02 5.5113181619293528e-01 7.9766881670294665e-02 4.3807603061159051e-02 1.8434981462163943e+01 7.6006412756146613e-04 -4.5941604817574255e-03 5.8004389580293791e-01 1.1257607642528683e-01 6.1597848903415242e-03 -1.1767722501739630e-02 1.3690235155598737e-02 6.1390755899595195e-03 -2.7160351040494857e-02 2.3832745337411143e-01 -2.9042879321334270e-01 -1.0485936905810824e+00 -9.9936364510531533e-03 6.9640886802038171e-03 2.8386555059073233e+00 -1.8334053757405711e-02 -4.8620766278830024e-02 3.0648001314202489e-01 9.5671639252079554e-03 -5.3717473368465274e-02 1.5634658229987208e+00 4.8318148237281588e-03 7.9998384902556202e-02 -8.8164101512309356e-02 -3.7783091954478702e-02 5.2993447193164789e-02 -1.1191428455387398e-01 -2.0865352800186893e-01 1.4711611535753732e-02 5.3425339581775813e+00 3.6557521751525143e-02 4.4852338245427059e-02 -2.1682030750745711e+00 1.3444251668460727e-01 8.1579929670319906e-02 4.8651360981286675e+00 -1.1594370613362059e-01 1.5071976843551127e-01 6.1330730853712199e+00 1.5962625488818292e+00 -5.2799997914899321e-01 2.6652309841707122e-01 -1.2705112492290478e+00 3.3007557175581570e-02 -7.3221233342627801e-01 1.7939660149686993e+00 4.9710614884882762e+00 1.3120573450503031e+01 -2.4524047978776320e-01 4.9875365791058979e-01 2.0041761277867607e+01 -7.1421850401188491e-01 2.1615907410311661e+00 
      </Row>
      <Row Index="103">
        1.0925747275140526e+02 -3.0087348204189366e+03 -3.7147476457986087e+01 -1.0048131404610189e+01 4.4884771308588245e+02 1.2630398988719541e+01 5.3494083675032869e+00 1.1972451946557669e+01 1.1922161626946432e+01 1.3477739026229463e-01 -1.4024022540636878e+00 3.2737630931832236e+01 -1.0117426508648405e+01 -1.5545327465250627e+03 -7.5159637588221404e+00 9.2164038160235933e+00 -4.5530695651142089e+01 -2.6978124868939624e+01 -2.9485405905070159e+01 -1.5477752559042704e+03 6.4647881969527560e+01 -9.0645992569296645e+00 -9.2763702452911446e+02 2.2298498963059892e+00 9.5726057060970362e+00 9.5984733749092044e-01 4.1995376106084024e+00 -1.1210991232936752e+01 -3.2579419707145192e+00 2.3857503394752591e+01 6.8938464169703337e+00 -5.4259992191066112e+02 -6.5357452458339482e+00 -3.4885538439689327e+01 2.2147449216544214e+02 -3.0340464393646114e+00 -1.0351266102280775e+01 -1.1216880761948971e+02 1.3905388251218902e+01 9.3832349971106765e-01 -9.7692607312578076e+01 1.6507958403792600e-02 -7.9461203970308603e-01 4.9203317616476454e+00 1.1539885863747656e-01 -3.0196505248854351e+00 -5.0487301657653916e-02 5.1636474972335122e-01 -5.3340978305003084e-01 -3.2654620502140102e+02 -1.1461525591341761e+00 -1.0425198347985827e+00 -2.9411364273596213e+01 -6.0125542419953319e+00 -2.2960326417377246e+00 -2.5639464537064287e+03 3.0847367341216639e+01 -7.3175080765821576e-03 6.0145929537017696e+02 1.0822779571273031e+00 -3.2741647312442979e+00 -2.3709953635921011e-01 -3.0683733725570619e+00 5.3014883431063708e+00 1.3072854291380168e+01 -3.1324123528304426e-01 7.4033749704392449e-01 -1.2696557996596307e+03 3.4094889320211621e+00 1.1889141072656415e+01 1.9787887420143869e+02 3.9580434773985118e+00 -4.5867586727545302e+01 1.9394541730261062e+03 -3.3502666083601639e+01 2.2098611662978520e+00 1.0364516386879039e+01 -8.2222493158310570e+00 9.5560910821846026e+00 2.3811874093511598e+00 -9.1178362001976474e+00 -1.0571643372938617e+01 -2.1741187945512088e+01 -8.3771301422805152e+01 4.6545168631533542e+00 -1.8818277371121571e+03 1.3871729758162274e+00 1.6250321774590500e+01 -3.8132329668878697e+02 3.8038611116193081e+01 -4.3636947043275143e+01 5.7301884338825830e+03 -1.6374648309509887e+01 3.5760700781735011e-01 -7.9437213275075737e+02 1.7504812614309850e+00 -4.0863168080650212e+00 -1.8024887671070360e+00 3.6615587271489858e-01 2.2013393377249031e+00 5.2655810161923569e+00 -2.2170694802100570e+00 -2.5074621607685188e+00 2.7792868634095653e+03 3.7010797464430354e+00 4.8312501004696458e+00 -3.6604837100938994e+01 4.8903104228203915e+00 6.8870915658498575e+00 -1.5328892366278124e+03 -1.6436396845349606e+01 1.8679230787793415e+00 1.4806945047591876e+02 -3.9109653720743154e-02 -1.0039575824634994e+00 6.7665071601502405e+00 -3.2645840048832184e+00 -3.3322205510978478e+00 1.3583310769490708e+01 -3.6651768090866881e+00 1.7581593893567060e+00 -3.5076572948583635e+02 4.2242154410589023e+00 1.2980344000943660e+00 6.4440501349748558e+01 1.0449552700048145e+01 3.7197391564973259e-02 -3.2414634935845206e+03 9.0280120218953925e+00 -1.5614059369244160e+00 -4.2711271846314867e+02 1.3661661168805495e-01 9.6570590935652945e-01 -4.2357178211136102e+00 1.5426989742016133e+00 4.3546004993393126e+00 1.9131633657990790e+00 4.8587021335932548e+00 6.6076313388953167e-01 1.7061883944477336e+02 1.2731266979420504e+00 2.6767951829234988e+00 -1.7093014555296674e+02 -1.0627233286946876e+00 4.1119727810928396e+01 4.5179853847195409e+02 -2.7718804582758843e+01 -1.6036934399823220e+01 -4.6630177196518940e+02 6.2414308810820494e+00 2.2081108712584893e+01 1.4193894417600092e+01 6.5465993414754378e+00 -1.9592561366925167e+01 -1.9776712676126195e+01 -2.0615124096392524e+01 3.2507583204987522e-01 -1.0692973040636903e+03 -9.1803355279314758e+00 -7.7084379478434073e+00 -1.8010639751773451e+02 -2.3963743765086987e+00 7.5602237304363666e+02 -8.1630753964676876e+02 8.0199758822791364e+02 -1.1352497602228482e+00 -4.1554604721082251e+02 7.6620889579269260e+00 -1.3228094762457602e+01 4.8192967087830269e+01 2.1034410948434640e+01 -5.8283720208526120e+01 1.7656189967952298e+02 5.0088973124723225e+01 -2.2717015398079639e+00 -8.6254852898366917e+03 5.5609929112911914e+01 1.0810657673828416e+01 -5.1747789872750927e+03 -6.8778355627373841e+01 -2.5734723742305919e+03 
      </Row>
      <Row Index="104">
        3.5647101378067547e-01 -1.3898075626186735e+01 -2.3767936944252777e-01 7.5444037079925308e-03 2.1306956823487910e+00 -2.7815235990208714e-02 2.0700755368818791e-01 3.6646402459574423e-01 4.4988976165881329e-02 4.0637267246776754e-01 -2.7461838659383986e-01 -2.8294490795771032e-01 5.0413979494013446e-02 -6.4235154268563557e+00 -8.6539978307123522e-01 6.9398714149503438e-02 -1.2592916398235856e+00 -2.6138001325671678e-01 -3.0234321745076304e-01 -6.3443570118038451e+01 -2.0539496754525155e-02 6.2091431505507055e-02 -5.3262345263263029e+00 -1.1494573806428349e-01 -1.0638322683147572e-01 1.0624160830818630e-01 -1.4369584587118345e-02 2.6115798458071293e-01 2.1006035767708597e-01 -9.1595162228437388e-02 6.8487272892314377e-02 5.8668193130705362e+00 -8.5484725905721304e-01 9.8581420630538819e-03 -7.7933664939547131e-01 -2.9133843378439850e-01 1.0373188567910807e-02 -3.0303374673759869e+01 3.5593174484727041e-02 -1.2631914164948022e-02 9.6536338813314060e-01 -9.3510497737181453e-04 1.3620871130869849e-02 -7.5127799685610785e-02 -1.5603055408976996e-03 1.0580835252447907e-02 3.7955675053892080e-02 7.8913521087341287e-02 1.7125509544874906e-02 -1.9337393346338283e+00 -4.2818264605665179e-02 1.7765155260112131e-03 -6.2267493420236897e-01 2.9753700445477538e-02 4.1397861793269541e-02 3.3102352568499782e-01 5.2501771412050147e-02 -3.8012943952690836e-02 1.6231982407561341e+00 -2.1878245303788013e-02 -7.9226463024805405e-02 -6.1148129360017123e-02 -3.8980532559417469e-02 -9.6089365915617009e-02 1.9791370309874878e-02 -1.6262658030820054e-01 -1.1075478361170177e-02 -3.3476670801263708e-02 3.2091764809500178e-01 -5.3210302134718557e-02 8.8013407253113485e-01 7.3971127284836458e-02 1.0615466346241646e-01 5.5205426450160331e+01 8.7021715812724026e-02 6.7679351169272151e-02 3.5847156942745084e-01 2.6852936740748679e-01 8.2364756433464192e-02 5.8363292058814825e-02 -8.7990126991503714e-03 -8.7331086012939307e-01 -1.1932350830088467e-01 1.6897834386129740e-01 -2.4637714450634424e-01 -7.0330860607416561e+00 1.7566003576484497e+00 -8.0657812707009502e-01 -2.4367842055897313e+00 5.6693114931781485e-01 -8.4991682980165351e-02 2.3791505058954698e+01 2.9172024384247597e-02 4.9892600648067109e-03 -7.6995553396053951e-01 -4.9722821865366140e-03 -2.0315078261461395e-03 3.6810286168517337e-02 2.2128750083742488e-02 5.0414019782536457e-03 5.1071613081710154e-05 -5.1982903883989851e-02 -7.1764334659929485e-04 3.7010797462096150e+00 3.6619198313815748e-01 3.3233134696740940e-02 5.1147165859692478e-02 1.0888085085543153e-01 -4.0320294823775527e-02 5.6290783512398093e+01 -3.1220809019478324e-02 1.5060092738856667e-02 -3.0290710787192001e+00 -1.3894634514954873e-04 -7.3395205394639618e-02 -5.3194646824890057e-02 4.6939365994886906e-02 1.7113780801689682e-02 2.8257890703216049e-03 -1.5399396165848600e-01 2.4655828931230417e-03 3.1401629041538683e+00 3.3508339545944299e-01 4.2604796398792999e-02 7.0618813265260494e-01 -3.4908516816594570e-02 4.9005582551209237e-02 5.2159336893095087e+00 1.6613183288306299e-02 2.2575341434126095e-02 -4.7805910510800809e-01 -1.7069919895476016e-02 -3.4681671553069116e-02 4.4909886661888443e-02 2.1661400285468702e-03 8.1736442792745834e-05 -1.1097020638800359e-02 3.5558292770077760e-01 6.7033840538255340e-02 -4.3001817217667408e+00 2.4393522184239402e-02 -1.7974206366191403e-03 -1.2650088077963038e+00 3.0299032197744769e-02 2.5524434008353347e-01 -5.1916873917980126e+00 -2.0243572931686432e-01 1.2182846305654411e-01 1.1717681548057508e+01 1.1984041558201791e-01 1.7230003031873661e-01 5.2489269621524404e-01 1.4675473804558607e-02 -1.9289203825662321e-01 -1.6046224909163964e-01 -2.4617473972230919e-01 -8.9693607819999438e-02 -9.8813952370210956e+00 1.0091399498701498e-02 -6.4864614377872032e-01 -4.7408678061335010e+00 8.1418151473425154e-02 1.1298893562491923e+00 -2.0010081179272632e+01 2.8257742257815632e-01 5.9269473954848917e-01 -4.5965195720204139e+00 -2.7894378232555539e-01 1.4276839215196577e+00 -7.6022202923357163e-01 5.3694299733217421e-01 1.2345760418302918e+00 -5.1397975893821224e-02 3.9474551205703525e+00 -7.3684588940295725e-01 -3.8565873984583121e+01 1.0876933896102351e+01 -4.2204076669315649e-01 -1.9513508062823064e+01 6.8857224508613668e-01 1.7720679064397608e+01 
      </Row>
      <Row Index="105">
        -1.0087793667427730e-01 -2.4478065369922213e+01 6.7097168558716336e-02 -1.5366450012184651e-01 4.0196497091835042e+00 -5.8942129114262498e-02 1.6746819790608991e-03 1.4004177045596644e-02 -5.7883674661240656e-02 -5.8831979658069938e-02 1.0310669067311695e-01 -1.1666596313333996e-01 1.4702863491735357e-02 -6.4606393661021837e+00 3.6342293746638166e-03 -3.1729578757496865e-02 -2.3582448320233973e-01 -2.3832673118111497e-01 4.5950500668473981e-01 -6.6579681116625302e+00 3.2282539806607724e-02 -6.1241192491982850e-02 -1.7408457130057344e+00 -3.4906364514223118e-02 -1.7536634418127139e-03 -1.1574586469825121e-01 1.2081280569305386e-01 -1.1307522893762101e-01 -1.5231695097104078e-01 3.8865276383646219e-01 7.2815146815566681e-02 -3.6996995778002808e+00 -1.0158227309644136e-01 -4.6649285033356297e-01 1.3868608375379370e+00 -4.8884496573294918e-02 1.7444958602124305e-02 1.5438083524130457e+01 1.4338552736225210e-02 8.8206098495962615e-03 -1.0912161942359306e+00 -7.4083305126679821e-03 1.9508683428226453e-02 1.0457022073704469e-02 2.7361721937753339e-02 1.3963927650450791e-02 -3.7293902547774316e-02 -3.5276746078353627e-02 -6.4731627873325093e-03 1.2522466164918165e+00 1.1653702569895896e-02 9.9187361042279987e-03 3.0789544831372195e-01 2.6568229749690919e-02 -4.3065615895416132e-02 -7.3284683016722596e-01 -4.0922552272696922e-03 5.7530931821612952e-02 1.2975316825568466e+00 2.6180272274376026e-02 -5.2672644579575323e-02 -1.4929925922522846e-02 2.6100606852101083e-02 6.8009789281408550e-02 2.5420256686262022e-02 3.0593634769460532e-02 -1.3088379136141692e-02 3.8105189163380437e-01 -3.8273930805465817e-05 2.1122228860200165e-01 6.6269584531206160e-01 -6.3069085976124373e-02 -9.6304614473575190e-02 -1.1010441563507545e+01 -6.6284885014833012e-02 1.1221714924023921e-02 9.2779101625389981e-01 7.0609737168064235e-02 1.4604972517287337e-01 -6.0048410757163551e-02 -4.4296065164219731e-02 2.3515627493129548e-02 -1.7224242401341350e-02 -4.8187782822751468e-01 -1.2650866940524530e-01 -4.7369798253220559e+00 -2.6968811987216207e-02 6.9540000124958604e-02 -1.9731558311952013e+00 1.8637106148167815e-01 7.9945023498237511e-02 -3.9625729874326709e+01 9.3158339198760806e-02 -8.7971192541859144e-03 9.5072039769629457e-01 2.2027327670838225e-02 -5.2027326422088294e-02 3.8338514733462503e-03 5.4021735080519752e-02 5.9385863251218751e-02 -5.6476712679560670e-02 -6.3253344580046111e-02 -1.7832888544147968e-02 4.8312501004106618e+00 3.3233134703403833e-02 4.0264094831977837e-01 -4.2769076678200380e-01 -1.1120753122029781e-01 4.8843844276794890e-02 -3.0978661462299684e+01 1.6014876760523156e-02 6.0105979487107275e-03 1.9764886151409717e+00 -1.9472271375767569e-02 -4.8413394030961232e-02 -2.7726006398612224e-02 -1.4392546812742130e-01 -5.2243988478044623e-02 6.6311018643430586e-02 1.0620685953070330e-01 3.0598140555974096e-02 -5.5022516476383654e+00 -4.2438229938653982e-02 2.2545810741516359e-01 -8.9778956438655966e-02 -1.2161791281582701e-01 -3.2730764123135025e-03 -1.5390247829064652e+01 9.4823143976242863e-03 2.6312700351317497e-03 -2.5274813934129892e+00 7.9374293241984972e-03 1.6891760461621441e-03 -8.4555872652406494e-03 -3.8223341644617034e-02 -4.0465347232272464e-03 1.1552525850475281e-02 -2.5493057238163552e-01 -8.4143360510015031e-03 2.6080782126402919e+00 -7.0121782789504400e-03 -9.5053958729862664e-03 -1.9176408574446402e-01 1.9768976991702825e-02 2.4638616858786816e-01 6.4022831086039389e-01 1.1025669302505936e-01 -2.0695851989436717e-01 -1.9468449789501980e+00 -2.7203136632702712e-02 1.2850721688479944e-01 -1.5105279568971963e-01 6.7968190548302249e-02 -1.1028332279357379e-01 -3.5040404522028890e-02 -1.6080948289676752e-01 -5.0008252051684188e-02 -7.7767627596501754e-01 -5.0475823504524592e-02 -3.2298784463150881e-01 -5.6626638065402712e-01 -5.4412412103605222e-02 -1.1934794738434400e+00 -5.1174363955215885e+00 -1.6602495429333519e-01 2.0395248097586549e-01 -1.1595428861906294e+01 8.7285734329331177e-02 1.0116155796474460e+00 -2.3175354525414449e-01 3.3619320766876154e-01 -3.5363438385420143e-01 1.5307102052842678e+00 -2.9123445161432118e+00 -7.5223128029865194e-02 -2.4557698064347097e+01 -1.0841430755255193e+00 -1.5395835259436694e+00 -1.6039877129162043e+01 1.0062324133453298e+00 -6.0651591634224697e+00 
      </Row>
      <Row Index="106">
        -2.5800173764391214e+00 -1.5685535147677297e+02 3.2091089522803649e+00 3.1747005064239984e+00 -1.1006670805453710e+02 -3.0185580004302226e-01 6.0746960502020109e-01 8.6847603560254782e-02 3.4482542119484547e+00 -1.7062351503408211e+00 -3.4002025496156172e+00 6.4081588825580234e+00 6.0033106329671133e+00 2.4081105704920060e+02 -1.8986670392996277e+00 -1.8589776359574093e+00 -2.9951253195459145e+01 -3.6863383153407074e+00 -5.6905048961390774e+00 -1.1896061139714329e+03 -6.8280825606891860e-01 1.2396616076649647e-01 1.3201426401144332e+02 -3.7690124534348257e-01 7.5967054418418911e-01 9.5371805677538912e-01 -2.5064407887746101e+00 -5.8454925603035823e-01 1.3758011534678793e-01 -1.7202768291482320e+00 1.4887003658896107e+00 2.6706501737380756e+02 -7.4896850509256363e-01 -2.2064677784400790e+00 -6.6251380764958157e-01 7.3397201463450461e+00 -3.2783540881769291e-01 1.3569002755181785e+02 -7.8357906455960347e-01 -1.3055992963013097e-01 4.7972310983741906e+01 -4.1513466236358099e-01 -2.3093018404393106e-01 -1.3450862132315020e+00 2.0804239122040524e-01 5.9687702810942866e-01 6.4211189307066618e-01 -5.8327995049089409e-01 2.8513511083490162e-01 7.1742859724246131e+00 2.8520645796811994e-01 -3.8844668802532567e-01 1.4110795961718061e+01 -6.6867235211895704e-01 2.4431616656003641e+00 -2.4882874943236698e+02 -2.8696257523358071e-01 -1.9533665865125727e-02 -1.6894696598273021e+02 -3.7471011281994393e-01 3.2777512858110924e-02 -7.5010079000978180e-01 7.9410476949205311e-01 -8.2977683271557012e-01 -1.2620180638721479e-01 4.5702657774300555e+00 2.7643954211949762e-01 1.1542884404748429e+02 -4.3115370597443103e-01 -1.1452393104196901e-01 -9.0608275185013980e+01 -9.9586597940686783e-01 -2.0997048409562291e+00 5.4571373536701412e+02 -1.9037183198918406e+00 1.7798033993432627e-01 4.6753911592447901e+02 3.0137008410885349e+00 4.5052347893177602e-01 -4.8371717287088778e-01 -4.2106863354871145e+00 8.0521781427641148e+00 -9.6310258105705024e+00 -5.1627650069304236e+00 -9.0265135545409514e+00 -4.1630971310260162e+02 4.0856818030871409e+00 4.8145281760314953e+00 4.4301089747406763e+00 1.4632121527056925e+00 -3.0863578905281486e+00 4.4918227466286078e+02 -1.2363271474600603e+00 1.2724925710195123e-01 -3.3941716043615990e+01 -7.6502685349675925e-01 2.9237751119151767e-01 1.3523154739855414e-01 6.5964256711379221e-01 -7.9451884163128739e-01 2.6771102580669037e-01 1.4280226667106346e+00 9.6842559529844596e-01 -3.6604837124489848e+01 5.1147164870060990e-02 -4.2769076684635721e-01 1.0434369391835642e+02 -6.0335192018336414e-01 8.6204798909800928e-01 1.3052475944481853e+02 8.0615207506354380e-01 2.3233712462342027e-01 -4.4395748867193227e+01 2.6189754399293008e-01 -2.1809027516491852e-01 -1.8732434851116651e+00 -3.9868146054150699e-01 -3.0743131223161591e-01 -6.2721520304023670e-02 7.5301688140939405e-02 1.9050960567207653e-01 1.5866789603568850e+02 -6.2397545005656241e-01 3.4334833912097906e-02 -4.6717103213396172e+01 2.1343210039248888e+00 -7.6937413793142539e-01 8.6935290852555875e+02 -5.7553294244037634e-01 -2.6343263745662426e-01 1.6424280192777215e+02 -4.6963270937424539e-01 -1.8112845096658248e-01 -1.4580346739318628e-01 8.4959481867009989e-01 6.3058681269816930e-01 2.0914500094395549e-01 -2.9679138081438836e+00 1.9429833471287026e+00 1.2069696753959448e+02 2.4003591858645912e-01 1.2756123538197173e-01 8.8686584310958921e+01 -8.4712708185698204e-02 -7.3873738372208653e+00 -1.7926023933990521e+01 -4.5460234563353952e-01 3.4756251558101576e+00 7.8585345393199844e+01 1.7320701042061071e+00 1.5756208148966471e+00 9.0626511711165847e-01 -2.5911177082059025e+00 5.6344955861561834e+00 -1.2283781889615657e+01 1.2644493237075149e+00 -6.6693066763838793e-01 -1.0745718686151066e+02 9.2552665454277960e-01 3.3219954354782288e-01 1.2246238995557196e+01 3.1749970693695424e+00 1.2587077715983469e+01 -4.4810762604921172e+02 -1.1551592662700926e+01 -4.7273635318415472e+00 -1.2460089872188964e+03 -1.4748666977300218e+00 -3.9168538123242449e+00 -1.4812765876504670e+01 -2.3219839659245743e+01 4.9395810794022950e+00 -1.0108872822268744e+01 -3.0905903335298355e+01 -2.9215090320171043e+01 1.7329098495274177e+03 -5.1164453199936304e+00 -1.6470986111116019e+00 2.9901082522844681e+03 -1.7967189191264911e+01 9.4529969735742299e+01 
      </Row>
      <Row Index="107">
        1.0590172790110530e+00 -3.2392358709448388e+01 -1.3877093198908341e-01 -7.2628505811790089e-03 -4.4584116618463794e+00 -3.1304391128569940e-02 6.9522524969879790e-02 1.5063374900612259e-01 5.1606223644536875e-02 4.5805414289998368e-02 3.9939070846996755e-01 -5.1795783503841220e-01 -5.8819927867207231e-02 4.7404379456361943e+00 -4.1154511524671694e-01 -1.2734182386410775e-03 -3.0595820591104550e+00 -2.4567057345636711e-01 -3.8094701411519971e-01 2.9709554673262026e+01 2.3833669422218884e-01 -6.9747386837988326e-02 -9.3790815469457840e+00 1.1984068686194889e-01 1.6890722787588586e-01 3.5485785796355590e-01 1.6020979927551235e-01 -1.0361190293951333e-01 1.3851923224773860e-01 -4.6697249655447670e-01 -5.2685323664355591e-02 3.4324150915079858e+00 -4.5118433461698521e-01 -1.5503170076403433e-01 -1.0493056013115782e+00 -2.7488754288732914e-01 -6.9089456829935392e-02 -5.2202617078129279e+01 6.0575624354732890e-02 -3.9009457566778427e-02 2.5949473977448347e+00 1.3290625021214308e-02 2.1413777769537887e-02 -2.6038517022443197e-02 -1.8937758286309239e-02 4.0237783902541319e-02 -3.0371727300475382e-02 1.1047668542231370e-01 -6.9218831230195219e-03 -5.3541265773272695e+00 -1.1419987757481402e-01 1.1177500583166244e-02 -5.7350013294235258e-01 -2.3158879844000374e-01 3.4635688093110906e-02 -1.1083217638610478e+01 1.8336061221073741e-01 3.1877309465959791e-02 -2.4269288573134382e+00 -5.4537738295583282e-02 4.6933778690446459e-02 -1.1919145562161693e-01 -1.1283252498921054e-01 -2.2378221051624791e-02 1.1397905903409811e-01 -2.6363648586008392e-01 -3.8750884305260191e-02 -3.2409087228792899e+00 1.5083336358701505e-01 1.4180870181288052e-01 -1.8847383659007915e+00 5.6129381309441495e-01 -2.8708835364735003e-01 1.0725141459534729e+01 -3.9464490401669039e-01 6.0587601822939263e-02 3.6662318395800741e+00 -3.6439840889281552e-02 -4.5914341087449101e-01 -7.6571547756175695e-02 -1.0087214467846861e-01 1.6076772399770844e-02 -2.9776298191535389e-01 9.4441226179346771e-01 -5.5595408541546654e-03 -6.8810418721857847e+00 9.3243429017152379e-01 2.5092770027089295e-01 2.1669826155687337e+00 6.6491755187138846e-01 -1.1698081818412742e-01 2.0799512150388125e+01 -9.6141751120931263e-02 -6.6191435160168899e-03 1.7731244235044050e+00 -4.7292328450961145e-03 8.1173653844405003e-02 1.1101138408858846e-02 1.4913069086576608e-03 -1.0056596113567462e-02 -5.0695994856189808e-02 -3.3285115308473529e-02 -8.6401106392609839e-03 4.8903104223683229e+00 1.0888085087490379e-01 -1.1120753121804827e-01 -6.0335191902639584e-01 6.7754327157184235e-01 -4.6128460139069904e-02 7.7264802467676645e+01 -1.6197885425353609e-02 -9.9934372113689163e-03 -4.7361168534364193e+00 6.0133851046768605e-03 8.3075817715383415e-03 -2.9255845576461548e-02 1.0168167870179440e-01 -3.6574795592031500e-02 1.2316517662841875e-01 -1.4715682485956094e-01 -2.3552708283435253e-02 7.8340857714591188e+00 2.5056277958608425e-01 -2.0945296658404300e-01 5.6628169003576745e-01 5.5567972673977861e-01 -2.3146444299882829e-02 2.1085263820106924e+01 8.6200654234986379e-02 2.8575100112279928e-02 3.0612837574590062e+00 -9.5996270629657987e-03 1.6575802095726955e-02 7.0973861752764433e-03 -4.6077081745565199e-02 -9.5458663745253691e-03 3.2215277285283728e-02 5.5645179224435215e-01 -1.3062383455289983e-02 -6.9243416943249247e+00 1.4296047657905209e-02 3.9772545719819807e-02 1.4661263909065343e+00 -2.5370783909686223e-02 4.2205540992385732e-01 -4.4971869830016553e-01 -4.0005728996922085e-01 4.3839076961512957e-03 1.8596795066956950e+00 6.7223321645227707e-02 -1.8302062603690666e-01 4.2546999937718355e-01 6.9753080993032110e-02 -5.4277984518810551e-02 2.6096185275999961e-01 -1.1312560190103346e-01 -8.1967783899367958e-02 -4.5961162564698395e+00 6.0536604842938720e-02 4.3416357782557757e-02 -3.1224018184135209e+00 -2.3588252451121625e-01 3.1605509054433689e+00 -4.9668302927292549e+00 3.9082322113192149e+00 8.2417193891517471e-01 -1.7243413995499736e+01 -3.2101245486164753e-01 -1.2164349614845482e+00 -7.8723455386186569e-01 2.2867480237954751e+00 6.0801070073975727e-02 7.1783068190575561e-01 5.7383568709149966e+00 4.1820405836724461e-01 -3.5856054126757137e+01 4.6547965178323443e+00 2.1245553601268341e+00 3.7255188608765366e+01 -3.5272900896374244e+00 -7.8303987851755421e+00 
      </Row>
      <Row Index="108">
        -6.1458902600249465e-01 1.3343078521509235e+00 -1.3631860904579726e-02 1.6464141749477190e-02 3.0768428134710208e+00 -2.2198106607721130e-01 6.1095053657949372e-02 -2.5308857611598845e-01 2.9835728684243334e-01 -7.2967221170657792e-03 4.3219357314029716e-01 -3.0416412691298489e-01 1.6530203438316710e-01 -3.7044097609137925e+00 1.2891069993352744e-01 -9.6463439413106727e-02 1.9738778746659287e+00 3.5216884084027233e-02 7.6449980216608082e-01 -3.2421289327353151e+01 3.4114564170153017e-01 6.5108428899821963e-02 2.8641082354764880e-01 2.7836456792114189e-02 -6.5991254688212542e-02 3.1260792417962696e-01 -1.4155467303759045e-01 -5.6498636438382743e-01 -5.3853697407627221e-01 9.4810789509482818e-01 -3.7948640553266161e-02 3.0438319771915343e+00 1.0645353000093358e-01 1.5566395945740508e-01 2.5864410729960037e+00 2.3007907487121820e-01 5.1298829013677383e-02 3.0130749734764656e+01 3.3777345717019153e-03 2.1077826610027328e-02 -2.0112900021977724e+00 2.1301080600799049e-02 2.9328366427733066e-02 -4.3597611945523362e-03 -1.7392460184895209e-02 -1.6559167089031612e-01 4.9830572359841341e-03 -4.3167506202065553e-02 -1.3496850611077874e-02 1.3961741392454745e+00 1.6087901499357571e-03 1.3688953387758218e-04 3.1367616400325782e-01 1.2307129653209692e-01 2.4047105372885014e-02 -1.2135619354679505e+01 6.7221096304673766e-03 -2.8017422891989385e-02 4.0409559320870470e+00 -3.3599622958229158e-03 -1.8126919599660285e-03 -5.4975348379108224e-02 9.5280252866004722e-02 1.2532695509259750e-01 -1.1233516688381950e-01 8.4341321982482675e-02 6.3788064233388564e-02 -7.8123736676147644e+00 -7.6247780309398938e-02 -6.1928788201335849e-02 1.7151375282234387e+00 -7.9877259869597761e-02 -3.4510691437695451e-01 1.7838527212977120e+01 1.0073484648125641e-01 -6.1100443958431394e-02 1.0972519443850628e+00 1.7959796239833714e-01 1.9559282303621187e-01 -4.0503917184676475e-01 -2.1917059438328410e-01 8.0734788278699843e-01 -5.8963540779689239e-02 -1.1645215105749315e-01 -3.0943268130907697e-01 -1.0554238911426994e+00 4.3977062566343018e-02 3.7385154939738002e-01 -5.4320468023412793e+00 -3.2577140309888608e-01 1.9794616863620496e-01 -3.3611948139847222e+01 -3.5792763788903376e-01 3.3712860810236056e-02 -3.5555648793604373e+00 -3.7120358973545410e-02 1.2166187415129315e-02 1.3968999127562953e-01 6.0429238355541620e-02 -1.8985460123068743e-01 -1.3994905959795867e-01 2.3450654075023944e-01 4.5392231127949656e-02 6.8870915646185189e+00 -4.0320294830877013e-02 4.8843844262295266e-02 8.6204798845971986e-01 -4.6128460125551385e-02 9.5989960906926042e-01 1.3010496395166022e+01 7.4650293949800384e-02 4.9365450491560381e-02 5.1644798711125350e-01 -3.5226126391512125e-02 -2.7565673232168741e-02 -1.0923795035306494e-02 -5.1453728278088584e-02 -1.5102210728519908e-01 -1.3824120063925704e-01 1.6653063747911290e-01 8.4602605256545171e-03 6.7346986500508450e+00 -7.0644387169250089e-02 -4.0967968390450693e-03 -9.2088427194770051e-01 -2.3324600729071809e-01 1.7404603556599452e-02 -4.2822456877741558e+01 6.3151547343575087e-03 -2.6224976916656262e-02 -3.3732345236997934e+00 -1.0924195270821557e-02 -1.1528883276858970e-02 4.1030978760878689e-03 9.3887802351452193e-02 5.5894062080932727e-02 -3.7267403769722263e-02 -4.7966665454773105e-01 -2.7432857332877925e-02 7.7780313690108294e+00 -2.7546781245471025e-02 -8.0598537280995863e-04 -9.6156723573875080e-01 9.2481658125492805e-03 -4.0665722270161159e-01 7.8987164280020039e-01 1.5323276102883709e-01 1.7468879029088821e-02 -3.0602054792247078e+00 -3.5435360457892195e-02 2.0922564881295092e-01 -2.8199631087568822e-01 1.3648726633415625e-02 1.7981869776033871e-01 -1.3708579166200352e-01 4.6621511325394871e-01 -1.7400748924078491e-01 8.7025231886138510e+00 2.1134808573053004e-01 4.0248295229532460e-01 4.1534631069747519e-01 1.1567309951442789e-01 -4.8897519434947174e+00 -4.4123955243344213e+00 4.3390467202901108e+00 -4.5000536837954641e-01 2.4056343334619417e+01 -7.2178224921737311e-02 1.6204186566927770e+00 -3.7500741726038900e-01 -2.0301170533198007e+00 -2.7584952881310221e+00 -4.1408431711513527e-01 -5.0592301525634262e+00 5.7249568301489617e-01 8.4095791913163538e+00 -1.5895105810835339e+00 9.6114242258458660e-02 -4.2579218429013920e+01 1.2646932644796935e+00 -9.9641124949583215e-01 
      </Row>
      <Row Index="109">
        2.1487146133979439e+02 6.2460987787839549e+03 5.3408418956119306e+00 2.3486531016599170e+02 -2.0327508734706898e+03 -3.2467613841075469e+01 -1.6425525339595879e+00 1.7054772370106275e+02 9.2333515617032333e+01 -3.9257667981960957e+01 4.4284514796711392e+00 -2.2243788152034145e+02 -4.4798927301090856e+01 -5.6590983620670340e+02 -2.6275008245043506e+02 -1.6100628240073834e+02 -1.9657307599888111e+02 -1.0228979683800026e+02 -4.1812712825647736e+02 7.9392215004537837e+04 -2.3371317767250991e+02 -1.0177049681776739e+02 -8.1449399491502381e+03 6.5040569700552851e+01 -1.0394765477734416e+02 3.4559396116221421e+01 2.2401078789463099e+01 2.1451496352788354e+02 1.9222069063026083e+01 -2.4021759736859701e+02 -3.7623670487907191e+01 4.0986051289989055e+03 -1.3927326418545246e+02 6.2808536846386446e+01 5.4807747261889199e+02 -5.1309878172007906e+01 1.7810868214635320e+00 -2.2591490109538965e+04 -1.8008590765728570e+01 4.7257034012430381e+01 -1.7750902624183800e+02 5.6900521292304802e+00 3.9020229821895214e+00 -2.6845166411795617e+01 5.5552955331751264e+00 2.9870281476850096e+01 1.5428188701502904e+01 1.1017371923974997e+02 1.7295069040377200e+01 2.3668662169887575e+03 -1.8927928345027510e+01 -2.5783287415797531e+00 -3.5685581874419142e+02 -3.8777460522248248e+01 5.9110503594256897e+01 1.7650348878838122e+03 4.6520127467275643e+01 -8.0817053860951091e+00 -2.1164173066462163e+03 -2.1974363001757411e+01 3.4478466254059413e+01 -3.7511038257621294e+00 -2.3378463443411192e+01 -5.4668432052713797e+01 -2.4983960430143270e+01 -2.2086149569520830e+02 -7.8741305544899660e+00 1.1110914940270210e+04 7.0417970129063406e+01 -3.3952367030685309e+01 2.8043011179273799e+02 7.0214155988188736e+01 5.1919767515837648e+01 -2.2458524561154449e+04 -6.9376613628565337e+01 -9.8886748557412659e+01 -3.8285244356674757e+03 3.0268999264637401e+01 -6.7115696204648586e+01 7.9403073161411115e+01 -1.3759575567177546e+02 -1.0661332927861031e+02 -3.4527475756068242e+01 4.6113536941357938e+02 1.0366704399659704e+02 1.4683456859100421e+04 5.0329679827097141e+02 2.0072684110615387e+02 -1.3602075763120592e+02 3.8104493154752549e+02 -7.1241803711760440e+01 2.9325072414358219e+03 1.3961875270290426e+02 -6.7854766288196515e+00 4.5178185071376083e+02 -1.4248162641147402e+01 1.8201917825219425e+01 5.9981571738217099e-01 2.8634392566651741e+00 -5.1452113142667258e+01 -1.8869735060199673e+01 6.6238539131503785e+01 2.0703101561639642e+01 -1.5328892319286897e+03 5.6290783522657875e+01 -3.0978661449380752e+01 1.3052475905819119e+02 7.7264802476140176e+01 1.3010496401260298e+01 1.4982609679613690e+05 2.6291152548867558e+01 2.3419754762859156e+01 -8.4801561281748618e+03 -1.2265637174710719e+01 2.4940962790133199e+00 -3.7882648228911421e+01 4.7751896614142197e+01 5.3733538486307339e+01 1.0154119119910320e+01 -1.3358831169209589e+02 -1.0868173721947187e+01 4.9075150086598078e+03 1.2712422990183859e+02 1.4450715018232586e+01 1.1678835919704693e+03 1.7331166816162568e+02 2.6930324461425243e+00 4.9930409213843057e+04 -6.5421144260492611e+01 -2.9172820696524923e+01 9.8370516552599474e+02 -5.6991198070318205e+00 4.3677313056541607e+00 3.8018717099113474e+01 -9.0563946504397563e+00 5.3772555974501302e+00 -7.5806139111568882e+00 4.4388786585548860e+02 1.5239777046502695e+01 -1.1752631430149846e+04 -1.2525564894531271e-02 -6.7795317568984501e+00 -7.7318585964842532e+02 -2.2106397712565922e+01 -1.0726560833148218e+02 4.4356915918917293e+03 -2.4651474477815464e+02 4.6826957341017646e+01 6.6813594308956081e+03 6.0635010961000987e+01 -1.4260790776204186e+02 2.9337656573925551e+02 -1.9102506630245166e+01 5.9182451034015315e+01 -2.0279419999597849e+01 -5.5566911049001817e+01 4.5560029021188257e+01 -4.2718757093649165e+03 5.6900203979105640e+01 8.1408953430449856e+01 -1.3535868226226467e+03 1.0511852145284340e+02 1.0618426168871101e+03 1.0447649852055324e+05 -2.3610001002605700e+03 -1.1938270624592660e+03 -5.7283557829438960e+03 -1.7704048089044591e+02 -1.8746365168371005e+02 -2.9856472626037657e+01 1.5201003936694156e+02 6.5142733309147752e+02 -1.1591895103891875e+02 4.7031431679646139e+03 1.1396259012090741e+02 -1.0590551711722650e+04 2.7711843740847198e+03 2.4093615618223339e+01 -9.5925849842193711e+03 -1.0686923249012511e+03 1.4357654405128837e+04 
      </Row>
      <Row Index="110">
        -8.0807401778998744e-01 1.0202627584995653e+01 7.6676750694985096e-01 2.8121923367855073e-01 -5.9571693701581436e+00 -2.3349331049664021e-01 8.9784326095546041e-02 1.8691355605544463e-01 1.6833678073917530e-02 1.0761468033463301e-01 3.5582922941113260e-02 3.4489079802474687e-01 3.3463080917609039e-01 1.5554540299197424e+01 -1.1980045444495653e-01 1.6216292684041470e-02 2.3366560399960319e+00 -3.3559457009592175e-02 4.5085459793955751e-01 1.6443835646923233e+01 -1.1935619816183003e+00 -3.0354380594286401e-01 -2.9296125588621114e+00 1.0558621523145728e-01 -1.0086953767455442e-01 2.4637308302077729e-01 6.1688532992672046e-02 1.0026547239954697e-01 -2.1530173870670810e-01 1.0494777956979323e-01 1.6865025992511665e-01 9.0943215774017059e+00 -4.2927763752204265e-02 4.6501491243530463e-01 2.2604331355753815e+00 -2.4316091041035895e-01 7.8644908905871391e-02 2.0121195159964213e+01 -2.3279962284413849e-01 2.6302566590753307e-02 -6.4428106125377660e-01 2.5199865817368106e-02 2.7272493644800666e-02 -3.4666846899222281e-02 -3.3033616517776365e-03 9.9023715651579414e-03 -5.2430812884441513e-02 -1.3908758809685873e-01 -5.7737187483078989e-03 3.2418955953475508e+00 -6.6786948742608709e-03 1.1181626479383588e-02 -1.1181448626494339e-01 3.1139165570819971e-02 4.4441754219776364e-02 1.0183901748879734e+01 -3.8320024239176764e-01 1.4521813782246173e-01 -3.3379908871940591e+00 -4.4362061472439152e-02 1.0509372376727777e-02 -7.2321041593760294e-02 4.4912901321290111e-03 -5.7091470409655010e-02 3.3715073278274055e-02 9.0841601832811758e-03 -1.2826196570120385e-01 1.8196527539957536e+01 9.8131066401371259e-03 -1.3918719221386899e-01 -1.5890526944613028e+00 5.7558608232677333e-02 1.9779186453156733e-01 -3.2714573278518877e+01 1.0619806531390663e-02 1.1697932395909576e-01 6.0937531091965811e+00 -1.5775481312239187e-03 -2.4857133494448744e-01 -3.8820157194086924e-01 -8.8617069382990160e-02 4.9748832627837691e-02 3.7932394337530317e-01 -3.2816033930455057e-01 -4.1726068213241885e-01 -2.6406918624667206e+00 2.5936345704522751e-01 4.2264446374560838e-03 -2.4192013648839872e-01 -2.0597141034397748e-02 1.7451810385610722e-01 -2.2187454292481529e+01 6.1873759377698523e-01 3.0046640017869386e-02 2.4019630532201761e+00 -2.9649440754999187e-02 -2.4613497673673379e-03 1.1119453419769121e-01 -2.6321793214985345e-03 -9.6855785669057060e-02 -4.1445093369983255e-02 8.5842781979527660e-03 -1.9323039449252150e-02 -1.6436396849295448e+01 -3.1220809048111031e-02 1.6014876751302309e-02 8.0615207663771038e-01 -1.6197885453682392e-02 7.4650293979701576e-02 2.6291152530918382e+01 6.4379180264901137e-01 1.5004148029899467e-02 -1.5147653735458950e+00 1.0067505146346356e-02 -1.6112668685950293e-02 -1.4551321558468810e-01 4.5803534617238628e-02 8.5775140383648751e-03 5.2677302946163351e-02 1.1927397395457051e-01 1.1129721623584610e-02 5.5299156366009328e-01 8.7178341713273766e-03 -1.5372367044359958e-02 -9.6380899341957282e-01 -8.1431056960588721e-02 1.4092112262377277e-01 3.4400856963245310e+01 -1.9749934387031953e-01 -1.6159514842877476e-02 7.4274953425925450e-01 -8.2767258061871796e-02 -5.3965633153121306e-03 -1.6912027535959329e-02 -1.4299650228033228e-02 -1.9481347126631743e-02 3.0174701616389576e-02 -3.2577645920591669e-01 1.2987324111482379e-01 -1.1181466543358489e+00 -4.8057444860554743e-03 -3.4637744073791943e-02 -3.9557179866455150e-01 2.4616719199611059e-02 -2.1095870716279552e-01 -2.3793319663468608e+00 1.3380596392874061e-01 7.8923627401854060e-02 -3.1862714568288402e+00 -9.7577198858892017e-02 -2.4086876352135034e-01 6.9290991846338024e-02 1.1794913330014548e-02 2.5747958003978044e-01 2.2733902340498824e-01 1.1208556656435317e-01 1.0791691442274490e-01 1.6429696909684797e+01 9.8716739418304417e-02 4.2784399751099805e-01 2.7317872545672102e+00 -2.1135838066779061e-01 -4.8655459365912019e+00 -3.3312907445616586e+00 -1.5698671082101058e+01 -1.6155804267432172e-01 -2.5246053896687819e+01 -1.0369965001419601e+00 4.3051143884208209e-01 -1.0606613340677369e+00 2.2133268876934076e-01 -1.9981488557849469e-01 2.5008870798813615e-01 -4.1206898092333937e+00 -2.3816227743139535e+00 5.0397296337806514e+00 3.6972219543486418e-01 1.3303606724540895e-01 2.0260733675506685e+01 7.2887605647284071e-01 1.3238316503205432e+01 
      </Row>
      <Row Index="111">
        1.1406364601916869e-01 -5.5527067550522290e+01 -1.8031160828045598e-01 5.6688285968259966e-01 6.0900514422308838e+00 8.1579240616749926e-02 -1.2665266422288129e-01 8.2275515898471463e-01 2.9913092431446450e-02 -1.2263498699803385e-01 -5.1856506935118862e-01 -4.8996029945005093e-01 -1.1690600459568629e-02 -6.2722020067907156e+00 -9.0527605944408590e-02 2.2931373961684653e-02 -2.4117629725959948e+00 -6.7034759308716024e-03 2.2149610515786114e-01 -1.5835581748086422e+01 2.9751226909234302e-01 -2.9317167643890163e-01 -6.9681713976591908e-01 2.6358347860075418e-02 2.1788642841500006e-01 -1.8308863805846481e-01 3.8025216179510921e-02 -3.1866124307352628e-01 -2.6670975162773038e-02 1.1645962595241796e-02 -2.8533603186388298e-02 7.8776005871099848e+00 1.1884540742673262e-02 1.9404935642670035e-01 2.9476010488685683e-01 3.6642913670169613e-02 -4.7593895815042364e-03 3.5665593347229581e+01 5.3877984092523992e-02 2.8001632598641057e-01 -2.7126661026579848e+00 -4.9496961450756216e-03 -1.3272362861563559e-02 2.2403844890313301e-02 -1.6178058383569824e-02 -5.1660651656008388e-02 1.6806458035160135e-02 1.1430583987003784e-01 -3.5905227274703484e-03 1.5510253860858298e+00 9.2111000016824526e-03 -6.6345161431248523e-03 -2.8764464129777512e-01 3.2154194795224716e-02 2.3468668410555477e-02 -1.5275822331251709e+01 1.0381505815207692e-02 -3.4950402106335432e-03 -5.3539973959894560e-01 -3.6292274520815793e-03 4.4119216474559630e-03 -6.8685340430249014e-02 1.3984525934939152e-03 2.6011920040321218e-01 -2.1870155577361050e-02 4.2713570616800034e-02 4.4929767196576043e-02 -1.1583473091142626e+00 3.4786216591180252e-03 -4.4851285620708184e-02 6.0158139904101027e-01 -3.2765134546249179e-02 -1.9843957757138719e-01 1.3106529548202777e+01 2.3049236080794872e-02 -5.7138648084758346e-02 -4.2231569157698914e+00 4.2744507545835975e-02 7.0168885686998098e-02 -1.0138009724991937e-01 1.4035783978985269e-02 5.1569042780962826e-01 -1.5513807372175031e-01 -1.3766655037729550e-01 5.5285461962664151e-03 4.3260465633464129e-01 1.1523559926888631e-01 -1.4102664455875491e-01 1.1389898064763881e+00 4.5772501982955474e-02 9.1854321034037345e-02 -1.7945992515117993e+01 -7.8511540078664205e-02 -1.0709253387301583e-01 9.5252503361687668e-01 2.1017071206177192e-02 4.1622661137737493e-02 5.2625876316115289e-02 3.0192473502139792e-02 9.0574094529011773e-03 4.3383431731210231e-02 3.7485271485795946e-02 -7.3312953304099024e-03 1.8679230794567241e+00 1.5060092751037042e-02 6.0105979498190076e-03 2.3233712417942964e-01 -9.9934372149033668e-03 4.9365450486161422e-02 2.3419754758977525e+01 1.5004148023918668e-02 5.6319895897590588e-01 -2.0335503673113626e+00 -1.4398843730728084e-02 2.8535581020954937e-02 1.0214926597405610e-01 -1.6528195352474004e-02 -3.3847305788012144e-01 1.0656667598702985e-02 -1.7517597218505532e-01 -1.2921416645722605e-02 4.2992110486822002e+00 4.4906938115018696e-03 1.6066146402543058e-02 -2.8697952342152566e-01 -2.1816145833855799e-02 -8.1008451476639043e-03 1.3889729587953259e+01 1.7005049583797748e-02 -2.0837463295133268e-01 1.1999747542403216e-01 -4.4481241012305814e-02 1.2872565935062891e-02 -5.5981379111680413e-02 1.5394863209240758e-02 2.1846214365162020e-01 -2.0751141588627009e-02 3.8359828061041101e-02 1.6927472713724079e-02 -4.5036067762468726e+00 6.6389181684823918e-03 1.8747861116398853e-02 1.3374552057038347e-01 1.6479112594937187e-02 1.4330565665068168e-01 3.9186436356495515e+00 1.6747865462059058e-02 1.2465441207672062e-01 -4.0711207354560547e-01 1.2945128174841725e-01 1.3359346871593331e-01 5.2666378446429052e-01 7.3818514659283366e-02 1.8898074403588794e-01 -7.0221019612992963e-01 -5.7402669472345602e-01 -5.6557327359913229e-02 2.7481504780362851e+00 2.7636072916681992e-02 6.9093975400344745e-02 2.8280577108928107e-01 1.1795206822246322e-01 -8.5287855559711989e-01 -1.2416504762676247e+01 1.9305245181599533e+00 -4.6075385251238625e+00 3.8164975646242283e+00 -3.0583783983864521e-01 -7.7477257743738126e-01 -7.4029114838586596e-01 3.5790012618027833e-01 -5.0484482768850043e+00 -1.0334054209626999e+00 2.0024060984756735e+00 3.1750812672046180e-01 -5.1726313681097382e+00 6.1630581148110797e-01 -2.6666807349223465e-01 4.0149609601603320e-01 1.0652192311436148e-01 2.4039260869747623e+00 
      </Row>
      <Row Index="112">
        -7.6469821803359395e-01 7.2083646522124923e+02 -6.3224352186740802e+00 -2.7038091531666868e+01 3.9551539344075934e+02 1.7143112048186451e+00 2.2930900684932105e+00 -1.5234909555997930e+01 -6.7343801065625462e+00 2.1105216321224614e+00 -8.2131758281976008e-01 2.6526438332170457e+01 3.7846109718805456e+00 3.8997112597094559e+02 1.1446158566508624e+01 1.5257980814251928e+01 1.2793018227146689e+02 6.2982317494566260e+00 3.1745804574010293e+01 -2.1449893545648479e+03 1.1798838715025909e+01 6.8950426335176225e+00 1.1402577631542274e+03 -1.0547263436383760e+01 2.8644791921947288e+00 6.8692783206145167e+00 -1.1011158239850793e-01 -2.1803385875664560e+01 -1.5345077563494307e+00 2.8046272496409109e+01 8.3989367680162275e-01 7.9967851650428668e+02 5.1926509423403688e+00 -4.0949091062659058e+00 -7.8330275790786970e+01 3.3625316724344430e+00 -1.6072270969347286e+00 2.8831361691699676e+03 2.6471483082383864e+00 -3.2852887408733267e+00 1.2872122344138461e+01 -7.8716385476842277e-01 -8.3712774885441910e-01 1.2307052990950709e+00 -8.1304186136319068e-01 -4.6294694957237219e+00 -2.1251701787875632e+00 -8.1440553337708081e+00 -1.7002730236921675e+00 9.8268088429051232e+01 9.5330801206174698e-01 7.7921974117234072e-01 5.5255642356484422e+00 3.7564405450979947e+00 -6.2672881980640796e+00 2.7455967736034986e+03 -3.6383105943506564e+00 5.2090348301621958e-01 3.1744229278254056e+02 2.7156877353838098e+00 -2.2775999561961058e+00 -3.1214706422448728e+00 2.3951152076735411e+00 5.5146218935286697e+00 6.8603146673454489e+00 1.5858046537907683e+01 3.0892656544253185e+00 -7.1427301986492898e+02 -3.4844456998130795e+00 3.6181168785416844e+00 1.6358981481426622e+02 -5.1171307270908564e+00 -7.1144283889026401e+00 3.3354495275112336e+03 1.1041074579139472e+01 1.4980164776994787e+01 3.8000895877697126e+01 2.6199915423946392e+00 1.8437667672767208e+00 1.8092813610208607e+00 8.6209552731295229e+00 4.7182661542818067e+00 4.9723584737262154e+00 -5.7179125343717814e+01 -6.9936667002718984e+00 -4.6103846398092480e+02 -2.4545616410287622e+01 -2.3542465124752219e+01 -1.5528549779280564e+02 -2.7571516211789824e+01 2.4484579093331718e+00 -6.9827383544835470e+02 -9.3118271801691854e+00 6.9674231171211432e-01 -2.4443560977905676e+02 1.3815270092142389e+00 -3.9810193679079475e-01 5.6854239383513061e-01 -4.1423195070206198e-01 3.3242688171775967e+00 4.2611821387268378e-01 -4.2798256932291885e+00 -2.0317577312038502e+00 1.4806945015530459e+02 -3.0290710828657552e+00 1.9764886136642019e+00 -4.4395749070175896e+01 -4.7361168541421250e+00 5.1644798370907097e-01 -8.4801561262678915e+03 -1.5147653781053663e+00 -2.0335503680943816e+00 9.1537986597320662e+02 7.7559491314991647e-01 -4.1298377491125393e-01 7.6251761562889442e-01 -4.0150448482824288e+00 -5.9462566499582685e+00 6.3888675454181794e+00 1.1753108346776401e+01 7.6056745525815472e-01 -2.1306078728547550e+02 -6.0905063209782462e+00 -5.8400260532357606e-01 -8.6225877168678920e+01 -1.4754248983382055e+01 -6.6805057836319293e-01 -6.1926964735436995e+03 4.7110118827630814e+00 2.4014451002032473e+00 -1.2212557019111864e+02 1.4123672445621338e+00 -1.0723534733539850e+00 -2.2391519558146058e+00 9.6158665474614402e-01 -1.2656259082707493e+00 3.7626767712019387e+00 -3.3489211611931921e+01 -4.4737133653561045e-01 1.4735327452936026e+03 2.2781147342812602e-01 7.2919047362898937e-01 -1.0420751060871277e+02 1.6772335116826369e+00 1.9047282911982698e+01 -1.2692917791423662e+02 1.3426418890442534e+01 -6.5547620775159219e+00 -2.4858095030792961e+02 -6.7052653648455660e+00 5.2292282868711322e+00 -7.7823959043298068e+00 1.3898523525187796e+00 -1.3398307621896695e+01 2.9850884911253672e+00 3.8500608817279698e+00 -4.4518839186413004e+00 6.0455927192352976e+02 -5.0334535324049074e+00 -9.8252831688202420e+00 1.8306663807240056e+01 -7.8692683611146972e+00 -3.1857337115320888e+01 1.5632606766558224e+03 1.6910470736569155e+02 9.9752662773116811e+01 5.6696427762208132e+03 3.0733993426611391e+01 1.2788054580471027e+00 -1.3137851525351557e+01 -2.8279069577065954e+00 -8.7141332013182620e+01 8.0951695298896212e+01 -3.6740000500785294e+02 -1.5850887318551941e+01 8.1350318211618669e+03 -1.4172506329049804e+02 3.3600532677936599e+00 -3.3630056326977010e+03 9.5264698695997410e+01 -4.3450878185477973e+02 
      </Row>
      <Row Index="113">
        -7.2232159513913693e-02 -6.6671868310603397e+00 2.8343799396407101e-02 3.2660699049128862e-02 2.1876426253055309e-01 5.4925773216145030e-02 2.3817979267800785e-02 -7.2974852860106160e-02 9.5001169952692754e-02 1.1588729340073749e-01 -1.6788158166575062e-01 1.3266657744290272e-01 8.8339086642103340e-02 -1.8706299764752972e+00 -4.5865449714407626e-03 -5.5837054206691300e-02 1.7057664722486832e-01 -6.2184573599319615e-02 9.7881560990510860e-03 -2.7550519534995543e+00 -5.0709334978335921e-02 4.3275272802500486e-02 4.3761707612554046e-03 -1.0677806031513988e-01 9.2172935805726747e-04 1.0703664580318779e-01 -4.6442622625790395e-02 7.0582182163004076e-02 -1.6373605697224521e-02 -1.7500177130628419e-01 2.9911559469183856e-02 1.6255704663939603e+00 -2.9959585203372618e-02 1.0227653842060716e-02 -3.9297366573476317e-01 -2.6658675566156052e-02 2.5836951839373803e-02 1.6991821463153700e+00 -2.2312002136800832e-04 -8.3393494777300181e-03 4.4558156318493908e-01 -1.0426817121365728e-02 1.8632904986495211e-03 -2.7898746573870314e-03 1.8125607930839338e-02 3.8692758032641134e-02 1.6556027086213024e-02 -6.3368911639041903e-02 -8.1395570647339252e-03 -2.2803013732340544e-01 -4.7131454394316596e-03 2.7262708871977626e-03 -4.2012403121018296e-02 -1.2138620398275984e-02 -4.7267586127614392e-02 -7.7168699455303731e+00 1.1755842764986452e-02 -2.6522231196778434e-02 -8.3993073680260988e-01 2.8758225023642309e-02 -4.0986455505582775e-03 -1.3910680332848535e-02 2.3129808807299701e-02 -8.7504307172988877e-02 1.0095940169005058e-02 1.3350020705511445e-01 -1.2335489302809644e-02 1.4346322270913840e+00 2.3595840856069361e-03 -2.3381301826291834e-03 -8.6418081436095284e-01 2.2579590680360077e-02 -7.8615215160078057e-03 9.9189563696692993e+00 -5.1509536793885841e-02 -5.1290220855933003e-02 1.9840836657804546e+00 8.6138256758193747e-03 6.4125242041289630e-03 -9.5198460057612760e-02 -6.6895247090561563e-02 -1.3700193258847521e-01 -4.3562910180595577e-02 -8.4451527868908374e-02 -2.3417163633543056e-02 -1.2476723716193949e+00 2.9269457821973148e-02 6.8327702567686388e-02 2.5145824171317388e-01 7.4058364129603760e-02 -4.5766113187018287e-02 7.2283175717123420e+00 3.4936204119123161e-02 9.7739023935830838e-03 2.8145887644041701e-01 -9.6350420982733477e-03 -9.0511531936898759e-03 1.5780795561031291e-02 2.4966028958459605e-03 -4.3052933442890851e-03 8.8763332917872195e-03 -4.9537235161332099e-02 4.4462203252737670e-03 -3.9109653969533031e-02 -1.3894634829507424e-04 -1.9472271374685934e-02 2.6189754407087795e-01 6.0133850959615542e-03 -3.5226126385280776e-02 -1.2265637173081046e+01 1.0067505141055921e-02 -1.4398843728482880e-02 7.7559491433118655e-01 9.3221379294467943e-02 -1.5907010671639243e-02 -3.6700392868377341e-04 1.9062654402619977e-02 5.7218242293222366e-02 3.3826742156127132e-02 4.4275957554884338e-02 -4.5038552684192268e-02 -1.2716716557675287e+00 -4.3816913545634412e-03 -5.4393424878686258e-02 -5.9224785866367058e-01 2.3023005480133862e-02 -3.0532659361090425e-02 1.7474326225872030e+01 -2.7086917048104037e-03 2.5341513323819675e-03 2.8779892724118961e-01 3.7571348212748823e-02 2.6715079868828151e-03 -3.4070447530152315e-03 1.3470626850803677e-02 -8.2402474950280302e-02 -2.2464965817469429e-02 5.0710240375732241e-02 2.1440894947253986e-02 1.2363714287678322e+00 1.6201507102745517e-02 -5.3038033542579521e-04 1.0976441430304473e+00 9.5551933937773614e-03 -4.2015924647311700e-02 2.7567128012073772e-01 -4.5126248015396914e-02 4.2089989246340803e-02 6.3129448118303422e-01 -4.8204272331756205e-02 2.5818198849598187e-02 -4.5567668876909911e-02 -2.9035048395908133e-02 2.4987789681984431e-02 -2.0728938544477202e-01 -1.1665665285613222e-01 1.1305493878481160e-01 -3.2337709132232559e+00 -1.2268044434027778e-03 6.2440210196416102e-03 1.0257265204479915e-01 -2.8855108990836632e-02 7.1316714767994449e-01 -1.2754448911340979e+00 -4.0407904053144134e-01 2.2434208227772656e-01 -1.0200305319835580e+01 6.2755834535885180e-01 1.1379092587929129e-01 -8.7099202497861905e-02 -9.3464608633803681e-01 1.5311243330047635e+00 2.5367270230784489e-01 -1.2402353323823254e+00 -2.2885901222838267e-01 7.5128039425114981e+00 3.5637049316352476e-02 3.5374608548597308e-01 2.2174661383528466e+01 -1.9016653841311892e-01 -1.1801691274996589e+00 
      </Row>
      <Row Index="114">
        2.2407129423674116e-01 5.6407837380320771e+00 1.6175526677892257e-01 -1.9308146560559894e-01 1.5482281758894014e+00 1.0269483800541163e-01 -5.3424504047526167e-01 -8.9928401005411041e-01 -5.4845505868750477e-02 1.1480382458984206e-01 -7.0817288932096836e-02 -3.1408968362317713e-01 -1.8845286158350555e-01 -2.1744681369463441e+00 2.6926051794169176e-01 1.0858503899066987e-01 -1.3023178887741582e+00 1.4740840305259229e-01 -4.5116737135118568e-01 -2.0806448420907633e+00 2.4007786204826209e-01 1.3397819579535480e-01 7.1365002339113444e+00 -4.4794661808711667e-02 1.1016937589533566e+00 1.1432514614539069e-01 -5.1231056074491271e-02 -5.3527853112728035e-02 7.3789878134113729e-01 -3.9373722822479956e-01 -6.6677724034683750e-02 -2.1465702303365124e+01 1.9887989344554108e-01 1.8001387865325719e-01 -2.0049807546489449e+00 -2.0555790684157937e-01 -7.6558737271575472e-02 -1.0059401669706414e+01 8.0440826381943109e-03 -1.7487063254392643e-02 -8.9724209662695797e-01 9.7670361571513542e-03 -1.5302592678611940e-01 3.8974960179168017e-02 1.3290762754513574e-02 -3.4343921561865498e-02 -8.1732693822042846e-02 4.8162848205510533e-02 -7.0183354398311859e-03 9.3603747214357025e-01 3.5839795469783831e-02 3.3912514932249671e-02 3.8246709463868245e-01 -1.8522916010039525e-02 1.0156017554101160e-01 9.3445337530894221e+00 8.1769994014678549e-02 -2.2774478760177574e-02 -5.1104825561118368e+00 2.6870318564389262e-03 2.1779372365334138e-01 -5.0531778950189121e-03 3.1529055111930049e-02 -1.0510764154562979e-02 -1.4542540270693305e-01 1.3979248335635797e-02 7.7440592715936951e-02 5.3075449577042484e+00 9.1558482038518463e-03 2.7613026321061440e-02 9.5052306694155231e-01 -2.1631233475576828e-02 8.0892385496146024e-02 9.0792836891475552e+00 4.6510332794742204e-02 7.9172457022091761e-02 -9.4710160618487080e+00 -1.0544557763684081e-01 -9.0803024822238754e-01 -4.6173711186793337e-02 2.3684008452338723e-01 3.3307249217705848e-01 4.9190140381820407e-01 4.0879166175226866e-01 2.0712688253920247e-01 2.3068347379024505e+01 -6.1856409746114838e-01 1.5915503288088539e-01 2.4260956081627487e+00 -1.1766543579486682e-01 2.2139398789101428e-02 1.3875358068827595e+00 -2.9564186668768755e-02 -6.5740537442848801e-03 1.4423226924496242e+00 1.6508087801319585e-02 1.4210389550366287e-01 -2.3120231831454063e-02 2.4149387364488017e-02 5.5720557684654004e-02 3.2038880766026123e-01 -2.4716367981707787e-02 5.4625081183339252e-02 -1.0039575770181486e+00 -7.3395205369094607e-02 -4.8413394007718491e-02 -2.1809027558918892e-01 8.3075817856705925e-03 -2.7565673216955577e-02 2.4940962812118812e+00 -1.6112668685427822e-02 2.8535581030292079e-02 -4.1298377906826644e-01 -1.5907010671670996e-02 5.0655246137289378e-01 5.3237077950547107e-02 -5.8936975685938364e-02 -7.8635347676245027e-02 -3.4278119171520416e-01 4.8358651948730014e-02 -1.9073817490000700e-02 -4.5139163894589274e-01 -9.8662462983115096e-02 -1.0212872431121456e-01 3.7393943477273073e-01 9.0093570914046239e-02 -3.4029031768759710e-02 4.5472880002593158e+01 6.2518951984994242e-02 7.1561238222510593e-03 -2.7727970222958724e+00 2.5123714086245252e-02 1.0695845659133862e-01 -1.3950459398764714e-02 1.7604791808228881e-02 -3.4266253792871737e-02 -9.1298406247011243e-02 8.6268407187747975e-02 -1.0687504853226937e-01 -4.0982942549870103e+00 3.0492728219226384e-02 4.2324029311740174e-02 1.8457409927753448e+00 -4.4978557122126839e-02 -1.5665591601079853e-01 -2.3811730408440823e+00 3.4671846257843775e-01 1.4165172240286766e-03 5.7009714026221898e+00 -3.6234483205067697e-02 -3.4898748864293283e-01 -8.5268466261583642e-01 1.2265186660368582e-01 3.7579913409858023e-01 8.2420792495428130e-01 -2.9859058897399715e-01 -5.3495414952618836e-02 8.9194250208420933e-01 -1.0750786782618353e-01 4.1728486589112096e-01 -7.8644694044188901e-01 -1.1926713634258954e-01 7.5633928975977538e-01 -9.1987947359764555e-01 2.6861446006890648e+00 3.8945379674092750e-01 -1.5764225253601687e+01 3.8901740315472111e-01 -7.6422950528351823e+00 1.4870140126322151e-01 -2.6653492820378255e-01 -8.4984563597028195e-01 -7.1529457072018641e+00 6.2357341228482044e-01 1.9077619808493296e+00 -1.4009591219910398e+01 -2.6429012029699841e+00 5.0540796725442361e-01 6.0760120634956323e+00 -1.0148315333277933e+00 1.0359053912182052e+01 
      </Row>
      <Row Index="115">
        -4.2004090536818900e-01 1.4045047223352753e+01 -2.3103598847035484e-01 -3.0823400823208497e-01 1.3875459129400133e+01 2.6974463220630984e-01 -8.7172901343371412e-02 -1.2623172307032071e+00 -2.5633959390053446e-01 6.4161621033882593e-02 -5.2971864991840478e-02 -8.6822228189364681e-01 -5.0718273653279278e-01 -3.4313633306397868e+01 -2.8531806080247385e-03 -1.5009546930414197e-01 -4.7838107113750565e+00 5.6291513843321872e-02 2.3730794431636903e-01 -7.1441525584653220e+01 2.4014751009569757e-01 4.7747420282037945e-01 4.6022437979887165e+00 -3.4396356026752928e-01 5.3776412012722985e-01 -1.2825023963795421e+00 -2.9134365801292728e-01 -4.7465613839009413e-01 -2.0192839192958040e-01 -7.8018993162662087e-02 -7.1041858683521725e-02 -1.2697997857319610e+00 9.1377758587875696e-02 -1.5112745672771710e-02 -4.2315704549314619e+00 2.2059579634191911e-01 3.8249350931339743e-02 -1.5508876132156555e+01 4.8555117583925833e-02 3.9059942681238013e-01 -5.6823509394473226e-02 -9.8880017292382050e-03 -8.1115252386827208e-03 4.8831906759741961e-01 1.9438506932605265e-02 -2.1652726929844271e-01 -9.0000887201118096e-02 1.0936562545018713e-01 4.3861412565690872e-02 -4.9449026033097434e+00 2.0965482316507134e-02 2.2190185755385006e-02 1.4421882118878344e+00 5.1280888976500516e-02 -1.8716859664907393e-01 2.1436386900468705e+00 8.1261222368842589e-02 -7.9654394909471182e-01 3.0819903826140136e+00 8.3162096822944731e-02 -5.8140434764496485e-02 1.1355358537611036e+00 7.9250012460943875e-02 3.5512059776367477e-01 1.0652098555106715e-01 6.3265473541810890e-02 5.5763733876901256e-02 -1.0070395205209365e+01 -1.1078560759328893e-02 4.0237690569639550e-02 1.2453771859902927e+00 -1.9753292130808867e-01 3.7724449669348054e-01 -2.7083862960360676e+00 4.1563610356180902e-01 -6.4589155288690026e-01 -4.2504635520182710e+00 1.4831678332751105e-01 -2.3114185056809280e-01 2.1424571299293875e+00 2.0460217384387963e-01 -1.8077646051826984e-01 2.5503572147968256e-01 3.7214836695757858e-01 6.6202063676479717e-01 -9.3619195775570567e+00 -4.0102905668701361e-01 -4.0240794028068283e-01 3.8393292391754716e+00 -4.0832120985323461e-01 2.1929759644587321e-02 1.3015346298427946e+01 -1.5768033422257233e-01 -6.1479570249212134e-03 -1.2136071411509897e+00 -1.2264119805023115e-02 4.3492327096528172e-02 -9.2006982090507194e-01 -8.3782718556478342e-02 2.8281109940153648e-02 1.0248630514614732e-01 9.6450950255255574e-02 4.1457034472991705e-02 6.7665071689482659e+00 -5.3194646766817788e-02 -2.7726006370759615e-02 -1.8732434860477536e+00 -2.9255845538012526e-02 -1.0923795073327414e-02 -3.7882648216075900e+01 -1.4551321556678753e-01 1.0214926596517793e-01 7.6251760589754358e-01 -3.6700393338584547e-04 5.3237077935181176e-02 1.6735784006833474e+00 -3.4197542986384777e-02 -4.7712399833368613e-02 -7.2911882774066683e-02 6.5363321084022097e-03 1.2992653756944028e-02 -5.1506342382789398e+00 -1.7280183522361825e-02 1.0115150027253339e-01 2.9578232151926809e+00 -2.1494439668386711e-02 -4.2360861469331379e-02 -1.1467828095127648e+02 8.2199548404897071e-03 -3.7869292828044898e-01 6.9326805206238173e-01 8.3398619239255289e-02 1.3560101403130354e-02 -2.3587046307871118e-02 2.6937014445428120e-03 7.6658704886828133e-02 7.7461918297841104e-02 3.2694787556115901e-01 -1.3255764221986222e-01 4.8770836847777304e+00 -4.2312654530429372e-02 3.4513775787841094e-03 -2.5240203900565472e-01 -4.8563373341603100e-02 8.7732884185063892e-02 4.2543492223425901e+00 2.1418220725342096e-01 -4.8716474880147004e-01 3.4700403173958860e+00 7.6822143120486741e-02 2.1631609319345474e-01 -9.8521949082611671e-01 -3.5074428313598338e-01 -5.3839220475193728e-01 -1.3659014851802986e-01 -6.8310143166014814e-01 5.4953151147905777e-02 -1.9274887176259650e+01 -2.8737293924959578e-01 -5.1330104010844879e-01 -4.9039857904933939e+00 -8.2307045845738003e-02 4.0658289780977519e-02 -1.2572709610566807e+01 2.8706618130265920e+00 -9.7002978412824685e+00 8.4807600979261473e+00 1.3036156502269183e+00 -1.4843119774689684e+00 1.4709992173314795e+01 -2.7059240624311731e-01 -2.5240750458205721e+00 -3.6495656037904700e-01 2.6730110368222926e+00 2.5508368972247446e+00 -2.9550848720166289e+01 -1.7434277780447225e+00 -6.0570720801501809e-01 -1.6793976873754840e+01 2.8683290229004310e-01 -2.1513424162483958e+01 
      </Row>
      <Row Index="116">
        4.6348185182793711e-01 6.0057982374584334e+01 9.2009938823454207e-02 6.0659638581138597e-01 -1.2798603800551479e+01 -3.0013974753688798e-02 9.0852126076054196e-02 5.3600885266119014e-01 -4.1361914879301931e-01 6.9858418399423167e-03 -1.5970736417666359e-01 3.7392831318705244e-01 -7.3222506822683081e-02 1.7541250229718308e+01 -1.2289843062814204e-01 -1.7269462447310469e-01 5.4702013850917153e-01 1.9087418843513415e-01 -5.3793406675777256e-02 -1.7506005484852887e+00 -2.2299691599479088e-01 -9.7495262128805299e-02 -6.1544686033683504e+00 -6.5507767104772463e-02 -8.2845103873951054e-02 2.6442758538071354e-01 1.1286045037331560e-01 2.8604636318239085e-01 -3.1458650215759909e-01 -5.7722763919698139e-01 9.1877919441669564e-02 1.2142717301673240e+01 -5.6436301422767524e-02 4.0462547042659125e-01 3.6165274633616384e-01 -1.9829712576816466e-01 4.7385126854679216e-02 -2.8370799397034538e+01 -2.1858591296889496e-02 -4.0726664193841966e-03 8.5940967486044428e-01 2.9686571984905097e-02 6.4179976033010844e-03 -3.1660384786614371e-02 -7.8996645563706669e-02 6.4984505399351189e-02 6.9979352245585158e-02 -7.8700069695860186e-02 -7.6946672880739975e-03 -1.6887245323172948e+00 -3.8428353577534269e-02 -5.0458666191772750e-03 -5.1904176252019774e-01 -7.7162567673436211e-02 5.7043252270688072e-02 5.0051624105694827e+00 -2.7531926868303636e-02 9.5912041149996963e-02 -2.0682107440680402e+00 -7.5127480543004665e-03 -4.5823035870919959e-03 -7.7516201360094072e-02 -2.6377430828295179e-01 -1.2211694562527420e-01 4.3158969978513539e-02 -1.5510210278328973e-01 -6.1892871524277027e-02 -3.3549214640112126e+00 4.8620281863549497e-02 -1.4213111795679412e-01 -1.0750139217304939e+00 1.5904805059960148e-01 -2.7053332432664823e-01 6.8569126167965457e+00 -5.8453926410313661e-02 -3.2612622133590974e-01 -3.6117737595584725e+00 6.6391615126959458e-03 -4.3061231794379540e-02 -1.6112079858972278e-01 3.5094776157255358e-01 -9.1575317754832408e-02 -1.6513234946969726e-01 8.4101618824405788e-01 9.3195146666103068e-02 9.7584153161745091e-01 2.7180100686656433e-01 -8.6619014940626959e-02 4.9818112047993273e+00 1.5499396248390424e-01 3.4538310871980116e-02 -1.6721664365789337e+00 9.1633548044958046e-02 3.0320139323550155e-02 2.4338643450753605e+00 -8.7610169393360082e-03 -5.6822875928290273e-02 -1.0931835094608822e-02 -5.3734586500280956e-02 -4.6216000500912457e-02 1.5468166943680473e-02 -3.5740009953739493e-02 -1.8528613761199964e-02 -3.2645840129850683e+00 4.6939365981579995e-02 -1.4392546814047646e-01 -3.9868145814215339e-01 1.0168167870634370e-01 -5.1453728296307233e-02 4.7751896599216025e+01 4.5803534669319745e-02 -1.6528195365788534e-02 -4.0150448493113551e+00 1.9062654419606417e-02 -5.8936975683616666e-02 -3.4197543059283575e-02 4.7860661620297140e-01 5.2353655836990143e-02 2.4862936751304687e-02 -1.2381165046116394e-01 3.2584116174652067e-03 5.2998463916118368e+00 8.5102114860545308e-02 -2.7958547061299210e-01 -1.7695269147671944e-01 1.7845003499291767e-01 8.5672350032626632e-02 2.2129439024990759e+01 -5.0230033700622290e-03 1.0830848916954849e-02 2.7555500323284789e+00 -2.2303678248957848e-02 1.0672395331448925e-02 -4.0144791553592185e-02 -9.0923865612895560e-02 5.0556825208438738e-03 -1.5272859929949867e-02 1.6169215869855513e-01 5.7336845119595026e-02 -8.0884168849475557e+00 -3.9884088006828522e-03 -1.0852184261906350e-01 1.2012109478747091e-02 3.6312943635564032e-02 1.9685028604038957e-01 8.8779812361836719e-01 -7.9946341581708713e-02 1.9953185290881548e-01 -1.2456945911992838e+01 -6.1581291122267512e-02 -3.9513624212700799e-02 6.3859579243875553e-01 -2.2478856971644645e-02 1.5691425995622182e-01 -5.1623172076636159e-01 5.9293248926894881e-01 1.0703413278478147e-01 2.1792578652724064e+01 7.0950006294128926e-02 9.9378542598352104e-02 3.8002398877901076e+00 1.6402520991990244e-02 1.6343843512975553e-01 6.6885352991718907e+00 -1.5920154097009522e+00 -7.4713940954757696e-02 1.9362313581635604e+00 -5.3084189063867626e-01 7.0697251263670990e-01 -3.6224707492338304e-01 4.7744238939514325e+00 8.5539002590794855e-01 5.1021909350089278e-01 1.9363158899716173e+00 -9.3452403361742142e-01 -1.4097451828839919e+01 2.0989031730884804e+00 2.4039457913086046e+00 1.4827575244596261e+01 -9.1170530268246408e-01 -1.1749267375985969e+01 
      </Row>
      <Row Index="117">
        -5.0583536986934252e-01 4.9702019960990349e+01 2.1407073846936081e-01 2.4047659835093271e-02 -6.3543374623795703e+00 6.7856637626376309e-03 1.4702917673101923e-01 -4.9404352423137166e-01 3.4429792896909683e-01 3.9366188738891805e-02 6.8986194411168900e-01 8.8964852348528245e-01 1.5107090861588415e-01 3.4315368446842562e+00 -7.0477380383755339e-02 -4.3891123584589486e-01 5.3838104747378583e+00 -1.1101736526024109e-01 -5.0646111960846474e-01 2.3438242037732671e+01 -5.6984303483997190e-01 5.7710525876221896e-01 -1.1839431615654375e+01 1.2312344151247195e-01 -3.1254735429330793e-01 1.2510295646930081e-01 1.7609008777566701e-01 1.8346188679354551e+00 1.6199920188011485e-01 6.6347344797178565e-01 -8.7459580615009691e-02 9.8326478481753661e+00 -5.4579499195904352e-03 2.2961918748811261e-02 5.0536771689969111e+00 -4.5268305441187240e-01 -1.0910202785249257e-01 -6.9285275581381001e+00 -1.7889543200438596e-01 -2.0666880400004339e-01 -7.9538754483589647e-01 -1.2114461580870817e-02 1.9111849968965977e-02 -3.4177782420689473e-02 6.2140401309482285e-02 3.7305339317154984e-01 -3.9879413552953880e-02 6.0109641811898484e-02 5.0367810461403456e-02 -4.8197228273637762e+00 5.9683345564498502e-04 1.1751158508393056e-01 5.7945133204458654e-01 9.0728115251235142e-02 1.6587429866470593e-01 -7.0175065674995551e+01 3.8902143804120826e-02 -1.6994389405925414e-01 1.4874797739968860e+01 -1.8350138362526636e-02 -1.7273005570483280e-02 1.1646515576077476e-01 -4.8321726051440361e-02 -1.2435372258579844e+00 -2.4449381719307439e-02 -3.0750991389724147e-01 -1.1572990851281606e-01 5.0607316096250727e+00 1.6065645940202433e-02 -6.6925376901105782e-02 -9.8853050192561698e-01 5.1368425363690351e-03 2.6149054321148157e-01 1.3834810513844635e+00 -2.4719373170224235e-01 -7.3694174017885505e-01 8.3438244180395209e+00 -1.1865625126786739e-01 2.1550639751806855e-01 -1.8929254536804879e-01 -6.0363883933000528e-01 -2.3928834625021240e+00 -3.3219990450565895e-02 -1.1402894038196794e+00 -2.3400854724744312e-02 -2.2679815506458493e+01 -2.0847900532191446e-02 1.4892811360586822e-01 -7.8642525700537238e+00 1.2290987776744222e-01 -2.2664978762106003e-01 2.4444402544964902e+01 4.1583078272089635e-01 1.3844462188341078e-01 -3.0716711482141306e+00 -4.6660095115938993e-02 -5.1167922723863057e-02 -6.2450407729045310e-02 -1.1646515616137387e-02 -5.0357702311794483e-02 9.9885301332944820e-03 -3.3264222201384808e-02 -2.2130658142752280e-02 -3.3322205508748084e+00 1.7113780799408174e-02 -5.2243988489847126e-02 -3.0743131248784294e-01 -3.6574795547667627e-02 -1.5102210729603360e-01 5.3733538485694083e+01 8.5775140541572981e-03 -3.3847305789198057e-01 -5.9462566525040721e+00 5.7218242289789778e-02 -7.8635347695636071e-02 -4.7712399857528176e-02 5.2353655888036865e-02 1.4773132208688096e+00 -3.2092894599180966e-02 1.3318068505341429e-01 2.0760132854189095e-02 -4.9437097463166992e+00 3.1271563416266801e-02 -7.0247607407292634e-02 3.3985502174725153e+00 -1.1310149665475233e-01 -2.3076177001059239e-02 -8.8383318775576925e+01 -1.2195941325601545e-01 1.1607629172489009e-01 3.2423461410161636e+00 6.3922502554901506e-02 -2.2330614269759685e-02 1.2256314043804473e-01 -3.6217433256642839e-03 -4.4943582546870786e-01 -6.8539745748967817e-03 4.4532559502916946e-01 1.7361329591398800e-01 4.6352195611165641e+00 1.4059619975868465e-02 -5.3289873359335438e-02 -4.9100652006485372e+00 2.2058957697022930e-02 -7.4683019822567176e-01 7.9176324409500296e+00 -3.2003817137976842e-01 -3.0988134028978528e-02 -9.4664373757031708e+00 1.2631643641072499e-02 5.9192784996580386e-02 -5.5339723754089287e-01 -6.5578007760774076e-02 -7.8617952707649441e-01 7.8953866126072669e-01 2.8473617872004497e-01 1.4461216014318637e-01 -9.8187870838054749e+00 -9.2919416317651451e-02 -2.7293891676466431e-01 2.4943979499075390e+00 -3.2179688515537830e-01 2.1039020429178663e+00 1.6515002043247566e+01 -8.1359119161952691e+00 3.1892111102144085e+00 5.3298772067542920e+01 3.1329249341493437e-01 1.4540436727802872e+00 1.4243201137347965e+00 -2.7302058765362665e+00 2.0279266788590430e+01 7.2679798924589001e-01 2.1220736869038479e+00 -2.4882664132373691e+00 -2.2155200826268624e+00 4.6595018494791418e-01 7.5376590294962176e-01 -6.2625382037737012e+01 9.9943373130548929e-01 -1.8569594623944376e+01 
      </Row>
      <Row Index="118">
        6.4765455675478401e-01 -6.7801136559719666e+00 -2.3567076210406201e-01 -6.6362080794798939e-02 -3.3962118306672844e+00 4.4125603459054183e-03 2.7237113168102089e-01 6.5089373161321973e-01 -1.7865955033585512e-02 -3.0517461580603739e-01 1.1854386378363557e-02 1.0006288542588639e+00 9.8357088493278622e-02 9.9657945938153780e+00 -1.2837949968957885e-01 1.3109748262572429e-01 3.2603672090126867e+00 -9.6358921511769946e-02 1.0824613681815581e-01 2.2412392756939422e+01 -1.7401527410958106e-01 -2.7544216407752875e-01 -6.9299338599808635e+00 3.4545598995375459e-02 -6.0285445553758332e-01 -7.5159060754778295e-02 1.1909305215696686e-01 -8.0231396039072714e-02 -4.6715204180471392e-01 5.3501635579994633e-01 1.8474412591338751e-02 2.3354145852994929e+01 -9.8814634234716009e-02 -2.2616890257985839e-01 3.0782460658461375e+00 4.0438183053472959e-01 -4.0151356225001322e-02 2.4193381859017244e+01 6.3293549674221405e-02 5.5579717566405229e-03 -1.3028475883381443e+00 -3.4887204331427668e-02 3.0052140665028704e-02 2.4646113027184668e-03 -2.5782512506024702e-02 5.6748146938202515e-02 -1.1473677367115087e-01 -1.2682790905290542e-01 7.8381661970976513e-03 3.4136620022215229e+00 -1.6151698153196392e-02 -2.1801022776294587e-02 -2.8141699449563240e-01 -1.2458269953607326e-01 -2.0298659870133484e-01 3.2011956656023074e+01 4.7273667051928037e-02 1.1555278773835731e-01 7.7471884619733444e+00 2.3265805304474974e-02 -7.5309478714812528e-02 -1.3984911969719782e-01 1.3395568556502813e-02 8.9144386493202887e-03 5.8842579533961015e-01 1.6797006713362084e-01 -6.1126361286486741e-02 -2.0524832498707994e+01 -4.2461034723170421e-02 4.0422857845404003e-02 7.4875386908158248e-01 6.6410529127070905e-02 -1.7087185580087372e-01 1.9675928926892521e+01 -2.7570637674090859e-01 -4.2954021482293492e-03 6.4215615904973795e+00 5.7269669248326882e-02 4.5202664124312381e-01 -2.6376568479338836e-01 -1.5790831957425361e-01 -1.8699583412171705e-03 -1.1468347612722252e+00 -1.2413174680644823e+00 -1.2025597806492605e-01 -3.0429160423052991e+01 9.3312606613485283e-02 -4.9848934320458671e-02 -2.5968000631887120e+00 1.2492849880460621e-01 -2.7277653879184882e-01 6.2644474202227229e+00 -3.2891759891384709e-04 -8.2760452646430949e-03 -5.8291523993232506e+00 6.8535055627076402e-03 -1.4844369060242002e-02 4.4836625964117083e-02 -1.0326087898435143e-02 -4.9402383198490440e-02 -3.8518452685491766e-01 -2.4345876201557592e-02 -9.8085566444760630e-02 1.3583310760252417e+01 2.8257890177920686e-03 6.6311018613700590e-02 -6.2721520783412643e-02 1.2316517662578619e-01 -1.3824120068820278e-01 1.0154119100798255e+01 5.2677302947131466e-02 1.0656667581763202e-02 6.3888675480060915e+00 3.3826742156435330e-02 -3.4278119170792998e-01 -7.2911882748787349e-02 2.4862936802104052e-02 -3.2092894624521584e-02 1.2703845060044614e+00 1.0759682777374202e-01 1.7242851828493500e-02 -1.0688394837136286e+01 4.4198893563242692e-02 1.0322415526475481e-01 -8.7195401718850540e-01 4.6422647903241909e-02 -6.5801434007838111e-02 -2.2643165781618478e+01 -1.1178651774613524e-02 -1.6953646203668349e-02 3.1601378940342784e-01 -2.3543128710832306e-03 -5.6223149939302886e-02 -1.0213584287620581e-01 -3.5173765616571706e-02 6.9893051498663539e-02 3.1803067412565156e-01 -3.5323918724584402e-01 1.3072291583553231e-01 6.7672537460392732e+00 -9.9965060046471876e-03 -3.7120117360299965e-02 -2.9338000508981450e+00 4.9266133559169312e-02 6.2156779083976099e-01 7.1688932526894575e+00 -5.9982946176933116e-01 -3.1184203625714796e-01 -1.7595197058481215e+01 6.2169561607245932e-02 4.6279269874331869e-02 4.0569833826248169e-01 -8.4463333704442908e-02 -3.3322302648508773e-01 -1.2208050201675249e+00 3.8217205821073036e-01 -3.3289031691723370e-03 1.2422063291238661e+01 -7.1097335368186257e-02 -1.2850945085932725e-01 3.8156319005454074e+00 2.5135660926300751e-01 4.0985716743334883e+00 1.8842460758353731e+01 8.2150357256802664e-01 1.9310075059847698e-01 6.8827637165945816e+01 1.2803345796555732e-02 2.1209439817845661e+00 -6.9356163808458415e-01 9.5433428854115876e-01 -4.7402681439306349e-01 1.1550261818264868e+01 -4.1585028981125438e+00 -2.3471437986732155e+00 2.6726997169781757e+01 6.5061565984333924e-01 -4.8462864651255089e-01 -4.3532406941859676e+01 -1.5179971530744318e-01 -3.5589345089286120e+01 
      </Row>
      <Row Index="119">
        -5.8297697110166080e-01 6.2239495764048968e+01 2.1391151855291318e-01 -4.4861146042163591e-01 -5.7984410669338047e+00 -1.2649808415627478e-01 -9.5426903576706079e-03 -2.0922257581284870e-01 -1.9472954399821563e-01 -1.6130663483778457e-01 3.9458911645603412e-01 -9.6460607960993927e-02 8.1531299825747394e-01 6.3767997211593963e+00 1.5648252816584421e-01 -4.1263415961055400e-02 3.9128631707888291e+00 1.6406422656660896e-01 5.5541591694362824e-01 -1.0082595822972159e+01 -6.8500228930887919e-01 5.8250353497334284e-01 7.7961396721700336e+00 -3.4107804119340868e-01 -5.5661360298646434e-02 5.6681754504892756e-01 1.0492935808279648e-01 -3.5709006154928147e-01 -1.3898253536515626e-01 1.3673421313813734e+00 2.0868514823125728e-01 -1.4044939996337172e+01 1.7288075699369559e-01 2.6037933403340541e-01 -7.8012660572625003e-01 2.2856419123989566e-01 -1.5124676285609678e-01 1.0506981457254872e+02 -9.6581769038405402e-02 -6.8935412743920621e-02 -7.6478580280178843e+00 -2.1003956074965524e-02 -1.4032080391148102e-02 6.8151825768551916e-02 5.3843079400177428e-02 2.5060066388753091e-02 -5.6458282924732456e-02 -1.1802552858147251e+00 -8.5376811538034933e-02 1.3125665461845296e+01 1.5202795014099303e-02 7.4706781074164286e-02 2.6354281410405669e+00 1.3988421825160030e-01 -1.1851199765386689e-01 1.4219739247441510e+00 -1.5915202021132197e-02 -5.7799858843373186e-02 -8.0916904143131019e-01 6.7189272639109565e-02 -1.4870584934097403e-02 -1.0619216135330345e-01 7.9845688581764801e-02 -1.3614015577299959e-01 1.1126909018045072e-01 9.8878533776173483e-01 -1.1553767305592733e-01 -7.2733998962614024e+00 -9.7342234633166269e-02 6.3368610205544185e-04 1.0479938584703068e+00 -1.6657980089704166e-01 3.1794264825895630e-01 1.2394220687728575e+01 2.7379164422033031e-01 -3.3194048095732093e-01 -1.0801037358978413e-01 1.0115223428565609e-01 -3.4709365363825673e-01 -8.3529160005605774e-01 6.3797259519648986e-02 4.4589016937262582e-03 1.8160954512223448e-01 -1.8134747188655274e+00 -8.2316137928403377e-01 1.8516397333361486e+01 -6.2590851795132407e-01 -4.5663800113956121e-01 -4.8590503235952043e-01 -9.7910867892147591e-01 8.4456197947467504e-02 -1.3283647236316314e+01 1.7776966547646419e-01 6.9319136937928516e-02 4.5387194584549545e-01 -6.3648801347795450e-02 -5.7159542202677827e-02 3.6093998593358767e-02 -4.3231566242309533e-02 -4.0521717855017236e-02 5.3523518008962157e-03 -2.8450341558084846e-01 -7.1080355125298283e-02 -3.6651768141514487e+00 -1.5399396170939986e-01 1.0620685953047297e-01 7.5301689931886351e-02 -1.4715682489569792e-01 1.6653063754642555e-01 -1.3358831172133469e+02 1.1927397398902187e-01 -1.7517597218283348e-01 1.1753108353947152e+01 4.4275957557564527e-02 4.8358651920690554e-02 6.5363320445062101e-03 -1.2381165049828333e-01 1.3318068510493525e-01 1.0759682784197322e-01 2.1316449139809572e+00 1.6770121307832359e-01 -2.2988795792686243e+01 -1.5565052935626705e-01 6.9112520704040947e-02 -2.0515323027494730e+00 -5.0299480230993010e-01 -1.9235131486947876e-01 1.8542892909795557e+02 -9.3313880479578698e-02 6.9439935663861030e-02 -1.1521100563277958e+01 1.2611134213505787e-01 -1.0632409559070077e-02 -1.4815878516553416e-02 4.0472731861065939e-02 -8.7832176976554432e-02 1.0215246844488324e-02 -2.9982546573475384e+00 1.8232912871957629e-01 1.8172363596255014e+01 -9.4037572374710970e-03 -1.2090540306981118e-02 3.4015580018942924e+00 9.8378520386076695e-02 -2.1574424825183472e-03 1.5501440584264383e+00 -2.1778038541532319e-02 -1.3664511560864592e-01 -8.4684073472739874e-01 -3.8159786502786008e-01 -3.9407604449320460e-01 -4.0456657694102194e-01 -4.8914276315775392e-02 -5.2583646481369128e-01 4.5393900717064783e-01 -3.1832019551788726e-01 2.7607494726892001e-01 1.5152437399843425e+01 -2.5297717497530814e-01 -1.5971540646519422e-01 -3.7500365589525444e+00 -2.6473015074290318e-01 -1.1919769773210223e+00 1.2772309121155473e+01 -4.4696674701631824e+00 1.9539488289683682e+00 -3.0542061510467757e+01 1.2411087223166883e+00 2.4692170567760241e-01 5.1487277213109151e-01 -1.3430090073565184e+00 2.3182761229841313e+00 2.0919959862527087e+00 -4.3384298081359148e+01 -4.8052988876503111e+00 1.7975196117505927e+01 -4.0572022445385949e+00 -5.9794684514414886e-01 -1.3355003038284607e+00 3.0686429611584400e+00 7.1404006713702461e-01 
      </Row>
      <Row Index="120">
        -8.1917126332568285e-02 5.1546732823897621e+00 7.9861254177378757e-02 1.4153432423433240e-02 1.6704881098541513e-03 9.8417758824047297e-04 6.5649743402526273e-02 -1.4817527237663497e-02 -4.8344362568741903e-02 -1.7052947172964530e-02 -1.2954399401284486e-01 3.7619022787579770e-01 1.4224611003182819e-01 8.1418532552662137e-01 -8.8745138118123373e-02 -4.4397177868093163e-02 1.0090269409055381e+00 -2.4231273595634040e-02 4.0525173837665580e-02 -4.0705071739044465e+00 -4.1344653061774095e-02 2.5048709713176728e-02 -6.0083199727569037e-01 1.2751601539996044e-01 -2.4005496311566843e-02 -1.0573408157443173e-01 3.8161303155761078e-03 3.9001869269554928e-02 -1.3372056960177070e-02 3.7704600220414075e-01 -5.0182563981387818e-02 3.0717162502273654e-01 4.1885028037173332e-02 -8.6137009109208587e-02 7.1213676521646552e-01 6.1328264347825914e-02 -2.0752057200482066e-02 1.2522907398137392e+01 -2.4634373142347760e-02 1.0361972896087479e-02 -9.3219061283254090e-01 4.6967400114152902e-03 6.8818466093215069e-04 2.0623733919552079e-02 -9.6444547284524340e-03 -1.5155506360888582e-02 4.2439353748773279e-03 -9.0105924124913805e-02 -1.4589679033798819e-02 1.4257654536608300e-01 9.0652025982324302e-03 -8.0423719817973582e-03 2.8563182455809610e-01 1.4623664871406206e-02 4.4788219579137367e-02 8.2955348782260074e+00 5.9489461404330646e-03 3.2970402309736579e-03 1.4329081713669929e+00 -3.5652697227665842e-02 -1.7090181285000727e-02 3.8990420646367374e-02 -1.2224061975914413e-02 8.6864130627708480e-03 3.3872216656569698e-02 -1.3434844221262399e-02 -4.0374681714374194e-02 2.8692325131876117e-01 -6.8549109086835092e-03 3.6236219984177032e-03 5.5282365229473096e-01 -3.6907468964324230e-02 3.3452240459821481e-02 -8.0297746432012094e+00 -8.0017712892594600e-02 -6.1940951818476933e-02 1.9520636719374811e+00 -7.4107260699978195e-02 1.5850998615146855e-02 1.6421168031632138e-01 8.1593484827375065e-04 -1.4044065489496038e-01 -2.3232210573652524e-02 -7.6596810692741868e-01 -2.4840935894620481e-01 -9.8767672616278226e+00 -3.0030195053056576e-02 2.2682552161193026e-02 -3.7276912167993242e-01 -1.1886256255004390e-02 1.5620570814153911e-02 -3.2465168606640447e+00 3.9590805321033234e-02 9.8586946103517148e-03 -1.3453797583491807e+00 5.3528890307322149e-03 -9.3539712486396809e-03 -1.4825445838718476e-02 -1.2193120448497630e-03 -4.6556034779188238e-04 1.4573181906866184e-02 -8.2352131989171712e-02 -7.2448881133006793e-02 1.7581593876056054e+00 2.4655828781560696e-03 3.0598140549553121e-02 1.9050960577602183e-01 -2.3552708290154101e-02 8.4602605297094957e-03 -1.0868173733094153e+01 1.1129721626946143e-02 -1.2921416650840900e-02 7.6056745725385255e-01 -4.5038552684927513e-02 -1.9073817499202228e-02 1.2992653738951088e-02 3.2584116333648216e-03 2.0760132861500358e-02 1.7242851850209462e-02 1.6770121307080910e-01 1.4116757269494773e-01 -2.5798042842378486e+00 3.3693313061080588e-03 5.7212413990550104e-02 3.0635667580716941e-01 -3.9106750145683211e-02 3.9737745652640322e-02 -1.7858914485797776e+01 -1.2717285827818059e-02 4.1057776771760146e-03 -4.4862082327641239e-01 -3.3954418105564432e-02 7.2814759698833775e-03 -4.8827263019832756e-03 -7.3058993841108033e-03 7.7746231096282870e-03 -8.9302234639416778e-03 -3.9451464804706804e-01 1.3103756439194569e-01 1.8432423347880142e+00 2.7644883986340241e-03 -1.8522017247039391e-02 -1.5501770419902643e+00 1.2231677012783604e-02 -9.0762599049230841e-03 9.0641305031420316e-01 -2.3207658153803878e-02 -1.9524353500504799e-02 -3.1540440771726432e+00 5.5438299493763318e-02 4.9266018229540555e-02 3.2828823094230186e-02 -3.2241065822162004e-02 -1.0854392609410421e-01 -1.4474043261479830e-01 2.0499099391742504e-01 -1.5046535534307470e-01 -2.3187492132034446e+00 -6.9835643295521693e-02 -8.6493510331377865e-02 1.1469752752027111e+00 2.9561759415490330e-02 -2.9619970704470511e-01 1.0237391668861437e+00 -9.6704490493516682e-01 -1.6971914971681112e-01 1.1914360210421742e+00 -6.6700893560937224e-01 1.9452550911866470e-01 3.2896902011310375e-01 3.8302979207643606e-01 1.3030966899447494e-01 1.8687306156849481e-01 -3.9053502402464320e+00 -2.7619625730093276e+00 -8.0371847548977833e+00 1.4815568584948480e-02 -4.0067070474103872e-01 -1.7936930806765567e+01 4.2584185643603267e-01 -6.9705992395577061e+00 
      </Row>
      <Row Index="121">
        4.5224546217421008e+01 2.2359759571563941e+03 9.7362856496129808e+00 1.5649359776001729e+01 4.7727594222833216e+02 1.8459376192396917e+00 -1.4395152374690639e+01 2.4333438708519338e+01 -1.7947860501583566e+01 4.8860729858774699e+00 3.1033400873715840e+00 -5.4316344288699156e+01 4.6140598344504724e-01 1.7354612870551227e+03 -1.0196213203632112e+01 1.5556918806014323e+01 -4.4657536895231243e+02 -4.5496729518044333e+01 -1.5121398989483552e+01 3.5316501312999212e+03 2.4522321299625929e+01 -1.7507347237633894e+01 1.7860510802620151e+03 -9.6948513560564251e+00 -4.5441856768092457e+00 2.0726043361863375e+01 1.0851517958582313e+01 7.4152360777544004e+00 1.6025792005923151e+01 -7.2055337435000737e+01 1.3895968396709478e+01 5.2970889244366854e+03 -9.8944747457729942e+00 4.1623526687070651e+01 -1.9434326660220160e+02 -1.0867165739369455e+01 3.0972781247111243e+00 -1.9887416129444136e+02 2.8960073852728030e+00 9.7304041947163000e-01 4.6509058964064900e+02 -7.7964003615767297e-01 1.1380584240535825e+00 -7.8368235010804312e+00 -1.7229364934028979e+00 -2.9991408632574519e+00 3.1615375942798210e+00 1.3093301125063363e+01 -7.9494681581842030e-01 7.5275739520767502e+01 -1.1365325627226213e+00 1.4114563105893012e+00 -2.4480716655945542e+01 -1.1568328177510807e+01 5.3918095245339828e+00 2.2066077651158557e+03 1.2200799143440861e+01 5.9842772143731509e+00 -3.3429508712500467e+02 2.7075513151636414e+00 1.5092466864466587e+00 -3.3195917974583153e+00 -1.0654011879002326e+01 4.2674504324028817e+00 -1.0177364649027368e+01 -4.2042903098039801e+00 7.7251994234563881e-01 -5.0453882879936828e+01 3.1897278298478682e+00 -4.2341693478608704e+00 -3.2095816973258343e+02 1.4233799362683243e+01 -3.2121040521683682e+01 1.6995838838380937e+03 -2.2802661679525855e+01 1.3178154311494840e+01 1.3091651708261236e+03 -5.6744096420865144e+00 1.4303965664485979e+01 2.2650427861244662e+00 1.2767760160113781e+01 3.5749884971023846e+01 -5.6253964675298143e+00 9.5083197098771791e+01 1.3821776974831046e+00 -6.0394958916720782e+02 4.8669608609565543e+01 -7.7565970536028885e+00 2.1163794638690877e+02 6.3908575921696013e+01 -4.7614934900554999e+00 7.9859400479865144e+01 -2.1785466731363499e+01 6.6190943694022053e+00 -4.3122088794190176e+01 9.4443469251818968e-01 1.8823646682440085e+00 9.2647062597678769e+00 -7.1315833775156534e-01 -6.4540441892015679e+00 3.0450883958141048e+00 9.3979073489012990e+00 2.1052037377788793e+00 -3.5076572895151003e+02 3.1401628993134238e+00 -5.5022516478167063e+00 1.5866789552255477e+02 7.8340857704667997e+00 6.7346986414112280e+00 4.9075150198757401e+03 5.5299154942758832e-01 4.2992110485158719e+00 -2.1306078760161034e+02 -1.2716716591160093e+00 -4.5139162769055474e-01 -5.1506342108632452e+00 5.2998463833025653e+00 -4.9437097381965600e+00 -1.0688394844962204e+01 -2.2988795814505465e+01 -2.5798042870013660e+00 3.5494425760822469e+03 3.3082251867146795e+00 -5.1549285898361177e+00 -9.7464899684855595e+01 2.4523922912557396e+01 -1.4587259515984670e+00 -6.2074734690771329e+03 1.2297066675812971e+00 -5.9153574004267284e-01 1.3630838536008987e+03 6.8492242531931424e-02 3.8806460518628683e-01 3.9516370539345189e+00 -1.1674012638338809e+00 1.5431451431999903e+01 -5.5862214907948555e+00 4.6233987028185538e+01 -5.9510612895120403e+00 1.4410613520994602e+03 -2.5047391953889075e-01 1.4617132991278368e+00 2.5134694641652118e+02 -1.6870075673376732e+00 4.5042925271509979e+00 -6.7763609385870041e+02 -9.3130021472704243e+00 1.1162153689082515e+01 1.5976276710514414e+03 -1.2722253540097700e+01 -4.4794496004556486e+00 4.6671561839673359e+01 3.6715314777035628e+00 4.2827473075808776e+01 1.0026803792774103e+01 -3.0342400487452874e+01 1.3463339701055023e+01 2.0359432402504933e+02 2.3504047183741410e+01 4.4164502201588874e+01 -3.4209723100995797e+02 -1.1528674809395284e+01 8.0518586850309021e+01 2.1420659381847768e+03 4.1769938741193380e+02 -3.5251698789207381e+01 9.5948102622243823e+03 1.0524862982711056e+01 -7.0144541306942685e+00 -8.6433857419888881e+01 2.0918062145025391e+02 -1.9352031433946070e+02 -1.7731224062089595e+02 6.0183027099676724e+02 1.1691639708773255e+02 2.6937993156844663e+04 1.3101223777637733e+02 6.1503285281797503e+01 8.6180816659903739e+03 -2.0144239106239291e+02 2.9731486014912834e+03 
      </Row>
      <Row Index="122">
        9.0377211881544617e-01 -2.2612903203845260e+01 -1.9057140509231774e-01 -1.1336514707139285e-01 8.5246625905694562e-01 1.4809488134063242e-02 3.7323632562611908e-01 1.4811604585863503e-02 1.2960150401731896e-01 6.0759726018245708e-01 -1.2270649357284236e-01 -4.5711164897327805e-01 -3.2006706461473952e-02 -6.8327603188177211e+00 -1.4404261779844543e+00 -9.9932519644582385e-02 -2.2798582863343304e+00 -4.2994947811306794e-01 -5.3376636571338376e-01 -6.7340213276417529e+01 -1.4170185483544540e-01 8.8686945508579806e-02 -6.3224691831080824e+00 -9.7354569132410695e-03 -2.4181938176492013e-01 2.0698710787944086e-01 -7.3625141595443366e-02 1.7332803996151194e-01 1.6294792785693679e-01 -2.8017268271433438e-01 -1.5367118930747825e-02 -1.4038760802575387e+00 -1.4206893402523020e+00 -3.9690420824039008e-01 -1.3203795597256525e+00 -5.3953941644389014e-01 5.7135732474686840e-03 -5.8657534869779901e+01 3.1129790802952639e-02 2.9464101103134688e-02 2.3456876750802476e+00 6.7875073768348670e-03 2.9056765155958897e-02 -8.1983403507805974e-03 -2.3053093842724248e-02 -5.4021240399211079e-02 4.7064943390581426e-02 1.3710464339952022e-01 1.1242878847544047e-02 -3.3935679587255851e+00 -1.6538104413965127e-01 1.0859758848603462e-02 -1.1086836899910990e+00 -6.7270493394457453e-02 6.4643461848650219e-03 2.0482749529444732e+01 5.1846723267817918e-02 -1.4591466538359388e-01 6.9281725853390741e-01 -4.3724423664764700e-02 -4.1521770354014720e-02 -2.8907811277851359e-02 -4.9063808047324464e-02 -1.8562107327867672e-02 -1.2346837610941463e-02 -2.7025732662367474e-01 -2.4953175219010859e-02 2.2414065369481762e-01 4.4342156757080264e-01 5.0890582262474560e-02 1.1885451045080586e-01 2.6046321968882236e-01 1.1088713903258851e-01 6.2181000088118374e+01 -1.4191867050746865e-01 1.5487057403061188e-01 -1.1701527139536569e+00 1.9322879835708798e-01 -3.2995111360104040e-01 2.1996997832670134e-01 1.0125710676867883e-01 -1.0978989449595511e+00 3.3315280057010432e-01 4.8751379570696529e-01 -2.1548032798300190e-01 1.8337107529798420e+00 3.0590731269450551e+00 -1.8579887342557999e-01 -2.8513090462629629e+00 1.3318339773475789e+00 -2.1827127719459227e-01 8.9647763765985658e+01 1.0018086871434551e-01 -1.2335834336582252e-02 -9.9067835538739324e-01 -2.1961061174694041e-02 -3.5325283306733013e-03 -2.2585381279483840e-02 -7.9862456551506034e-03 9.9973506264205980e-04 -1.8889924863655594e-02 2.1636281778857569e-02 -5.8331300784868478e-03 4.2242154384304484e+00 3.3508339545476273e-01 -4.2438229952208140e-02 -6.2397544754231760e-01 2.5056277956006667e-01 -7.0644387173405931e-02 1.2712422987980824e+02 8.7178342229021766e-03 4.4906937925119905e-03 -6.0905063157560360e+00 -4.3816913429974846e-03 -9.8662463007720191e-02 -1.7280183603197941e-02 8.5102114873615076e-02 3.1271563393104440e-02 4.4198893608111689e-02 -1.5565052926692324e-01 3.3693313252571855e-03 3.3082251965718399e+00 7.3853449528540005e-01 -5.5301400692590263e-02 1.4721809249974545e+00 3.5548326646126327e-01 2.4400509103583268e-02 1.2330316892965300e+01 -1.5335497849560342e-02 -2.5016109857434188e-02 2.5349697358946344e-01 -4.7178733690422803e-03 -1.0315436514483523e-02 4.1115814774439485e-02 3.9812408887707207e-03 -2.0142529940484266e-02 -9.4504961995109937e-03 6.0373349767430184e-01 6.9247197425140072e-02 -7.1459046426148234e+00 3.0385275293975944e-02 2.8299333036195584e-02 -9.2602969711461491e-01 -9.8662271711518201e-03 5.1551797819203893e-01 -7.6657632113742267e+00 -4.1833340705434247e-01 1.2709768975703106e-01 1.6841267694739919e+01 1.9423603509807841e-01 -1.3096032706930891e-01 4.2099569278399562e-01 1.0399577017605344e-01 -3.1646811660687391e-01 3.6452102584798229e-01 -3.0237244361325122e-01 -2.1078819967304785e-01 -1.1144841552369181e+01 3.9499493077756222e-02 -6.5065383016245582e-01 -7.7961174792405297e+00 7.8714677813049860e-02 3.5052155668387801e+00 -2.9169749637082223e+01 -1.0652013598668995e+00 -2.9517847069802805e-01 -1.5825062037454458e+01 -1.7821933039911642e-01 1.1280843119930182e+00 2.9862590726981941e-01 1.0417895324009008e+00 6.1881643435672551e-01 5.5017621288530782e-01 6.3967626914573357e+00 -5.0521014066603698e-01 -6.1995813512686468e+01 1.6016981591054687e+01 9.1296478192583219e-01 -1.0234502916227967e+01 -9.2774496490444947e-01 2.4629379254437325e+01 
      </Row>
      <Row Index="123">
        -1.9331005988646255e-01 -3.0784017236262073e+00 -1.3035754211415762e-01 -1.9937685394492288e-01 7.5179448511451561e+00 -1.7790667102968172e-03 -8.4599911605593103e-02 2.6610043151386442e-01 -7.8242744010589049e-01 -9.1608823786412941e-02 -6.7668916711752969e-01 1.3314140871243868e-01 1.4652883757500806e-01 -9.0426712280920860e+00 -2.6277242705802339e-02 -3.1194347668280109e-02 -1.1382336519895631e-01 -6.4486781162637463e-01 3.0764158270399977e-01 8.4174569871661422e+00 -5.4604165473822008e-01 -9.3512331823412204e-02 -3.4063751039558579e+00 2.0175441673094441e-01 3.2373131122936538e-01 -1.6355261609412597e-01 1.5223994672026608e-01 2.1931641727293932e-01 4.1696375750660075e-01 9.4411709740979866e-01 2.2093191222587794e-01 1.4244774282838389e+01 1.2541445379354221e-01 -3.2643363453883789e-01 4.6749286506485346e+00 3.5922667966265476e-02 8.6119067745555000e-02 2.9858504794348200e+01 -1.9277236720648239e-02 1.2465033013775106e-01 -1.2278693932394860e+00 2.1352356990451682e-03 4.6047496303023294e-03 -6.0234907008512639e-02 3.4953500920293146e-02 3.8528670202983228e-02 -3.0419354769683160e-02 -3.8034600674548003e-02 1.7900633153613399e-02 5.3351059811710329e+00 8.3980591931318238e-02 -2.4615473291246381e-01 -5.8956810588965625e-01 2.5610079343335901e-01 -6.9697919850449708e-02 1.5458856449162283e+01 -8.2184770555224773e-03 1.7630276612856655e-02 4.1924803886563939e+00 -7.7154099869551906e-02 -1.0382545649118935e-01 1.1057951526147480e-01 -1.1495434485611122e-01 6.7027079212342855e-03 -2.0175647613033476e-02 -9.8025723496972805e-02 -1.3166693468047264e-01 6.6960234769943980e+00 2.9723741915864910e-02 -4.0638571750738306e-01 1.4667843705987114e+00 -2.1575247790788377e-01 2.6595038337044064e-01 -8.4319500840424810e-01 5.2300162605498879e-01 1.5719326174791853e-01 1.1809567627072433e+00 -1.6933974427990944e-01 3.8158848840274617e-01 9.5745207034956314e-02 3.5841262950477348e-01 -4.3508883947823418e-01 -3.2290075155525977e-01 -9.2276987853251535e-01 -1.6918141150315563e-01 4.0481638837429390e-02 -1.5270627226262762e-01 -4.6711612210215514e-01 -4.8819544646141049e+00 -2.4931493551086925e-01 2.0348940914951541e-02 -2.2958124001535765e+01 9.7515969566722482e-02 -1.7947287691373326e-03 -3.8549905228245720e+00 -1.2499697377097163e-03 1.0170006869695669e-01 4.5754627560814498e-03 -1.1417966714758054e-01 -1.5081568627878994e-01 -3.2026356458469962e-04 -9.3047241152650617e-03 -8.6441759783334016e-02 1.2980344100659948e+00 4.2604796400519618e-02 2.2545810743375272e-01 3.4334832703354579e-02 -2.0945296657902546e-01 -4.0967967938012606e-03 1.4450715026619378e+01 -1.5372367037315815e-02 1.6066146387969660e-02 -5.8400260567886209e-01 -5.4393424893415698e-02 -1.0212872436042808e-01 1.0115150023063180e-01 -2.7958547058498562e-01 -7.0247607284909419e-02 1.0322415538090723e-01 6.9112520660064902e-02 5.7212414018092517e-02 -5.1549286041932163e+00 -5.5301400688742230e-02 1.5363206701039838e+00 -1.4201632632854455e-01 -6.5400507472951919e-01 7.5100574875959225e-02 1.7349793728374436e+01 -1.0474284295198344e-01 -6.4908771805016308e-02 -3.0600053920137533e+00 -1.3461119098929064e-01 -6.6291265905130459e-02 5.2480002227824230e-02 -1.2211135549484797e-01 1.0934621521675680e-02 7.4079465347594464e-02 -3.3907534776405956e-01 2.2275628933071534e-01 2.7147462398719995e+00 -1.5397211064478444e-03 1.4607340359763743e-02 -4.4623572533996283e+00 -5.6097110374109249e-03 3.5595273301867764e-01 -2.9484325400766807e+00 -1.4455419643685791e-01 -1.9067478146171957e-01 1.3889133372234014e+01 6.2904628916413616e-02 5.5278823737983529e-01 1.4300847104273312e-01 -1.8311502461137147e-01 -1.8062022901171643e-01 -6.5548226915359864e-01 1.4253096093680176e-01 1.9165739058582759e-01 -9.9577071108225734e+00 -2.2256797245910495e-02 -6.7529172914656577e-01 -1.3849477984274550e+00 -4.3141988033896350e-01 -1.5499769164411559e+00 1.4819903451628609e+00 -4.1404755020441906e+00 -2.5538061585872098e+00 1.6483902077576129e+01 -1.6271028367471629e+00 8.7926812009255007e-01 8.5911201112451496e-01 5.1893572578723788e+00 -1.0886983182563803e-01 -2.0866893567937650e-01 -3.0863754502243732e+00 -3.8111139830557477e+00 8.4076415397554420e+00 6.1978365900812804e-01 -9.8820128507429992e+00 -6.1658806750305416e+01 3.8744149434241995e+00 2.8065415198802082e+01 
      </Row>
      <Row Index="124">
        -7.7816906875153546e-01 2.1213500418686590e+02 -1.8349107147831871e+00 3.2615596291871496e-02 4.8291681752479882e+01 1.2354854244036173e+00 3.5363908329648258e-01 -2.4937617305542381e+00 1.2742280880027956e+00 2.7714935848334848e-01 2.6305633228015761e+00 -3.6736530264336684e+00 -5.3897802011144131e+00 -2.3921902796981658e+02 -1.1444121703628958e+00 -2.1800416457036709e-01 5.7566043014225954e+01 1.4414608716587796e+00 -2.3456220236828775e+00 9.8392135688634050e+02 -1.6667297848842568e+00 1.3621773399860675e+00 -2.1774892850691185e+02 -1.8508482362088435e-01 -1.4926545714997896e-01 -4.4459960228941950e+00 9.0953840359022731e-01 5.1995209043623944e+00 8.5263447285010696e-01 8.5729082821564973e-01 -9.0056817186037397e-01 -2.1916721471268457e+02 5.5851679866024351e-02 7.5828352661817200e-01 4.1665480832917723e+01 -3.9152005897416142e+00 -6.9140781680124097e-01 -4.6507182396368989e+02 -3.2161705469258028e-01 -1.7618705279709440e-01 -4.4756850523718363e+01 -4.0949325893918545e-02 -6.7227964986484395e-02 1.6527534298954578e+00 1.8215643252302638e-01 4.0521436511321157e-01 -1.7467720013158172e-01 3.4711316106614971e+00 6.6547172902910690e-01 -3.2980955964503110e+01 -1.2746757179995236e-01 3.4487371867281397e-01 -5.8840279515500153e+00 -1.6121477618639402e-01 8.9011056168165320e-02 1.9557392350622445e+02 1.1878902885636509e+00 -1.2264376760074771e+00 1.4338662114740131e+02 3.4138098114570459e-01 2.4658907614163073e-01 1.3733844910429440e+00 -2.4341729343999202e-01 -1.5068369290995671e+00 -5.9684923196552120e-01 -6.4390633105109245e+00 3.6986578793978320e-01 4.9472946842909188e+01 7.9625881105656415e-01 -1.9008708774674665e-01 8.6724146083998775e+01 2.0259598512576629e-01 2.2447136332974638e+00 -3.1973164078563332e+02 1.3956407220441458e+00 -2.2661914468654007e+00 -3.1000147683272132e+02 2.8243273716210177e-01 2.1712683400224583e-01 7.0683761483363421e+00 -1.3061827176676277e+00 -1.1000056015543068e+01 4.8933703862452065e+00 2.9366419942271191e+00 6.3652644918459638e+00 2.6120179369711298e+02 2.0940021072671389e-01 -1.3708543706188854e+00 -9.0600930135216714e+01 1.4739897823733930e+00 -4.6641954855777501e-01 2.4269699751688346e+01 2.5244866085430586e+00 -5.3333654210033243e-01 -4.2409942969710713e+01 7.3264285274595317e-02 9.9165197180977049e-03 -2.3298636665566281e+00 -3.7944039428147242e-01 1.8747468381632487e-01 3.1426891035565008e-01 6.3119290718125054e-01 5.5113181600230443e-01 6.4440501444015254e+01 7.0618813360418398e-01 -8.9778956312989752e-02 -4.6717103211723845e+01 5.6628169118910876e-01 -9.2088427210917356e-01 1.1678835914691347e+03 -9.6380899213189142e-01 -2.8697952376777858e-01 -8.6225877314635994e+01 -5.9224785860623852e-01 3.7393943397091739e-01 2.9578232140150691e+00 -1.7695268928960642e-01 3.3985502174265907e+00 -8.7195401655962224e-01 -2.0515323012790265e+00 3.0635667610458173e-01 -9.7464900189929622e+01 1.4721809273509421e+00 -1.4201632823673582e-01 8.3343084944339068e+01 7.9490236440187356e-01 2.3482047358287014e-01 -7.4209211085997742e+02 -9.0732713736237136e-01 -1.1498250072834945e-01 -1.1587808668949133e+02 9.0946941729576725e-01 1.5890640055423574e-01 6.6244522098706471e-01 -2.9916829848203585e-01 -1.2020705915097620e+00 -5.4099717528169955e-01 1.0113835655009582e+01 -1.3614746118471097e+00 -2.1955657202103691e+02 -1.4190527614421089e-01 2.4393371564006641e-01 -9.9307094303299067e+01 -4.7339863311300995e-01 -8.6154606408769807e-01 2.9317230597659204e+01 -1.4377426767530368e+00 -9.0177427953855327e-01 -3.7658777766443047e-01 1.2344723986075730e+00 6.5094717967737403e-01 -1.0430222599127217e+00 7.0371117320958843e-01 -5.8084066249307567e+00 7.5198449213720995e+00 -2.6135330214032653e+00 1.6079113039498161e-01 -5.3958784441313632e+01 -8.3488359896236852e-01 -5.9794759054417490e-01 -1.4676254553585522e+01 -1.1493880031833739e+00 7.9052552773993625e+00 2.9556710643307372e+02 -3.1742445974736974e+01 -1.6164745063409214e+00 9.9752396241843689e+02 6.0280771095319094e+00 -3.6680801688498561e+00 2.8089264779146411e+01 -7.4007467683968393e+00 4.6870331875398087e+01 -5.0713670399190196e+00 1.1338243330323738e+02 2.9423560253275042e+01 -1.9254623514873583e+03 2.8198417196652173e+01 -1.4718508793331466e+00 -2.7081683882777374e+03 -1.0727245347056247e+00 1.8654148523347388e+01 
      </Row>
      <Row Index="125">
        1.5573513286990441e+00 -4.8102970155419968e+01 3.7967196161370148e-02 5.4407229337983387e-01 -1.0694853976842055e+01 1.0720056194785710e-01 8.0142753072023343e-03 -3.4548895446753147e-01 3.5069193536500132e-01 1.9331253628516937e-01 1.0544469489887573e+00 -8.5267732760506909e-01 -1.6828570387223873e-01 1.0346140274229397e+01 -1.9911111431413836e-01 -5.0579384556182350e-01 -8.0311594406220266e+00 -7.0374781315831281e-01 -5.8555122400832349e-01 5.6374667788395115e+01 7.3199829062458488e-01 -6.3668059948205313e-01 -8.2232951034049808e+00 1.4422513037195722e-01 1.0447346673841057e-01 -1.3033999385981826e-01 -5.8904711755867312e-02 -9.5457126029115102e-02 -3.0313047901574086e-01 -1.7816878252271997e+00 1.2656330303396918e-01 8.0539268966185134e+00 -3.1154801082739764e-01 -8.1204922030357007e-01 -1.7282694417085491e+00 6.3421453401076111e-01 4.4032109739957637e-02 -1.1552772553660529e+02 3.7744251485530039e-02 -6.0361132968634545e-02 8.2903230594679709e+00 -3.0923029767213617e-03 3.9830663049254755e-02 7.7551508879974307e-02 -1.4553083323633031e-02 8.9359664849093967e-02 5.3363910174050178e-02 3.8910501559189870e-01 -1.4914636505708179e-03 -1.3106088604629321e+01 -2.0977309077121731e-01 3.7241140693372365e-02 -7.2207702278674124e-01 -9.7851868587713509e-01 -6.6587903406869486e-03 1.6219657418344582e+00 4.0123571115978840e-01 2.2813129059661463e-01 -1.5013118819394833e+01 -8.0799872405045381e-02 1.0525297566125014e-01 4.1774190295715385e-02 -1.5915423834455522e-01 8.3835731146841397e-02 1.0395874890846279e-01 -3.6232120525502576e-01 -5.5952133556254058e-02 8.3753135496585926e+00 8.8558326503210827e-02 4.7165785513681602e-01 -7.7652394175831567e+00 6.5917611842028490e-01 -9.3044553070641856e-01 -7.1586771278491838e+01 -1.0836927468711479e+00 1.5674388041226273e-01 2.1540071923326643e+01 -2.6434377695962880e-01 -7.7921016114010611e-01 -1.6733595750999283e-01 -9.8329150482856717e-03 4.9069146171864109e-01 2.1884728660303049e-01 2.0874990125740238e+00 1.3249356696773351e-02 -2.0804778178161719e+01 7.2724601287598989e-01 1.7247476059241758e+00 6.6119218064317202e+00 2.0948531041951828e+00 -4.2942418324116982e-01 9.0796333416544428e+01 -9.3376069121554106e-02 4.4782181424968925e-02 2.8580740113424037e+00 -6.4358394803121971e-02 -9.9091055354179503e-02 6.4971342009596533e-02 -3.9068667880134467e-02 -6.7940826082191208e-02 9.1455848389193850e-02 2.3536731531870392e-01 7.9766881636596731e-02 1.0449552705313543e+01 -3.4908516777724219e-02 -1.2161791279236400e-01 2.1343210051753978e+00 5.5567972673206079e-01 -2.3324600730751488e-01 1.7331166817689567e+02 -8.1431056989917705e-02 -2.1816145803619236e-02 -1.4754248983078980e+01 2.3023005491208615e-02 9.0093570932765488e-02 -2.1494439657470998e-02 1.7845003489018318e-01 -1.1310149674099512e-01 4.6422647851546373e-02 -5.0299480230381555e-01 -3.9106750140066371e-02 2.4523922913155765e+01 3.5548326647012540e-01 -6.5400507467440949e-01 7.9490236343893583e-01 2.2851001078629198e+00 -1.4711636634087699e-01 -4.2825833751280413e+00 5.4012895218178425e-02 8.2308088500568921e-03 1.6657595102910054e+01 1.6391720190284786e-02 1.2853033282407544e-01 -1.7223686738717880e-02 -6.5043859987264863e-02 -6.6785969284913982e-02 -6.2956312589563357e-02 1.6355681897326386e+00 -1.0930876196353134e-01 -1.4437047048287130e+01 -3.3255366938992059e-02 2.1874722735482077e-02 7.2300442790273198e+00 -8.4847449587343915e-02 2.1501280183818014e-01 -1.3692177985334197e+00 -5.2441821771518837e-01 1.5430790428978858e-01 6.8098618267339601e+00 1.0565056467364331e-02 -5.8159063395061505e-01 -5.4875439597940667e-01 1.9925162852875636e-01 5.5032621585303154e-01 1.0186756604795864e+00 -5.0525856875902608e-01 2.0254394141179022e-02 -1.4517856432253600e+01 3.0356299553691943e-02 2.6646914575462882e-01 -4.4915187228410112e+00 1.4529828731428829e-01 8.7667465230933459e+00 -2.8696903097912639e+01 6.0771172169158554e+00 -9.7034787856865590e-02 -8.5568549328010903e+01 2.5178243175147941e-02 -3.1979098195773616e+00 -6.3989541515378368e-01 1.3947763029155504e+00 -1.1796553264514866e+00 1.0671488599238588e-01 1.8164385845219435e+01 2.1433003422963139e+00 -1.6978308560088777e+00 1.6121136303328392e+00 5.2574534956844410e+00 2.0394892742898622e+02 -1.3507466190514844e+01 -9.7914689095122149e+00 
      </Row>
      <Row Index="126">
        -1.7800395035845311e+00 -1.1937849339937635e+01 2.2169473639411513e-01 4.6545847745112257e-01 -3.2523426510595113e+00 -2.4397250321818753e-01 1.0100040241140085e-01 3.1944224143277666e-01 6.8448926027292467e-04 -1.5554300908757890e-01 2.2360739680561892e-01 1.0121362346530562e+00 -5.4886743897650581e-02 1.0464297718825566e+01 -3.5203330310386022e-01 -1.1538775298821147e-01 4.1375135294757515e+00 -1.7998959788286850e-01 1.2816978397371510e+00 3.2437129216205214e+01 -5.6924862308530355e-01 2.4434809992509560e-01 -1.3580665436506720e+01 1.1270666282801245e-01 1.3983603023528146e-01 7.3599122023342622e-02 5.1946513841689884e-02 3.6212753882602755e-01 -3.9522504422613181e-01 2.6058209191034853e-01 3.7450041452827831e-01 1.4577606696290564e+01 1.3671957811582869e-02 -4.7343837239802067e-02 5.7637849579916232e+00 1.5734786403715581e-01 2.6113103887355815e-01 2.2290310644889757e+01 -1.3121211449504855e-01 -1.5094573423669488e-02 -2.0344530722057810e+00 2.4752268962363377e-02 2.3978012377331881e-02 -9.6963564358198306e-02 -5.5242562317390220e-03 1.4562613020576931e-02 4.3378247791472369e-03 -5.8813805976636324e-03 3.3266685682192598e-02 2.4142329201543991e+00 -9.9322056192396868e-04 -2.5724732558969787e-02 -5.8840974696706194e-01 9.9229478253466841e-02 1.5673307220164201e-01 7.2450626832029087e+01 -2.0573846072752566e-01 -1.7083428242108445e-01 9.3981694834455176e-01 -1.4791931959101667e-02 -4.7716356529496018e-02 1.4463991423934175e-03 -1.9680253788488145e-02 8.0545268668789305e-02 -1.0572251142756173e-02 -2.0135109761591785e-01 -6.3846793012634961e-02 7.2161199928476236e+00 4.1698345720873942e-02 -4.9588169491372458e-02 2.6900576840338708e-01 -5.5187029155624345e-02 8.0530694379392154e-01 -4.4733236850793503e+01 -4.7426201680343949e-03 -4.8888242253992509e-01 6.1212974556060926e+00 1.9302956244731698e-01 2.1162466504763633e-01 -3.9430692677185541e-01 6.1078669881377140e-02 -1.5161964550260687e-01 -4.0585847708081718e-01 -1.3590943312109212e+00 1.0162661294765951e-02 -1.9259589243566843e+01 3.8656072169566519e-01 -1.3971506327026528e-01 -4.1783676325822956e+00 -1.8739753512695456e-01 7.5258853387687985e-01 -1.3344878240377128e+01 1.7741050790762347e-01 -3.0235173105384039e-02 -2.8049618318277325e+00 1.7478246772144324e-03 4.2115998633537544e-02 9.8786232092740178e-03 3.7305407018433379e-02 2.1055467386477567e-01 -1.2402053058652385e-01 -1.5472319551339742e-01 4.3807603067297585e-02 3.7197385785063375e-02 4.9005582523679037e-02 -3.2730764342590035e-03 -7.6937413694074586e-01 -2.3146444323981719e-02 1.7404603600894575e-02 2.6930324195628828e+00 1.4092112263465140e-01 -8.1008451445461205e-03 -6.6805057045612082e-01 -3.0532659358688541e-02 -3.4029031809371446e-02 -4.2360861545959416e-02 8.5672350036811284e-02 -2.3076177005837639e-02 -6.5801433943100562e-02 -1.9235131491523916e-01 3.9737745649388145e-02 -1.4587259361433524e+00 2.4400509076468957e-02 7.5100574786413077e-02 2.3482047233420378e-01 -1.4711636634900227e-01 1.0407457279812404e+00 2.4941632670472714e+01 -4.6455399425780364e-02 -1.6269956082962000e-02 -4.6808572356021152e+00 -9.0070313280306902e-02 -2.8694478937357992e-02 5.8168221247028917e-02 -2.7013419089812418e-02 9.0825701950572935e-02 1.7332698496306698e-02 8.1877055474620875e-02 1.2335288664529909e-01 8.2162520937413319e-01 7.6413855228003591e-03 -1.5222045687292685e-02 -3.5602547188454547e+00 1.5254111720555574e-02 7.3274270722312740e-02 -5.4719606339844518e-01 -7.3128916715260894e-02 1.9873980060953744e-01 -9.3463768493654431e+00 6.1278414432150818e-02 4.3628351058575088e-01 4.4536765730698313e-03 1.2021760081965893e-01 7.6338653295050740e-02 -5.2859503591399548e-01 -5.9754785296776830e-02 3.1326562454140816e-01 9.7096848451078550e+00 2.7254352636635337e-03 -2.7874996747122971e-01 5.3329607983732945e+00 -8.8756852619282789e-02 -1.1980740291886415e+01 6.0634934561520142e+00 -7.2697548061399662e+00 -8.7854729530748799e-02 -6.6166119810908999e+00 -9.5144858727886117e-01 1.0648345063745328e+00 -8.7890378006271197e-02 1.4471735143419329e+00 8.0387132990717092e-02 -5.9194863833453937e-01 2.3561952328977114e+00 -1.6205441447782079e+00 -3.5630410854901228e+01 1.6168103369901878e+00 -4.6399875477712671e-01 -4.5199743552990611e+01 1.0592140155284779e+00 -2.0129438656436616e+00 
      </Row>
      <Row Index="127">
        1.6830723314365997e+02 -1.7018142013083227e+04 -8.0590315113831593e+01 1.5714122648729989e+02 -7.6557202817378984e+03 2.2588193343561102e+01 -7.3872353215565681e+01 2.2141388813750018e+02 -1.1678880258764576e+02 -8.7534330094245888e+01 1.8147603102312331e+01 -4.2934017733415885e+02 -9.8436879587784688e+01 -7.4119371804650327e+03 -2.4644630616479446e+01 -2.9958170878604847e+01 -2.9852271632287548e+03 1.0661649664506558e+02 -1.8609542122505559e+02 2.8950677515712348e+04 -2.5074673374959400e+02 -1.1495642483840521e+02 -1.6776650083597357e+04 8.4188501599074556e+01 -1.9989657094430640e+01 1.3258934613956342e+01 7.4243967337039294e+01 9.1662042927074253e+01 -1.3807910110447261e+02 -3.9172815269200839e+02 -1.7511426025979972e+01 -1.4111573682403046e+04 7.3526736768030617e+01 2.5723876876584887e+02 -1.2650100815336514e+03 -4.4283338155914862e+00 -1.6871737081445190e+01 -2.3424509240274310e+04 -1.0431373252638991e+01 2.0697744079374843e+01 -5.4179297126013826e+03 -1.1060365519588686e+01 -6.0476904853950941e+00 -1.6798570086369523e+01 2.0927424004758564e+00 6.7589116506316543e+01 1.3051681081368770e+01 -1.4315112280141693e+02 2.1218523449432254e+01 9.2075596886814419e+03 -7.5877297176024854e+00 -8.6123024328576321e+00 6.6996155270844213e+01 -6.6562969876849820e+00 5.6688772016957500e+01 -1.8799918233836786e+05 2.2907606634919148e+01 5.5625531180463213e+01 -1.0589282857572543e+04 -3.3318989878867797e+01 3.2634648087778373e+01 -3.6158053570885386e+01 -1.9682074665950040e+01 2.1638356362972672e+01 1.1816434873393519e+01 3.0398035647878578e+02 -3.1670996789528999e+01 1.7515492531649994e+04 2.1100302202230523e+01 -7.6109681640574536e+01 -2.9285579835874428e+03 -1.6976115314198807e+01 2.7585019047340370e+02 -1.0274262655322392e+05 2.8753593682241728e+02 -9.8522251820066174e+01 -1.8639090804187137e+04 9.3908003128091764e+00 -1.6472469535404178e+02 -2.3879760716903897e+02 1.4177736595195501e+02 3.1410282821263002e+02 -2.1472725573006954e+01 6.9742497550809810e+02 9.6226739614904091e+01 4.7011226202915670e+04 -8.2396966524502773e+00 -1.3503959519679785e+02 2.5507435072826302e+03 -5.7206370059286201e+01 -9.6445023122278144e+00 4.1767211371869664e+04 9.4457353305181130e+01 -3.5760270827156091e+01 4.6319663432314128e+03 -7.8538469090848366e+00 6.9340965002811572e+00 6.1029676134590773e+01 6.5824339977529860e+00 1.8471792590480618e+01 -8.1515842945618715e+00 -1.1043751323874898e+02 1.8434981416680216e+01 -3.2414634770885132e+03 5.2159338599311695e+00 -1.5390247776944761e+01 8.6935290892920784e+02 2.1085263921198475e+01 -4.2822456903541024e+01 4.9930409240057736e+04 3.4400857016403961e+01 1.3889729598968643e+01 -6.1926964905122859e+03 1.7474326243397172e+01 4.5472879963712330e+01 -1.1467828093391927e+02 2.2129438999089871e+01 -8.8383318805323370e+01 -2.2643165837751440e+01 1.8542892917127301e+02 -1.7858914445854680e+01 -6.2074735071025498e+03 1.2330317154142222e+01 1.7349793798457540e+01 -7.4209210982048353e+02 -4.2825832831913431e+00 2.4941632798278079e+01 4.6778317954555812e+05 1.1199254971599089e+01 3.0560552568972525e+00 -6.7597813683970853e+03 -2.8882088295466929e+01 1.0975483654080563e+01 -1.9843948063230528e+00 -4.4839002141978597e+00 -6.4442050241450488e-01 -1.0234703452033500e+00 -3.9102425915032154e+02 2.6895465724908263e+01 -1.9477242148873745e+04 1.2989754295329192e+01 -2.0374627817700457e+00 5.0666418744497341e+03 -1.0505221762887459e+01 2.5689666630014386e+02 -3.7255838554777729e+03 -2.2694027882321734e+01 -2.0926429551252397e+01 4.7709158559149600e+03 1.0286647637959946e+02 -2.2941607883341462e+02 6.2223518038716520e+01 7.3717963107894505e+01 3.4358840134527338e+02 -1.2812863912822377e+02 -2.2736538482343400e+02 1.7608102368788764e+01 2.0742817179446029e+03 2.8389898804300572e+01 8.6511569270517157e+01 -1.3160267547334925e+03 5.3080675951754301e+01 4.6353391276878574e+02 -1.6294673666431936e+04 -1.4136018917714696e+03 -4.5849005161751666e+02 6.2773530049438887e+04 -2.8692668957244314e+02 -4.5241913381858876e+02 -1.0675457701845880e+03 7.1009046215318142e+02 -8.8076761817335546e+02 -1.6181576731182508e+02 -5.5795593045161822e+03 -2.2510483083323925e+02 -8.4865422786734212e+04 4.7940431489296680e+02 -3.3907968631369295e+02 8.0074013257017679e+04 3.3776454984024440e+01 5.7999262159831142e+03 
      </Row>
      <Row Index="128">
        6.9453411502502849e-01 -2.8311035808869903e+01 -4.5409234145668165e-01 -3.1945221399326462e-01 4.1127763679588858e+00 3.8779703504930485e-02 -3.4180703803868173e-02 -2.0264443931033105e-02 -8.4917806162629617e-02 -9.1484813713996749e-03 3.1274335942745157e-01 -1.8928399361748727e-01 -1.4359585123660762e-01 -7.4164806726380608e+00 1.3124288420026206e-02 4.9358463581999690e-02 -3.6389828334784866e+00 1.0002822405375877e-01 3.2499790058052411e-02 1.2206413037867891e+01 8.1964943513720612e-01 6.2756501830591047e-02 2.8092707257162068e+00 -1.5585007637146894e-01 1.9057118625068320e-01 1.9109413013485768e-01 3.0195034193485321e-02 -2.3153392989138116e-01 -2.2024898253690417e-02 -3.4648957075371323e-01 -1.3259427275436211e-01 -1.1225651493938773e+01 -1.1415370226327450e-01 -1.1298341659880062e-01 -4.6879583585171520e+00 3.2969044595904801e-03 -4.3694618566512577e-02 5.3271609913620441e+00 1.6155225235322190e-01 -9.2772814371844814e-03 -6.9423888668766742e-01 -9.2900589813537104e-03 -1.0807420160193260e-02 2.9726606259049992e-02 -3.2664448502186527e-03 -3.4263376465781925e-02 -2.7483581616061237e-02 8.3760075694066849e-02 -1.3141364647767814e-02 -1.6310588197168752e+00 -2.1415907774262499e-02 1.2629083683613374e-02 2.7586452563018599e-01 -5.4323588265807965e-02 -1.8849004044230178e-03 -5.0341978803163698e+00 2.5737256591353019e-01 2.0712360724518653e-02 -2.0929393621796315e+00 4.1255645359805415e-02 2.6596203524331674e-03 -4.9410711774039440e-02 -5.7932463686459879e-02 1.1118794568517032e-01 3.4078982056303886e-02 1.8765732682887459e-01 9.2137104781601309e-02 -9.6775160286442024e+00 2.7289439107688329e-02 9.7313315977759385e-02 1.0903073860680565e+00 5.4543806026052855e-02 -2.0879718653251714e-01 -7.3159547013489430e+00 9.1032016052246228e-02 6.3882085466214988e-02 -2.2753051073604844e+00 1.7996732319646389e-01 -1.3649224674172231e-01 -1.3795612495309906e-01 1.9041508016038045e-01 2.3302189018217018e-01 -1.2825015795803843e-01 2.1663702286240843e-01 3.0350769536469868e-02 -2.3752172133076086e+00 -1.8794114669972925e-02 -5.7402064408762221e-02 3.1993577661766248e+00 2.8764812038998722e-02 -3.6603573517347332e-02 -1.7030841488752465e+01 -4.9142216548582990e-01 -1.9444758381483407e-02 1.8034915005935734e+00 4.9304553180472624e-03 -1.2534848412258270e-02 2.6166287228003515e-02 2.6186482279332374e-02 1.0467973889321236e-01 2.4555206197300894e-03 -2.4036374886350353e-02 7.6006411258694451e-04 9.0280120215153836e+00 1.6613183308743285e-02 9.4823144042379681e-03 -5.7553294306135072e-01 8.6200654239072971e-02 6.3151547084490112e-03 -6.5421144262061304e+01 -1.9749934386140455e-01 1.7005049586992893e-02 4.7110118809575257e+00 -2.7086917033014579e-03 6.2518951984051441e-02 8.2199548484878093e-03 -5.0230033513501970e-03 -1.2195941327333759e-01 -1.1178651795681560e-02 -9.3313880443029351e-02 -1.2717285827292146e-02 1.2297066627505906e+00 -1.5335497819625510e-02 -1.0474284292936797e-01 -9.0732713713026003e-01 5.4012895184210263e-02 -4.6455399415749388e-02 1.1199254975372575e+01 3.4561328834325250e-01 2.9012794631383176e-02 -2.2130811076788346e+00 4.5386577456341115e-03 8.0213849692181149e-03 -3.0528326588614707e-02 -7.6881678060636283e-03 5.1590558844519130e-02 2.9705508131218972e-02 8.1516281021630999e-02 -7.3465425954051033e-02 3.4855776087708730e+00 5.2870913990447632e-03 2.2117429011449197e-02 1.5689167977176217e+00 -1.1096464873091016e-02 5.4092869207587391e-01 2.8379892011720784e+00 3.8875004796253498e-02 -2.0013479419076380e-01 -3.5750424681807744e+00 4.7093431244942807e-02 1.8501491211196000e-02 2.7814480817028198e-02 1.1502603764688714e-01 3.1887581142298338e-03 1.5751868783796497e-01 -2.3052657594974763e-01 -2.6242136651392306e-01 -7.4231657576739023e+00 -7.9644968795679630e-02 -1.1813010898158871e-01 -2.1206038045394759e+00 9.4249900978248480e-02 1.8093975821100052e+00 2.3674838961894373e+00 1.2113428239541234e+01 8.9403241053679139e-01 -4.0662245785886242e-01 3.6334915278547086e-01 -7.8468264665968235e-01 -3.8024976099505575e-01 7.8891730537147842e-01 -1.9166469608870005e+00 1.7588458281638109e-01 1.7259988585816579e+00 1.2460823962922944e+00 -1.4487603206875912e+01 -4.0943965621207390e-01 8.2698093724744659e-01 1.2492087344614649e+01 -4.8427642487121625e-01 -2.3785298545993967e+01 
      </Row>
      <Row Index="129">
        1.1192080630315024e-01 1.0056379001428297e+01 8.4330957190618006e-02 -5.6014699325808681e-01 -1.8586604303694947e+00 -1.4140802014870946e-02 5.4163526293287301e-02 -4.3465698326958241e-01 -4.1616374677856671e-03 1.2809794019772014e-01 3.8160682063652235e-01 3.9545968710741541e-01 1.8659549630508643e-03 3.3262538365305057e+00 7.1444214900455799e-02 4.3110793685440796e-02 2.1547878024249267e+00 -7.6759849819133530e-02 -8.1038251089332325e-03 -1.1745037391274562e+00 3.0633127515543479e-02 9.3358007447425673e-02 2.8565376233140221e+00 3.3180619831018249e-02 -1.9382657677071841e-01 3.5756818382139738e-01 5.4030242677404083e-02 3.5853905661912910e-01 1.4077756952105772e-01 -6.4522442961635756e-03 -3.8192735160297309e-04 -7.3167127681289239e+00 -2.3610800109197888e-02 4.7498794629701940e-02 -2.4327210652174097e-01 -9.2146284099543008e-02 -4.5406502196018605e-02 -1.0182201349356808e+01 -3.9200578737244640e-02 -3.7159044615272296e-01 6.5910844160313431e-01 -4.3627003399038244e-04 6.2119292349219479e-03 -6.0648885895934423e-02 8.5016432730322666e-04 7.4610049356048591e-02 -9.0889439711920872e-03 -6.5979532323685808e-02 7.6806853397336228e-04 6.8151730632736829e-02 -7.9202973078368877e-03 1.7459679864061162e-02 -7.2553436303243179e-03 -6.2467484113435501e-02 1.7563194905063639e-03 3.6841020746523014e+00 -1.5491543963058074e-02 3.2689161382077514e-01 3.5774930519702197e-01 -2.2172210747077647e-02 2.5362100862320491e-02 -4.4916123417299358e-01 -1.8658684770164302e-02 -2.9421028973891206e-01 -1.8477713624494463e-02 -4.6173827417070434e-02 4.5273162510595100e-04 2.0661153559122027e+00 1.4004618676262126e-03 1.1733191239140961e-02 6.5056395298074343e-01 7.1058732559451832e-02 -7.4610050040859688e-02 2.8915420226596122e+00 -5.0481133774393783e-04 2.5644001747946699e-01 -5.2868726231042218e-01 2.7161366608064064e-02 7.3738815698397880e-02 -7.0291297132326569e-01 -3.1239330733345005e-02 -2.5057855792166533e-01 2.4489355016547726e-03 -9.7466508029588117e-02 -1.2129424628644370e-01 8.1948905950462709e+00 2.2924190987389972e-02 -1.2572288681257204e-02 -2.3343859717898185e+00 1.1876921377173688e-01 -7.1005000416852759e-02 5.9462855041099090e+00 1.8785431662504626e-02 3.5172188510706137e-02 -3.7337895144927780e-01 6.4137044170034518e-03 -4.1236259374013429e-03 2.7924374003428953e-01 -1.4570388888814512e-02 3.7389536969293147e-02 -2.3922631747215206e-02 -5.0222756413600467e-02 -4.5941604735493802e-03 -1.5614059371880842e+00 2.2575341427006457e-02 2.6312700317241422e-03 -2.6343263748141599e-01 2.8575100113631180e-02 -2.6224976909450248e-02 -2.9172820693949248e+01 -1.6159514851368240e-02 -2.0837463295064840e-01 2.4014451004410997e+00 2.5341513320844555e-03 7.1561238324098220e-03 -3.7869292826255396e-01 1.0830848901044687e-02 1.1607629172168926e-01 -1.6953646208994755e-02 6.9439935656309348e-02 4.1057776728643525e-03 -5.9153573778294088e-01 -2.5016109862641578e-02 -6.4908771806748700e-02 -1.1498250068385651e-01 8.2308088626739107e-03 -1.6269956101331529e-02 3.0560552878478546e+00 2.9012794635964345e-02 3.9170330206362092e-01 -1.4558864493543187e+00 3.6267174160335980e-03 6.9439366579051587e-03 -2.0445039719532154e-03 2.7500960943801223e-03 -1.7810111509628213e-01 -3.2101167056044488e-02 -1.4883507534210016e-01 -3.5575009735096863e-02 1.8074835973985017e+00 1.3600738519025379e-02 -5.5952368509313288e-03 -3.6949451821378276e-01 1.8509297783721346e-02 1.6404514903643877e-02 -5.0070523712350692e+00 1.3499438507638711e-01 -1.7780506175931698e-01 4.2422742263204798e+00 4.2021654742309456e-02 -6.0554367118977409e-02 -5.9185751465981584e-01 2.3667156222389379e-02 1.4364276444277685e-01 5.3092480370046724e-01 3.1409965516288718e-01 -1.0371760953305273e-01 2.4355771210389716e+00 7.1859698323314403e-02 7.7747007872447260e-02 -6.5868700714188910e-01 -7.3334331539102626e-02 6.7552876559445174e-01 1.7101217314132571e+00 -1.9855713067968672e-01 8.3670633138359811e+00 9.5190181268544141e+00 -2.2148571724280330e-01 2.4360102829069952e-01 -5.0466460251533150e+00 -1.7264938776670280e-01 3.8817496913316298e+00 -2.0704683090863418e-01 -1.5345876416502917e+00 5.3658880256328700e-02 5.9181848496536258e+00 3.5097875966911118e-01 4.0776503660096930e-01 -1.8457781588693372e+01 -3.6326230990906988e-01 1.1358817722893127e+01 
      </Row>
      <Row Index="130">
        9.5407780999201677e+00 -2.2335987931832615e+03 1.7152761491307285e+01 1.2500641398685614e+01 -1.8735511884075095e+01 -3.2845878654998018e+00 2.4089403208757894e+00 -6.1592402969641036e+00 1.2499375880031501e+01 1.2911490570635831e+00 -2.2521985275049776e+01 -2.2404125378002654e+01 1.4090311406449528e+01 1.2783963092004306e+03 -3.6883936917473386e+00 -9.8000240400929322e+00 -2.8268035439939746e+02 -1.3018230580021775e+01 -1.5563443737374259e+01 -6.1474573048432239e+03 3.5962122340254794e+00 -2.1331490207437653e+00 1.0718755303796027e+03 -1.5768909829956144e+00 1.1434726043982408e+00 6.1535389371571680e+00 -3.4434134923702091e+00 4.1266571329244073e-01 5.2073276804720443e+00 -3.3508134467818110e+01 4.1836219273562731e+00 2.8485999967826192e+03 -6.0082314614387382e+00 -5.3962318513077054e+00 -1.7448828346266825e+02 1.1113645535238415e+01 3.4210892671910287e+00 -3.4473538692638772e+03 -1.2583371682430942e+00 -3.2722983239700376e-01 3.9970164560316846e+02 9.7274345074943369e-02 9.2645562884525923e-01 -2.2979024911716763e+00 4.5625364110621902e-02 8.4915276870334644e-01 5.9297954636205930e-01 5.6179447351848424e+00 -8.9015356530763601e-01 -2.0903567637007737e+02 6.1562855549048834e-02 -8.1120347133609982e-01 2.9494702034613518e+01 -4.9515521779655813e+00 2.7675445001551111e+00 -1.9287944994687768e+02 4.4121510416650302e+00 -1.5688809096131244e+00 -6.7963147214950038e+02 1.5083430321783453e+00 -1.6346120167105482e-01 9.0114054889539119e-01 -6.3279088997577659e-01 -3.6557542475765246e+00 -1.2468637159319655e+00 -4.0859995124410631e+00 -1.9574339109913623e+00 1.7231147022847068e+02 -1.4263279575856913e-01 1.8203952678145221e+00 -4.1102483177242033e+02 5.1159167566453299e+00 -5.9116108491989650e+00 -4.7141640569838473e+03 -3.0062075461863920e+01 -1.0334798070642140e+01 1.2551628902466152e+03 -1.0827268985926963e-01 -4.6551668628013410e+00 -1.0256791776609854e+01 -1.4376503754478623e+01 5.3771275597401686e+00 -2.1756871911572198e+01 5.6139228259413088e+01 -1.1067316784246039e+01 -2.3546454355114815e+03 1.0244942591535874e+01 2.1960613732749767e+01 4.7193801017587896e+02 2.1711177570833332e+01 -1.6189957287095922e+00 -7.7959522995722068e+01 -1.5504804605231799e+00 4.0261757511196592e+00 2.2941328088722383e+02 -5.7997087999696695e-01 1.2492711663292084e+00 1.4248187953900242e+00 4.5056296222809600e-01 -2.3961372131254848e+00 1.0330248398244990e+00 7.2864026450343182e+00 5.8004389671327417e-01 -4.2711271813677934e+02 -4.7805910164358068e-01 -2.5274813942797962e+00 1.6424280150115723e+02 3.0612837602758560e+00 -3.3732345359899725e+00 9.8370517597325579e+02 7.4274952095526103e-01 1.1999747580595255e-01 -1.2212557095001284e+02 2.8779892525275841e-01 -2.7727970118230587e+00 6.9326807824960213e-01 2.7555500256856220e+00 3.2423461385641748e+00 3.1601377374340700e-01 -1.1521100580483491e+01 -4.4862082660389291e-01 1.3630838530455376e+03 2.5349697663492954e-01 -3.0600053818426716e+00 -1.1587808630312838e+02 1.6657595106794645e+01 -4.6808572504691348e+00 -6.7597813345906916e+03 -2.2130811012401548e+00 -1.4558864515610352e+00 1.6102224228939224e+03 1.6812064522126100e+00 5.7711428913631835e-01 1.2544648928417672e+00 2.9027951765097715e-01 8.5621811694466032e-01 -2.0073457740128333e+00 2.1167311756701707e+01 -2.1615423782878480e+00 1.2522464203361881e+03 -4.3716330345696530e-01 -3.8311065450935899e-01 2.6110284853046636e+02 5.2518837979381772e-01 -6.5439283083519211e+00 6.0489838822268212e+01 -1.1519981484393492e+01 1.8387247651724632e+00 1.0410213727349642e+02 -4.1722323342592569e+00 -1.1498591817438137e+00 -8.8742738710782447e+00 -4.2819671774248640e+00 4.8900161511443052e+00 -3.8204294946513798e+01 1.6981145893295402e+00 6.1472072779653235e+00 -6.0458830329272507e+02 -9.4357227085514861e-01 4.1257590500651986e+00 -7.4028730521973898e+01 6.9873020946068216e+00 2.8113482771768702e+01 -3.6428248924461368e+03 9.4419103335363417e+00 -1.9104585453202404e+01 1.0803914663990652e+04 2.0921063307165241e+01 -4.2448713414681265e+00 9.1499651120132164e+00 -2.7116623415620417e+01 7.1762551673898372e+01 -4.5090415870147595e+01 2.7473357484369092e+02 2.7361150337036861e+01 1.6364569743592700e+04 -4.5349127056676934e+00 3.5824134915500110e+01 1.0848778952729179e+04 -1.2225754404877057e+02 -1.2131518655373247e+03 
      </Row>
      <Row Index="131">
        2.7836274179555420e-03 -7.8661746319694856e+00 1.3515250142041840e-01 -2.2555503142229877e-01 2.6436335243488736e+00 3.4777652905771428e-01 -3.1529371393498387e-02 -5.2008106553922351e-01 1.6885384072707862e-01 1.5881114450499828e-01 4.7169015722808127e-02 -1.1682505787443288e-01 -2.8870223320940147e-01 -1.6464066596753069e+00 3.2629536211861231e-02 -8.5265210241466549e-02 1.4417200045809011e+00 8.1263108183417643e-02 8.0843199033820617e-02 4.2476636799353393e+01 -7.8204549770196960e-02 2.5337488408268199e-01 2.9570167530584888e+00 -9.4526654914222419e-01 1.6864421412994393e-01 1.7907168256463887e-01 -2.6123340076145821e-02 -1.4231618427260237e-01 -1.2496416376273305e-01 -3.8931387301351944e-01 -6.0111468257794447e-02 1.1264439987773379e+01 2.3201502169880046e-02 4.1783160072822734e-03 -1.9103261183779370e+00 1.3645427969833486e-02 -9.6776920018702139e-03 -7.5502186652292522e+00 1.9648009005727971e-02 1.9555201169473013e-03 9.9441761157770947e-01 -4.3823159361787323e-02 -6.0791445193435628e-03 8.8837889369046241e-02 3.2161012406557707e-02 2.7810405592571585e-02 -5.5604557912386887e-02 -4.7267597269886386e-02 -2.6628741579262739e-02 7.0567944913345038e-01 -7.2263230090393663e-03 1.8043476891665633e-02 1.3881092320898861e-01 -1.3141105659241065e-02 -6.8400930971395657e-02 -1.4193434214531798e+01 6.6474566762207254e-02 -8.3465610817678115e-02 6.8679328598245437e-01 3.7556275530210065e-01 1.6632723995699261e-04 8.4006666550727749e-03 6.8445456210161654e-02 -2.6752438953692614e-02 -3.6012649517704443e-02 2.5652405200119976e-01 2.1593045312071474e-01 -2.1426461543539084e+00 -3.1189149016535828e-02 5.9265885701379362e-02 3.8922957347022780e-01 -1.4717395821653670e-02 6.8851639944540341e-02 3.3119754919390843e+01 -8.8486969532378126e-02 -1.7417778448711962e-01 -3.6446750282654290e+00 7.1314731919469199e-01 -3.5312460913667042e-02 6.1791552643143788e-02 -1.3804468434913947e-01 -1.0256819594867261e-01 7.9221996317088206e-02 6.1595254461868776e-01 4.8148166322494035e-01 7.0468388789251124e+00 -1.1102730794103260e-01 2.3079931831944731e-01 -3.8171658704757017e-01 2.1513746475143952e-02 -1.0690969167623687e-02 1.3249135633481792e+00 -3.0009297551817082e-02 -1.7022745039691090e-02 -9.9777952286604354e-02 2.3343977174771775e-02 -1.2111121443697748e-02 -5.0935685840183598e-02 2.3579248356385384e-02 4.3924947533787950e-02 -6.0456776390827027e-03 3.4309927824665062e-02 1.1257607643842259e-01 1.3661661277371895e-01 -1.7069919885122339e-02 7.9374293241925298e-03 -4.6963271096121217e-01 -9.5996270373182035e-03 -1.0924195316091456e-02 -5.6991197724401772e+00 -8.2767258087216244e-02 -4.4481241017556683e-02 1.4123672396554796e+00 3.7571348205541644e-02 2.5123714120452889e-02 8.3398619343499680e-02 -2.2303678245370745e-02 6.3922502562119191e-02 -2.3543129254428585e-03 1.2611134209945996e-01 -3.3954418117591312e-02 6.8492236786146243e-02 -4.7178733430597308e-03 -1.3461119096221263e-01 9.0946941875194365e-01 1.6391720233081275e-02 -9.0070313338317054e-02 -2.8882088142911350e+01 4.5386577590004196e-03 3.6267174036753724e-03 1.6812064500395854e+00 5.9642539150180574e-01 1.5981808783667173e-03 -3.0759028688368828e-02 -1.0971448198750872e-02 -7.4467976792821355e-02 -3.5879616310909579e-02 1.9311886470899142e-01 -3.6820809470624044e-01 3.7195534765701623e+00 -1.5196891268830788e-02 -3.4474578248094717e-02 2.2736912415932347e+00 1.1895817504332606e-02 1.2188931054711787e-01 2.3714538464524502e+00 -5.0277331313766327e-02 -1.2665165557559233e-01 8.3424250261853650e-01 4.4408785903624362e-02 9.2082348384650264e-02 -2.9742149653333161e-01 -2.4839741650990399e-02 -9.5567644053055706e-02 -2.6951937917100682e-02 3.4018135248277279e-02 6.8178328968372601e-02 -5.3350930419434794e-01 -3.9655751713529953e-02 1.1045503635996978e-01 -6.1955555720134359e-01 1.1452232071616236e-01 1.2410816774500599e-01 2.3702921072869188e+01 1.1650128571034919e+00 3.7027964684756043e-01 5.3377618998042578e+01 6.0449872017228241e+00 -3.0796739313923172e-01 9.7697972305180991e-01 -2.3937893980156968e+00 1.6420159642869143e+00 1.4294753975651409e-01 -5.8773459147164520e-01 5.7677833942120440e+00 6.3974382909552759e+01 -5.4493564317607435e-01 8.4510174673031280e-01 4.2119131608477911e-01 -1.5827257274366363e-01 -4.0551970180972239e+00 
      </Row>
      <Row Index="132">
        2.0454600587062832e-01 -7.2130437845953574e+00 7.6482494677535762e-02 -6.7965469718931582e-02 -3.0318680175860357e-01 4.5504683825878765e-02 -7.4383212435141316e-02 -4.1218756873488310e-01 -6.9486925826337670e-03 7.6011763107924346e-02 -4.5602347862297901e-02 -1.0054717400381497e-01 -6.4512993461270401e-02 -1.2731208419860711e+00 9.8078682416123206e-02 -1.0273295221430909e-01 -6.6792756942963871e-01 4.9322444261923282e-02 -1.2047922034111543e-01 1.3245132735590555e+01 6.4530768905701391e-02 1.8673391886414030e-02 -8.0949067568860378e-01 6.1771371470038139e-02 3.2581277457468116e-01 8.6576543888018831e-02 -1.4309678432977372e-02 8.4993094566383792e-02 6.9594076345238398e-02 -2.1905542466972075e-01 -1.8525877658216727e-02 -3.0938948756154279e+00 5.7011990766113657e-02 3.7318875669120621e-03 -1.8600174096522920e-01 -9.3728841007607644e-02 -8.6417134628451048e-03 -7.0280098786860981e+00 4.8765653133531432e-03 -1.7798251691292448e-02 6.5819026979657247e-02 8.4870799180973844e-03 -2.8764442421365857e-02 1.8667479396791961e-02 -7.2686228739325467e-03 -8.5980779036931021e-03 -1.4335261548059919e-03 1.4769115357957469e-02 -1.3966880439041204e-02 -2.5775904327420585e-01 -6.5631939438229661e-03 1.0697737482161684e-02 4.6043223273608318e-02 -5.4623117086942091e-02 2.1934043515136392e-02 -1.0519254455675155e+01 4.8566173498572063e-02 -1.7583222419086664e-03 -1.6818294899625548e+00 -1.0610846732553997e-02 5.2464693500802240e-02 -1.9219717810760151e-02 2.0606043348075781e-03 -4.9413772977258769e-02 -3.3384372982203092e-02 -2.1540207823460819e-02 1.3300191188601040e-03 1.6127074542011828e+00 3.1456022120707194e-03 3.2103657759431192e-02 -6.7978659611745140e-01 2.3227176527822697e-02 -6.4368807547422788e-02 -5.2317618841501323e+00 -2.6968089270869786e-02 2.7359193913049681e-02 -1.3724499156707655e+00 -1.5527671932795750e-01 -3.0661038540353641e-01 -1.4753415557974764e-01 1.3580572349394437e-01 6.7281571223588549e-02 2.3414629218272939e-01 2.6074507357116639e-01 6.7781484385636775e-02 3.9687787139383746e+00 -2.2834031072454491e-01 2.7533233326290568e-01 1.4767544221739635e+00 1.7415335183515679e-01 -2.5094544634097549e-02 8.6798180094641957e+00 7.5123879012964981e-03 1.8386500349005797e-02 6.8299415417822162e-01 -1.5526512893941696e-03 -9.6603005013466969e-03 2.4332350140956360e-02 2.1207355490513634e-02 -5.1432519320288028e-03 9.5353143201968305e-02 -1.5787482806421602e-03 6.1597848862373836e-03 9.6570591076076528e-01 -3.4681671539794609e-02 1.6891760539682610e-03 -1.8112845068080008e-01 1.6575802105620097e-02 -1.1528883276213930e-02 4.3677313037624472e+00 -5.3965633073205233e-03 1.2872565937710162e-02 -1.0723534752058441e+00 2.6715079897953187e-03 1.0695845658493386e-01 1.3560101395910518e-02 1.0672395330053847e-02 -2.2330614271273107e-02 -5.6223149945332729e-02 -1.0632409547507937e-02 7.2814759735236601e-03 3.8806460139352517e-01 -1.0315436500199573e-02 -6.6291265897989338e-02 1.5890640045485133e-01 1.2853033283800017e-01 -2.8694478917986002e-02 1.0975483655282572e+01 8.0213849687066491e-03 6.9439366538843750e-03 5.7711428640681572e-01 1.5981808593904245e-03 8.8672914836041228e-02 -1.5425065232895080e-02 5.6910103310845485e-03 -2.4947344320863596e-02 -1.0465659533249977e-01 1.7249696319048935e-02 -4.0728384963956199e-02 -2.5388463068143068e+00 -9.2868976883527313e-04 6.6568586448161743e-03 1.0994632380184910e+00 6.0293043267040380e-03 2.1120075644227864e-02 -1.2466929522905312e-01 8.9643895681205066e-02 -1.8177828535602569e-02 -4.9138354384361282e-01 -3.5082747719435453e-02 -5.3267604931761234e-02 -4.4942532243710226e-01 1.0751085644090684e-01 2.0643146701397630e-01 2.0423759961790411e-01 -1.1026642611143916e-02 -2.8542070782569179e-02 6.9102571534817314e-01 -5.6195110269059045e-02 1.6227656026957013e-01 2.1679555032716274e-01 3.7279630881588727e-02 1.0013358764947284e+00 -1.4268932314983866e+00 7.2223260929920396e-01 3.1962993693756347e-01 -1.2163885133253402e+01 -4.7944814759282917e-02 -1.9360378563638927e+00 -1.0094406233271472e-01 1.2291431039415218e-01 1.8536983851470146e-01 -1.5297335967798156e+00 4.2583722518764344e-01 4.9348636620815078e-01 -1.0110611443049972e+01 -1.1455883096313819e+00 5.0158229249666964e-01 1.6721696765603006e+01 -9.1475659142902521e-01 -2.0327758806174208e+00 
      </Row>
      <Row Index="133">
        -2.0164901817695480e-01 -6.2917722072081439e+00 -6.2281223190101154e-02 1.0982188015868877e-01 3.8228574205675345e+00 -4.8485288105532875e-02 1.7944138759025563e-02 1.8826581705829426e-01 9.8853235800490658e-03 1.5889852931029580e-01 -2.3305773798933269e-01 -2.3645210676595943e-01 9.3311610687835556e-02 -2.0646136907097334e+00 -1.6050486419966864e-01 8.1320495165320139e-02 -5.3803116913815585e-01 -1.1966667120174357e-02 -4.6600673061262754e-02 3.5344295963312199e+01 -1.0001616329311180e-01 4.1117056202422869e-01 5.9828555235428815e-01 5.0359365396123512e-02 -1.9074220474394576e-01 1.4362085038735939e-01 3.1471949297881385e-02 2.1633686313169517e-01 7.5900067589186437e-02 1.4964463335395495e-01 7.9395346201362127e-02 4.7908281317911090e+00 7.8191458242508061e-03 2.0887073605257385e-02 1.0795486117295652e+00 -9.4478026976555496e-03 3.2968466753072967e-02 -1.2429590169797535e+01 -2.5876653375179970e-02 6.0486023265047484e-02 1.6690010960194490e-01 9.2218115814102219e-03 2.0522713856522934e-02 -1.3778575956284556e-01 1.3526617314053246e-02 -6.3272822352121505e-02 1.1707195302197482e-01 5.7662618920881314e-02 1.8015568531174975e-02 1.7504094898046016e+00 -4.2874782885666818e-03 5.1535977006977873e-03 -2.6796951907116506e-02 5.2946981024089013e-02 2.4554909413758708e-03 2.3945856989397612e+01 -3.5846927606892010e-02 -3.1341986269005018e-01 -4.2460148776026285e-01 -2.5703728452527663e-02 4.6613526556957829e-03 8.8235610045661161e-02 -1.1106353762173615e-02 -5.9554321654539777e-02 -1.1799661462154631e-01 -1.3465341447087731e-01 -3.7017130578974822e-02 6.2174160607716402e+00 1.6943395946380946e-02 -4.6393000321092170e-02 4.1979462624755737e-01 -6.4511449975817259e-02 1.2742560331630459e-01 -5.6712458858113761e+00 -1.1416963161720328e-01 -1.4976952083373599e-01 1.3082583054996548e+00 -7.3656598504709667e-02 9.5246729880480108e-02 2.0533663813710940e-01 -7.7564999413213237e-02 -3.1449394426277610e-01 2.4260606702802362e-02 1.0746892797634766e-01 -2.7750869913606688e-02 2.5840925427832975e+00 2.2477694859692957e-01 -1.7349021905895223e-01 -2.0112689544040556e+00 -4.1209406654211467e-02 2.1180477424463717e-02 -4.3754195684271622e+00 8.3337825090203710e-02 1.7280348541687474e-02 3.9586844156795564e-01 -2.4306483671215628e-03 -1.2901007941948706e-02 -5.6626473412526579e-02 -1.2450134454025097e-02 2.2196816777348971e-02 -6.1611784966234318e-02 -1.6934721958144827e-02 -1.1767722503667644e-02 -4.2357178154152564e+00 4.4909886674632693e-02 -8.4555872598950366e-03 -1.4580346891550278e-01 7.0973861724663578e-03 4.1030978797245155e-03 3.8018717128496689e+01 -1.6912027561191589e-02 -5.5981379110821905e-02 -2.2391519559426047e+00 -3.4070447656642244e-03 -1.3950459392633618e-02 -2.3587046266854372e-02 -4.0144791561732784e-02 1.2256314047990635e-01 -1.0213584285151001e-01 -1.4815878551916128e-02 -4.8827262939150629e-03 3.9516370485116568e+00 4.1115814788893257e-02 5.2480002265703263e-02 6.6244522269977946e-01 -1.7223686787571246e-02 5.8168221248783514e-02 -1.9843948136042968e+00 -3.0528326590441912e-02 -2.0445039764398487e-03 1.2544648859760770e+00 -3.0759028693988277e-02 -1.5425065233042545e-02 2.7073699661731165e-01 1.0724229034314137e-02 -5.9388287971147591e-02 -3.4227956338089172e-02 1.6286367889743669e-01 6.9873280243680114e-02 5.0891997837040037e-01 1.6630634706109593e-03 2.2967545380281340e-02 -1.6681681220181606e+00 -3.3095583557702035e-02 -1.0831447670878772e-01 -1.9155412072723266e+00 -1.9290557511054535e-01 3.4905285033541600e-01 1.3443559738207576e+01 -5.6688358626764440e-02 -4.4933997802034456e-02 4.9705885094298841e-01 -2.7459706854453980e-02 1.3715007262385503e-02 -1.0163617083194199e-01 -4.5030438174681664e-02 1.5577628764245055e-01 -1.4031613268591233e+01 3.8206538118294386e-02 -4.5620438531485723e-02 -2.3993233900496818e+00 -9.3433464621606177e-03 -6.9193773028887406e-01 1.0797694888351986e+01 -1.7918469310344682e+00 -1.4610223839854068e+00 1.9362007635740341e+01 -3.5526977553315930e-01 1.0025553070229982e+00 9.4450130216040451e-01 8.3727164628051742e-02 1.9068242297894376e+00 -5.7251956173062446e-01 1.8857094906325647e+00 -8.7100701844067885e-01 3.1376794968936508e+01 1.5817469825265178e+00 -5.1875233779405017e-01 -1.5156364634791913e+01 2.1081101446220263e-01 2.0375330727484766e+01 
      </Row>
      <Row Index="134">
        -5.1201145223710820e-01 1.7503696371427370e+01 -1.3330388565642834e-01 3.1476698209073492e-02 -1.2034373846938298e+00 1.0188372432075343e-01 1.7422970827768636e-01 -7.5299776582859801e-02 7.4030327858873202e-01 6.8446503328429165e-02 -3.8511371961152968e-01 1.2433660137381641e-01 6.4744615592932320e-02 -2.4903644855712477e+00 -5.1323793867985912e-02 -1.2393850000799289e-01 3.0422691437953659e+00 9.7558843832358466e-02 -1.1703918047618145e-01 4.9739822928899127e+00 2.2196950210102029e-01 1.7535019673693020e-01 -8.8730175747203655e-01 8.1982536097683384e-02 8.8736784820057216e-02 -1.3668406340016093e-02 -2.2528833805561860e-01 -8.3862741421515397e-03 -1.2382887461731679e-01 3.2073497363891135e-01 -1.1407240075580410e-01 2.5930169982961968e+00 -6.7242991697001625e-02 7.6599118714003989e-02 -2.0107888653479356e-01 1.0302517678808121e-01 -2.7246966445326537e-02 8.3882199893824136e+00 7.9792424011124186e-04 -2.9018333114383177e-02 -4.4283068946597193e-01 8.4135537044029984e-03 -1.5871062725746010e-02 1.5565044936602934e-02 4.3624481039377272e-02 -3.1834031226739445e-02 3.1444689357735145e-02 1.6364986807349435e-02 -8.3919060710720417e-03 2.3768721404294268e-01 5.3017397917289877e-03 1.3867051467000291e-02 5.4087411239960270e-01 3.6711498514921947e-02 1.4491438948771140e-02 -4.4614091918053646e+01 9.0763557911601733e-03 -1.0110920401356682e-01 3.1275667431008598e+00 2.1078190207548531e-02 -7.0897729374239660e-03 -5.0201581962472375e-04 1.9318507607040480e-01 7.5459842141745170e-05 -8.9003066674102627e-03 1.4854252001032209e-01 7.4584695583699290e-02 -1.2291853657184397e+00 4.9917068604505843e-03 -1.1590435867054660e-02 2.4076186363360819e-01 -6.3554743531977098e-02 2.3149253864537356e-01 2.2614563477737192e+01 4.0588289558399271e-02 -7.2704510762729518e-02 2.6540439493301409e+00 -8.5194142848730475e-02 -3.0921392060583031e-02 -3.6779348675839207e-02 -4.4643672974055726e-01 -1.4914963317269148e-01 7.0425942723902513e-02 -7.4288311981462707e-01 -4.5093271287652781e-02 -6.8871625387362068e+00 1.0631668291532763e-01 1.2062664348399366e-01 -3.6611743373155252e+00 8.0963687923898409e-03 -2.8183872935772847e-02 1.5197122788390523e+01 -7.3153375246578445e-02 -2.1057197423444141e-02 -1.5635054146542928e+00 1.1385219845707333e-02 7.5209479962943249e-03 -1.3365205420504456e-02 8.7298978576978048e-02 5.1881140188537067e-02 -1.1006315840328185e-02 1.2979018890256044e-02 1.3690235158930641e-02 1.5426989706502070e+00 2.1661400103610839e-03 -3.8223341660565069e-02 8.4959481846139262e-01 -4.6077081744349435e-02 9.3887802335192116e-02 -9.0563946546857039e+00 -1.4299650245816142e-02 1.5394863204960973e-02 9.6158665741420180e-01 1.3470626850579315e-02 1.7604791816136611e-02 2.6937014820376248e-03 -9.0923865611845622e-02 -3.6217433401203314e-03 -3.5173765615226671e-02 4.0472731842831955e-02 -7.3058993926031768e-03 -1.1674012559143634e+00 3.9812408684175571e-03 -1.2211135553223107e-01 -2.9916829879742579e-01 -6.5043859968586304e-02 -2.7013419143165462e-02 -4.4839002088277908e+00 -7.6881677823917860e-03 2.7500960958326548e-03 2.9027952679509994e-01 -1.0971448160221664e-02 5.6910103323462025e-03 1.0724229038002520e-02 2.2319174843145506e-01 4.5556565085504985e-03 -2.1157219886249745e-02 -1.9941131910037546e-01 -3.2637600255082777e-02 3.7785603153306049e+00 1.8085503547189019e-02 6.2532726466496991e-02 5.2249390859248290e-01 -1.8735832134685770e-02 -4.0289025460437022e-01 2.0544607732275466e+00 3.2261152161887963e-02 1.2536872144050182e-01 -5.8373776972881268e+00 8.0342868465200376e-02 2.2541699718388258e-01 -1.1303564065640276e-01 1.1447608504797543e-01 -8.9050097345861223e-02 -4.2529741351560224e-01 -1.8966767915056992e-01 -1.0308209825037684e-01 -3.0418845808770731e+00 -2.5575597889448728e-02 5.1122940465370470e-02 7.0085088547815066e-01 2.5610732317527152e-01 1.4620718969535318e-02 5.8733776840648861e+00 1.1542003434700154e+00 4.3855460827338710e-01 1.9191835614525161e+01 2.4970639412987694e-01 3.8461487186767229e-02 1.5054832637831128e-01 -5.6605815844521299e+00 6.2615791954511568e-01 -1.6979878631429113e-01 -2.0729382732287278e+00 6.3390072561733746e-01 1.6090420809628952e+01 3.8743486795597448e-01 6.3144823989338061e-01 3.6427705037036375e+00 4.7439177978573221e-01 -1.3632192902750493e+01 
      </Row>
      <Row Index="135">
        6.4788564848099722e-02 -3.3260175577603590e+00 -1.8004723295653691e-01 3.9576861811573821e-01 -1.6735979784569255e+00 -6.5029079583171140e-02 -1.0673727242038850e-01 1.2671099878347705e+00 -2.5487257055634321e-01 -3.9297774580621003e-01 3.0768524947769893e-01 -1.6391091269589564e-01 6.0721315553746297e-02 1.0716535224738033e+01 2.9407855685525536e-03 3.2199283873818263e-01 -1.6363903044955637e+00 -1.4782980659057587e-02 6.1351591373957140e-03 1.5933508597823511e+00 2.4744030469464301e-01 -7.0239356818464896e-02 -2.6932728995375985e+00 1.5101596916340040e-02 -1.0141889108910562e-01 -2.0179065465858126e-02 1.6550993731739230e-01 -6.5158272731261402e-01 -4.0378630272747684e-02 -9.0172722095070837e-02 1.0858534282753421e-01 1.3245144064880849e+01 1.5390315362433363e-02 3.5230452137873108e-01 1.0694180602389214e+00 2.0752983659112412e-01 2.4584514609316599e-02 3.5502341765438139e+01 1.2277106643719839e-01 1.8413799106833770e-01 -1.4935474788930168e+00 -1.6043051627266269e-02 1.1742115303559328e-02 -8.2313936114710273e-02 -2.6046846654020794e-02 -2.2834603586693872e-01 1.9549055707808294e-02 -1.0383941149091980e-01 -4.8929464389115412e-03 3.7713075228098303e+00 3.2521619210786057e-03 2.2981179579636524e-02 -3.9685155760937102e-01 4.5918740606304131e-02 3.7796671256350445e-02 -6.0557817269592604e+00 2.5781430437857578e-02 -1.5155343639873686e-01 3.3025940959849680e+00 5.4200430783393649e-02 -6.4437679942391246e-02 7.5474341926781818e-02 -2.2147744995834606e-02 5.9124057633046190e-01 6.3874568581030022e-02 2.5920421897424784e-01 4.8036408610340975e-02 -2.4284629964277556e+01 -1.7944687300988638e-02 1.2907538279706809e-02 2.5299723522087958e-01 -4.3739736813624613e-02 -7.3058117229447855e-02 -1.6728318189475242e+01 -8.0163670451573604e-02 -1.3508618411439838e-01 7.7294591902500773e+00 -4.9927354238435084e-02 3.2136677811082964e-01 7.6673137762806043e-03 5.2055639206660453e-02 1.3069994574365609e+00 -5.8072092379022888e-01 4.7725808296609656e-01 2.4151371975035252e-02 -1.7490596871224003e+01 1.0639092380084506e-01 -4.8465037970632563e-01 8.8722993946732531e-01 -6.9683353666909698e-02 1.6555800651396657e-01 -6.7588584150537052e+00 -3.2935323237034680e-01 -9.5339003923206045e-03 -9.9937452147862427e-01 1.5348820537095787e-02 -3.7515651968303310e-02 -4.5972779163191424e-02 3.5250384092339160e-02 2.8254479570780866e-02 -7.2645970573659957e-02 7.8499566418075178e-02 6.1390755847658407e-03 4.3546004959778930e+00 8.1736411160771016e-05 -4.0465347326629209e-03 6.3058681329129085e-01 -9.5458664155729789e-03 5.5894062114479670e-02 5.3772555837318592e+00 -1.9481347120736570e-02 2.1846214365689776e-01 -1.2656259001911896e+00 -8.2402474951189575e-02 -3.4266253816605641e-02 7.6658704816620515e-02 5.0556825143451833e-03 -4.4943582545678590e-01 6.9893051569496656e-02 -8.7832177001114564e-02 7.7746231132028720e-03 1.5431451446808218e+01 -2.0142529996198810e-02 1.0934621513138509e-02 -1.2020705922756556e+00 -6.6785969349426932e-02 9.0825701971075645e-02 -6.4442060534934598e-01 5.1590558828518596e-02 -1.7810111508436288e-01 8.5621812717247181e-01 -7.4467976749524656e-02 -2.4947344338595467e-02 -5.9388287960258412e-02 4.5556565353929157e-03 7.3114653674856478e-01 3.5197171084256240e-02 -2.7072884009169229e-01 4.3209118849814043e-03 -3.5486877570711917e+00 -1.8053058723182192e-02 4.5496768141446764e-02 6.5411380246152762e-01 -3.9467794784602828e-02 2.0457548133638148e-02 -2.9552340472380614e+00 -1.9431669932897400e-01 1.2763095873128419e-01 -2.0320051938211714e+00 -1.1826554242027409e-01 9.8796484814032401e-02 1.1752210048059384e+00 -6.5107377229104826e-02 3.2229742862021304e-01 -2.1981072469712520e-01 1.5676459231296946e-01 1.3062910633395886e-01 9.0429035304848604e+00 1.2318917433007348e-01 1.9280137113133911e-01 8.2019509854205552e-01 1.6038771727709000e-01 -1.7315106715298176e+00 -9.4981828955433940e+00 6.1244686601210461e+00 -3.9541237699547498e+00 -3.6162402792163078e+01 -4.0045466872360436e-01 1.2240217230433885e+00 1.0884736255402649e+00 2.3506645015447130e+00 -1.0379937534055721e+01 1.8992896064812506e+00 -1.8233527789400561e+00 4.4702808286499973e-01 -2.7385757886113922e+00 -3.0731786331109134e-01 3.8425185928494487e-01 1.2218017892748275e+01 3.8192903535291622e-01 1.7253967320926211e+00 
      </Row>
      <Row Index="136">
        -6.3831899164591088e-02 1.5598102694381371e+01 -1.6965926881127652e-01 3.6752186009652021e-03 -1.5155387562452955e+00 -8.4104152240755625e-02 1.2246436036622566e-02 4.0888239561149542e-01 -1.4622621160255325e-02 -2.3001608758094472e-01 2.3501393620574340e-01 4.3132714413423845e-01 -8.8175286221329197e-03 4.7262987584041856e+00 -2.4076146327768499e-02 1.9498168501978586e-01 9.4206183215911854e-01 1.0803883402414671e-02 9.6486791754107709e-02 -2.2482838843622265e+01 3.2759176284134384e-02 -2.3462129862962205e-01 2.9248344707541527e+00 -5.2710562163251373e-02 -2.4720904746917088e-01 -2.8031633421414320e-01 -1.4827157710813943e-02 -3.2441448820054364e-01 -9.8365779633190598e-02 4.5573248546642325e-01 -2.4323760548305984e-04 -1.8593811499801474e+00 -2.2301987565388481e-02 -1.6458386554959420e-01 -3.1322946766401860e-01 3.1594898102638114e-01 -1.8825754788090787e-02 1.5172741250566418e+01 2.3746573379506530e-02 4.8611101002774881e-02 -4.9019877244499277e-01 -1.3255914479568531e-02 6.0028880678598684e-03 8.2842590239332159e-02 3.3320869502194705e-03 -4.2372044290540645e-03 -9.7785481293944043e-02 -8.6559789615852090e-03 2.9056992816272942e-02 2.4690652725257678e-01 9.0197018214714375e-03 -1.0392701827248718e-02 1.2269793750765956e-01 3.4757809487639957e-03 -6.4359906632251551e-02 1.6913508318412113e+01 1.1092120618438894e-02 6.6439605820826975e-02 2.4414836026085789e+00 -2.0645594679247647e-02 -3.9654361708169272e-02 9.3513752503793235e-02 2.1798910935666216e-02 1.4435463466816412e-01 2.1377763876981781e-01 5.8649185991558106e-02 -2.1114249715361133e-02 -6.5363133784725775e+00 -2.8252262050228794e-02 5.5820798858085663e-02 5.9598982246731191e-01 -4.7319898834614627e-03 5.7365551855778296e-02 1.6612578511278823e+01 6.0826934743487437e-02 3.1615571603683112e-03 2.0064131744400400e+00 2.1479098477347416e-01 1.8912528247169627e-01 3.0933389259446220e-01 -1.4549889853586409e-01 1.0078886729900116e-01 -4.5647284506207475e-01 -7.5832265595076520e-01 -4.8097371417238188e-02 -1.0063761859873903e+01 -5.1947650378511734e-02 -2.8570005767631157e-01 -1.0276711860426939e+00 -2.9526469462847982e-01 -1.8295860043036072e-02 -1.8169157224862737e+01 -8.2794491228787237e-02 -3.8356001932676076e-02 -1.1256542184982745e+00 1.0499848501683007e-02 3.9904351767265922e-02 -1.1952450506329626e-01 -2.1737767875656788e-02 -4.3891059065632732e-03 -1.5096407108911425e-01 -2.4047464217787695e-02 -2.7160351034714592e-02 1.9131633613557426e+00 -1.1097020666707480e-02 1.1552525837859484e-02 2.0914500049722839e-01 3.2215277274600496e-02 -3.7267403786419351e-02 -7.5806139181156880e+00 3.0174701607384780e-02 -2.0751141592113331e-02 3.7626767727495576e+00 -2.2464965818280724e-02 -9.1298406229427087e-02 7.7461918317127676e-02 -1.5272859915202108e-02 -6.8539745925835227e-03 3.1803067411134833e-01 1.0215246828916946e-02 -8.9302234759460752e-03 -5.5862214867233035e+00 -9.4504962309005514e-03 7.4079465313231729e-02 -5.4099717541436032e-01 -6.2956312593980268e-02 1.7332698460324814e-02 -1.0234703046056239e+00 2.9705508143773485e-02 -3.2101167051604040e-02 -2.0073457680911986e+00 -3.5879616280389826e-02 -1.0465659532794103e-01 -3.4227956344430766e-02 -2.1157219892137535e-02 3.5197171049230924e-02 3.5787549576694389e-01 -1.1393223476596237e-01 6.3675477107826506e-02 6.7185926994340335e+00 -6.9773446824846208e-03 -2.1601468322297812e-02 -1.3296613827561656e+00 -6.9895440828784405e-03 7.6115799966696873e-02 3.0409543329624213e+00 -1.2216373851416040e-01 -2.2042116556186231e-01 -7.6344948820689176e+00 7.1634086889664106e-02 -6.6522063998415495e-02 3.7563571534864915e-01 -1.6965066605217136e-01 -3.9545999036287849e-01 -2.5919443274465781e-01 7.9509072007964476e-02 -3.6549558697110296e-02 2.0900863386790718e+00 -7.2171300701905278e-02 -2.3644547097437885e-01 1.3089267860406346e+00 3.4967756004069983e-02 -1.1682103528893162e-01 3.7367527066510311e+00 1.1730145152693017e+00 -9.7085445709140572e-01 2.3748715910363796e+01 -3.9351880931838323e-01 6.6194979331491055e-01 1.2990448738537568e+00 4.6543889088837220e-02 -1.6922984674774422e+00 3.9614174143227920e+00 -9.4056427677106758e-01 -1.0681584792786509e+00 1.2343798356609463e+01 -4.6278441460020048e-01 -2.5678237731054376e-01 -1.5491558298228611e+01 4.7890461781490190e-01 -1.7126608466029950e+01 
      </Row>
      <Row Index="137">
        1.7606465871911963e+00 -7.7265161763902185e+01 -4.8203379644379485e-02 4.2416198029291030e-01 7.7680162908755177e+00 2.3868119448159630e-01 -5.8163915434666080e-01 -2.1960770102833891e+00 3.2451808827052925e-01 8.1424220984905027e-01 1.6589363917376099e+00 2.0922803583948887e-01 -1.2657032234564456e+00 -1.4065481756966960e+01 -4.5381309205280645e-01 -1.0082558453733848e-01 -6.7876947448829172e+00 -1.0607565395664356e+00 -1.5917640174781851e+00 4.0566004342971134e+01 9.6697924976014704e-01 -7.5058066286208158e-01 -1.9357142299135717e+01 4.1708228402696723e-02 1.8404640100611375e-01 -1.1143469135006292e+00 -2.4657610561070326e-01 1.1492066909016632e+00 8.4555728592071300e-01 -3.1879494771661365e+00 -4.2639349739143229e-01 1.3889654161891446e+01 -8.0179304331178880e-01 -3.1465766151556096e-01 1.7984291750529606e+00 -7.7086362876454251e-01 3.2335828691518165e-01 -3.0891898066213292e+02 1.1345179361825197e-01 7.7283144356891764e-02 1.7160467892338211e+01 -4.4812224012797053e-02 1.8221213517982005e-02 5.1057643564234922e-02 -4.3804817374997862e-02 -3.5615935050916425e-02 -6.9752428443957015e-02 2.3469079265168320e+00 2.3066106489433280e-01 -3.2014035654174705e+01 -1.2022424857952285e-01 -2.6720741019251371e-02 -5.2392511803826238e+00 -4.1690225016648697e-01 1.0078522232086939e-01 -4.3719589270654069e+00 2.3082136784356067e-01 -2.0461392547364188e-01 6.4086128429668907e+00 -2.6001663309776823e-02 1.5470197870151292e-01 4.8021337003482145e-01 -1.7836689465073219e-01 -5.6742158318606073e-02 -2.3950114296454217e-01 -2.5245193956672560e+00 5.4192639435736822e-02 1.3892910104193106e+01 3.6485317017828489e-01 4.6123121282687585e-02 -2.2420962082427369e+00 5.8069586663778239e-01 -4.2904293732942667e-01 -4.1388079741905926e+01 -8.7810857125198227e-01 4.9295078544979476e-01 -7.1496872856519724e+00 3.9900230982778384e-01 3.6254976197403110e-01 1.7090349819854138e+00 -1.4984471554080786e-01 -1.0446839294482826e+00 -5.1413186826162316e-01 4.4398513584419570e+00 1.1342096369530332e+00 -1.3822429105907268e+01 2.0523414625911949e+00 8.8608799169622920e-01 -3.1589657351908604e+00 2.7406853724040454e+00 -3.1664528738074438e-01 3.5907869417296837e+01 -3.0957476729934985e-01 -7.5776949580152575e-02 2.6683659289312018e+00 -3.2173253075776925e-02 1.4048708696682866e-01 -2.2876281378791496e-01 -9.9832387400340394e-02 -4.3792758404361365e-02 1.9720432583390668e-01 3.7267075854398968e-01 2.3832745336724215e-01 4.8587021549017635e+00 3.5558292787055823e-01 -2.5493057235497485e-01 -2.9679138109678327e+00 5.5645179239146003e-01 -4.7966665469123626e-01 4.4388786594389683e+02 -3.2577645924562226e-01 3.8359828054002065e-02 -3.3489211637357947e+01 5.0710240374232995e-02 8.6268407226945953e-02 3.2694787569301376e-01 1.6169215878122944e-01 4.4532559492357615e-01 -3.5323918740121485e-01 -2.9982546573405777e+00 -3.9451464804975878e-01 4.6233986961908101e+01 6.0373349797136111e-01 -3.3907534783817006e-01 1.0113835658321964e+01 1.6355681898769241e+00 8.1877055449815828e-02 -3.9102425900025071e+02 8.1516281090154186e-02 -1.4883507537972296e-01 2.1167311701075555e+01 1.9311886453414040e-01 1.7249696353443866e-02 1.6286367879553687e-01 -1.9941131914952570e-01 -2.7072884007642983e-01 -1.1393223481773518e-01 8.5057785081062143e+00 -2.5775483970159385e-02 -4.3834295217812553e+01 -6.1986314228778427e-02 -1.6728173010601921e-02 -6.4035472708223944e+00 -1.2905324511775618e-01 1.6374875075935741e-01 -5.1658785758300496e+00 -2.5613638679581219e-01 1.7970341190568506e-01 2.1117353788633878e+01 6.5531808138012704e-01 -5.6585671323658715e-03 -1.7495178382119589e+00 -1.1757859537298865e-01 6.7193810684580701e-01 1.6993668870623484e+00 6.0446740457371873e-01 -2.2569817674056580e-01 -3.9833468552311992e+01 6.0029993656385283e-01 2.8597718659052429e-01 1.5768087015443975e+00 -5.3195475601573783e-02 5.3491040847507909e+00 -2.9617291731256351e+01 8.5309069425741288e+00 -3.9919107545506791e+00 1.0258937774836632e+02 1.9898533643938094e+00 -3.5305698315180329e+00 3.5173925304145763e+00 1.9423753310435736e+00 3.1613623894250100e+00 -6.4836115875488174e+00 9.3757244355760434e+01 6.7365092738941428e+00 -7.7240822995172124e+01 1.3172325281160738e+01 2.3898971439285348e+00 -4.2200900222272224e+01 -1.0516504199521975e+01 2.3957209307300090e+01 
      </Row>
      <Row Index="138">
        -4.0674824577242735e-01 2.9700794308713824e+01 1.8953974344242347e-01 2.2177949347549031e-01 -6.7441642531261783e+00 -2.7411602760592424e-01 9.0770975567648293e-02 -2.9591818023713079e-02 -2.4528190687450044e-01 1.4487986340638959e-01 8.5428989361699792e-02 1.7647755873191966e+00 1.1432911344032579e+00 1.2046914577782303e+01 -3.4111985301187031e-01 -1.2968598792119868e-01 1.4952288963783698e+00 -5.2964436114315039e-01 -1.0094053669980305e-01 -7.4064759269535642e+01 -3.5876306733195806e-01 4.1862038028169166e-02 -4.5498957598900418e+00 7.1597090189314405e-01 -2.4863091344482977e-01 -2.0079857631633002e-03 2.7272290865170079e-02 3.5559048613011596e-01 3.7230906708611444e-01 9.1623000931331944e-01 -8.5202901387574706e-02 -1.3891472850673791e+01 -5.3926505218099371e-02 7.8901484324694626e-02 4.5272117221841217e+00 1.2371293338689385e-01 1.8210362794040535e-03 1.4084587005009734e+01 -8.3727125302438310e-02 3.9229455202213492e-02 -8.2162590224546417e-01 1.6851694574764653e-02 1.7299852660512302e-02 -9.9570731089685283e-02 -3.8841414865879831e-02 -1.6601103410901152e-02 5.0507164475957711e-02 -9.8785591015628671e-02 7.0038539219751686e-02 -2.1634359341458929e+00 8.3040446859827255e-03 -2.2358179450034377e-02 -9.2983483922540588e-01 1.1088550111050527e-01 8.4203330032681434e-02 8.2243990941343696e+00 -4.5163160574962502e-02 -5.9236598130961327e-02 4.1329323353396106e+00 -3.0041594069154232e-01 -3.9953232916132675e-02 -8.0405422167356688e-03 -7.9454034159810061e-02 -1.0872242590620129e-01 6.0184073346762457e-02 -2.5480173640923642e-01 -3.6245289881635789e-01 2.7455042802045533e+00 4.9905885696574670e-02 -1.2309075133373842e-01 -3.3184327300228122e-01 -2.7214944797894297e-02 2.5790456434689812e-01 -3.8102425796514545e+01 -1.5217628610754247e-01 1.7244895307715646e-01 1.3330316043346384e+01 -4.5370740192348680e-01 8.2498239368434118e-02 -2.1502113365440167e-02 2.5946070132967736e-02 -4.9273155204268571e-01 -4.2249264705790135e-01 -2.2139422734228380e+00 -1.2922370057331611e+00 -3.4884005296335168e+01 2.9949979497633816e-01 -3.2760325649704758e-01 -1.9223445863272781e+00 1.2790233326103184e-02 -2.5379523681854588e-02 -2.7760375815808622e+00 1.1394865418119055e-01 5.1271807771213429e-02 -2.6820990938313347e+00 -4.5579245226794698e-02 2.2826044350629182e-02 8.9389333794382408e-02 -8.0123511433272995e-02 -4.7396619770835091e-02 3.2865566070107599e-02 -2.1438101969615714e-01 -2.9042879322763782e-01 6.6076313051124735e-01 6.7033840496480507e-02 -8.4143360678515244e-03 1.9429833489033972e+00 -1.3062383506233566e-02 -2.7432857259482413e-02 1.5239777011214521e+01 1.2987324112760756e-01 1.6927472714880820e-02 -4.4737132563274384e-01 2.1440894950132572e-02 -1.0687504857362407e-01 -1.3255764236120826e-01 5.7336845114209500e-02 1.7361329591600194e-01 1.3072291593400287e-01 1.8232912870401075e-01 1.3103756440089132e-01 -5.9510612734158581e+00 6.9247197352593937e-02 2.2275628926219282e-01 -1.3614746136869371e+00 -1.0930876203098694e-01 1.2335288670630667e-01 2.6895465448429473e+01 -7.3465425972660592e-02 -3.5575009710800631e-02 -2.1615423690657192e+00 -3.6820809466854770e-01 -4.0728384995356581e-02 6.9873280240201674e-02 -3.2637600194380473e-02 4.3209119176421673e-03 6.3675477166157735e-02 -2.5775484068351173e-02 1.1914348681338698e+00 -5.3430323705568217e-01 1.8121301410032320e-02 -1.2064794536927548e-02 -7.6204523595647800e+00 3.9390243193240804e-02 -2.1992318977495859e-01 -2.7555944610938212e+00 -2.2167012141714412e-01 4.2767515763039687e-01 1.6615443233383180e+00 -1.2821773794093674e-03 -8.2683009559413281e-02 -2.0181131965267829e-03 -1.8048568921762104e-01 -3.7538246664469949e-02 6.7525928997110463e-02 5.8159661234989346e-01 4.0131495133398448e-02 -1.6700765036459590e+01 -1.1818359214038028e-01 -3.4167035706802740e-01 4.4674747910139221e+00 -3.1935190853810991e-01 -4.6817259755220997e-01 -3.4078582518770396e+01 -4.1299092547417935e+00 -7.4887019585946568e-01 -5.4558822186094581e+01 -4.2900672646889415e+00 1.0145273317963812e+00 -8.8069732890202646e-01 2.5686993514437533e+00 1.6025723058259409e+00 7.2474363997284563e-01 -2.3322791815702235e+00 -1.6331909072603572e+01 -8.2023264145604131e+01 2.3726112785545741e+00 -1.3923452006260209e+00 -2.0424540597569241e+01 1.0329323925583946e+00 3.1319278046703181e+00 
      </Row>
      <Row Index="139">
        3.8979682911136081e+01 6.1584652771058245e+02 -2.9894384040222661e+00 -3.5445761381384287e+01 1.2243112561886610e+03 1.7991289606141478e+00 1.3033582686553565e+01 -4.7985271171762307e+01 2.4267026733565618e+01 1.9129491760615949e+00 -4.2545034404417727e+01 3.3466110691911808e+01 2.0011691948390336e+01 1.3338595124747735e+03 2.2306006831918719e+00 8.1822654115276308e+00 -9.3152340469398780e+01 -1.6712343698222888e+01 2.1994754873604059e+01 -4.0316312422724541e+03 9.3676530549342019e+00 1.7519856232030868e+01 3.5517860515228886e+03 -1.9024745676558531e+01 1.0412949580396287e+00 1.3031480834991227e+01 -5.0663529144486272e+00 -1.9765778987657427e+01 6.0335547207182003e+00 4.7726466224844970e+01 1.3531846471927423e+01 6.0484018870464943e+03 -3.6621211368989357e+00 -1.8533850169535526e+01 -2.0618243838842812e+02 9.4620310735432156e+00 -5.1079828320315741e+00 5.8227059484996844e+03 1.6232374149744411e+00 -5.2749167412690134e+00 4.3780306621395948e+02 -2.1973201078625380e+00 -1.8330382834645587e+00 5.7404701537890901e-01 1.5195853942947792e+00 -4.0730575458768250e+00 -1.7690230164865071e+00 -1.2022467378106313e+01 -2.9633481079558219e+00 2.3214730818097101e+02 1.9137423917338872e+00 6.7319454777648957e-01 2.2152142510841347e+01 4.3623611959636079e+00 -3.4496894650755223e+00 3.9910905440335137e+03 -1.7662223454449304e+00 -6.5343010274903435e+00 4.0125228704616563e+02 4.6653817524540386e+00 -3.0349798406248567e+00 -2.1485119293598132e-01 6.8274253787161001e+00 -8.3996776676124085e+00 3.7324900263039922e+00 2.4679392079087982e+01 2.9383829952820406e-02 -8.7337607950183951e+02 -3.9247148491197521e+00 5.5595645310854138e+00 -1.7942623946640899e+02 -5.3337371633180979e+00 -4.7507980363846336e+01 7.7970865327288275e+03 -8.1543425152117344e+00 3.9439962538323297e+00 2.0895068286297178e+03 3.3910268565602912e+00 5.4285751127255981e+00 9.1388528131372624e+00 -2.4364738607831875e+01 -2.5421335414600080e+01 4.3415106814265663e+00 -1.3531746804759268e+02 -2.9942774805796660e+01 -3.3480318294146673e+03 -1.0459216977834444e+01 -2.0693332787185305e+01 -2.9938449062536552e+02 -1.3569775175331785e+01 -3.0063424900142024e+01 4.0688142837755122e+03 -3.7816881998036713e+00 5.7535773893472282e+00 -7.4660652032079861e+02 7.0690874585757069e-01 2.2878051440466152e+00 1.2505813602560920e+00 2.0438156317771750e+00 3.6678543829077626e-01 4.0064086125298672e+00 -4.0358008531030052e+00 -1.0485936852765647e+00 1.7061883921137064e+02 -4.3001817332797714e+00 2.6080782090863863e+00 1.2069696664152457e+02 -6.9243416963661275e+00 7.7780313524098119e+00 -1.1752631417011715e+04 -1.1181466783815779e+00 -4.5036067776172217e+00 1.4735327451321305e+03 1.2363714233364078e+00 -4.0982942360469394e+00 4.8770837317055395e+00 -8.0884168904755072e+00 4.6352195697310066e+00 6.7672537325539679e+00 1.8172363561549162e+01 1.8432423283209971e+00 1.4410613528270896e+03 -7.1459046606067105e+00 2.7147462504166526e+00 -2.1955657130118072e+02 -1.4437047050303931e+01 8.2162517756303544e-01 -1.9477242085105572e+04 3.4855776197212727e+00 1.8074835946272998e+00 1.2522464226470247e+03 3.7195534915497177e+00 -2.5388463002140611e+00 5.0891998403162120e-01 3.7785603022620773e+00 -3.5486877859061110e+00 6.7185926935043625e+00 -4.3834295108384055e+01 -5.3430327252749521e-01 5.3924027166282713e+03 4.6846964458419116e-01 1.5551364213571475e+00 5.8153875668213885e+01 2.2661350064364285e+00 1.1209434074430231e+01 2.4689663855781146e+02 -1.2913183668977979e+00 -1.4423612057727599e+01 2.7162703538557616e+02 -1.4567121091648781e+01 1.5967882167437033e+01 -2.8696647252562187e+01 -3.0055754878018872e+00 -4.2514329278199298e+01 -3.4798864270225607e+01 -4.4900671183052225e+01 1.1443130533099861e+00 -1.1367044778849038e+02 -1.0593039026404869e+01 -2.7307373120175583e+01 -4.0032627083189760e+02 -1.2552114449416152e+01 3.8739878809326001e+02 3.5848166736637895e+03 4.1956081762167059e+01 1.4678897306023975e+02 2.0941489602570429e+04 6.3043949932319947e+01 -4.7697559817830211e+00 2.4861339165652236e+01 -1.5263076366407464e+02 1.7375648040670998e+02 9.9479376507187567e+00 -5.0844590872689247e+02 -2.1298342420820518e+01 3.9305423844121797e+04 -1.6636101462216777e+02 -1.2039332794728580e+01 4.4720211353594723e+03 8.3986902738362232e+01 -1.0998305003858582e+03 
      </Row>
      <Row Index="140">
        6.7591582103948000e-02 -5.6211360467212650e+00 6.8037606812112669e-04 1.7372600477732307e-02 5.8539344402084481e-01 2.6855661223064889e-02 1.5379098995337348e-02 5.8543847097270646e-02 7.0333115803396726e-02 4.3698353261897652e-02 -1.6043225321730359e-01 1.2284001044402605e-01 1.2860373505451841e-02 -8.5802876317746390e-01 -1.0502780234048424e-01 3.9170949170094851e-02 1.8841552649480453e-01 -4.3977731338035855e-02 -1.5705343360775420e-01 -3.3396876841857948e+00 4.4681726900201849e-02 5.2559981113822568e-02 -4.1374825126726072e-01 3.2636136571333740e-02 4.3361932730411945e-02 1.2098861773136713e-01 9.2190635003279175e-03 6.2448220658636866e-02 1.0418003742457588e-01 5.0674255185868253e-02 -3.7352370151654615e-03 -3.8683860917992108e-01 -9.0860851719621369e-02 -4.2436031270133776e-02 1.9760066679508290e-01 -1.2683862519351516e-01 -2.5239190431558936e-02 -8.7618431635109939e-01 6.8431329753840600e-03 -1.6638599917761052e-02 -2.0319694101684216e-01 3.2081647516470913e-03 -1.5672357862924081e-02 -2.2304645001460496e-02 1.0746577914108123e-02 2.1482041689918276e-02 2.1692373522542621e-02 -2.1710881650053943e-02 -2.0260361284205573e-03 3.9970043033508063e-01 -2.7992437350253252e-03 2.7504969858097583e-03 2.1203459742013236e-02 9.5032803959806955e-03 2.8853004126455972e-02 -3.2938026588239850e+00 9.7479008613672591e-03 1.3332814585460095e-02 5.8191421965970894e-02 -1.7455214886045817e-02 1.6269118390322551e-02 -4.9380657216549939e-02 1.0260315561838457e-03 -5.7189936349102966e-02 -2.8438468417050777e-02 -3.5883581120737335e-02 -1.1630595106019714e-03 7.2616213891776926e-01 3.5844669517850258e-02 -7.6478585459871518e-04 2.1072496686252434e-01 1.3968284609203747e-02 9.1712938827627072e-03 1.5677544510790716e+01 -7.8140370048223828e-02 -4.0267126460961901e-02 -1.0491360207777412e+00 -2.8619797431187033e-02 -6.0684175337392038e-02 -6.9960331407915022e-02 -5.6787430396169555e-02 -8.7574598036263065e-02 -1.7769895834888610e-03 -2.5506361873341066e-01 -2.2671079396563688e-02 6.1572516906962904e-01 1.9671713147142728e-01 1.7023558962958089e-02 -4.2052643309675758e-01 9.9752419185160202e-02 -7.0872286472664747e-02 8.4127894041180156e+00 2.8879831025537754e-02 1.7515531137939661e-02 -5.2459015885770310e-01 1.6348634860870251e-02 9.2988560553843858e-03 3.3424449970319903e-02 6.0805271776908053e-03 1.9450063328276146e-02 1.0122681530528366e-02 -8.2915066024333670e-02 -9.9936364530305230e-03 1.2731266975683955e+00 2.4393522181379065e-02 -7.0121782807424371e-03 2.4003591847756989e-01 1.4296047654694499e-02 -2.7546781246925500e-02 -1.2525567106839830e-02 -4.8057444872671995e-03 6.6389181668097819e-03 2.2781147420577891e-01 1.6201507102244495e-02 3.0492728219415399e-02 -4.2312654525498039e-02 -3.9884087985350980e-03 1.4059619977792343e-02 -9.9965059988189608e-03 -9.4037572366350020e-03 2.7644883998919623e-03 -2.5047391854690293e-01 3.0385275291382574e-02 -1.5397211089526186e-03 -1.4190527613210779e-01 -3.3255366948276743e-02 7.6413855181990953e-03 1.2989754282521067e+01 5.2870914006501735e-03 1.3600738519265465e-02 -4.3716330283127225e-01 -1.5196891263873524e-02 -9.2868976931209657e-04 1.6630634694732582e-03 1.8085503549422319e-02 -1.8053058728210947e-02 -6.9773446791439597e-03 -6.1986314230473238e-02 1.8121301405050416e-02 4.6846964697863847e-01 4.9267742168698628e-02 3.3778147745803233e-02 -5.9636797760435178e-02 -9.6392282152538977e-03 -2.8804218314437694e-02 -3.4380226505045464e-01 -1.9306045292120655e-02 3.2147412886636931e-02 6.2187569758177386e-01 3.2866022572710686e-02 4.1613456190373911e-03 1.2072877493159559e-01 2.3517541486233532e-02 9.3506580751113802e-03 -6.8390906106583438e-02 -4.6501980589006842e-02 -7.5680560869769362e-03 -1.9120880666232765e+00 2.8169295741152164e-04 1.3721176524414430e-02 -1.2639027658773228e-01 -3.0224586999604980e-02 1.0881031277415336e+00 -5.3915578575147149e-01 9.1353887059890226e-02 5.2746233583368118e-01 4.7654726694175888e+00 -2.1311442777751299e-01 -3.6063645089667407e-01 -5.6070518918497558e-01 -3.8444799228217624e-01 7.5426543593187956e-01 -3.4985850580096212e-01 -7.0856920009623092e-01 -3.8556428923450081e-01 -5.2482088628067691e-01 1.0581741623059571e+00 -1.4292746009029911e-02 -2.2704986197938313e+00 1.4399839510872603e-01 5.6854709740396414e-02 
      </Row>
      <Row Index="141">
        9.7437322546944899e-02 -1.2592139783158007e+01 -9.5536727465036886e-02 -1.4218079643001508e-01 1.8284323185062359e+00 6.1768201239437548e-02 2.2499809201076415e-04 -1.3914890748560726e-02 6.4076733817477388e-02 2.5170731495917281e-02 3.7289987981817624e-02 -1.0217767266562933e-01 -2.1163471118747473e-02 -2.7704129305516210e+00 -2.3280349513518435e-02 6.5448901882697641e-02 5.0401528105219875e-02 -1.4741170920656138e-01 -3.5930986003882573e-02 5.0161357672763058e+00 1.3971808068684899e-01 6.6567797092150355e-02 -8.6500601355023843e-01 9.9726827721431419e-02 1.5028386271068506e-01 3.6641049923502714e-02 7.8967771046282928e-03 -1.2314114215584693e-01 3.9761197599712625e-02 1.2221670146663155e-01 1.8629818518758140e-02 9.1076552406340650e-01 -6.8587567269464453e-02 -1.4224326023453460e-01 8.6215092447675479e-01 -7.2409424824794788e-02 -2.4522013158144951e-02 -2.0438646163102057e+00 1.9439657258335949e-02 5.9652935961380937e-03 -1.6262164857041927e-01 6.0398322653107406e-03 -5.8882673412777448e-03 7.5862578857930907e-03 9.1565081338789850e-03 -2.1340668273577362e-02 1.5974186682600811e-02 1.4720271277276598e-02 2.2236191955789519e-03 4.1378840891395563e-01 -8.5488438887039303e-03 1.0310849021903934e-02 1.8881597655478533e-02 -1.0276059155915118e-02 -2.9725935172007611e-02 -6.6652684762693681e+00 2.2996955341410719e-02 -2.9777573423397152e-02 8.7766506854268611e-01 -1.8819346149080207e-02 -1.4891642360705393e-03 1.8432935990622790e-02 2.9548928972617461e-02 5.9790200353703860e-02 -1.6458513456910850e-02 -5.2141950692933370e-02 2.0012426032052444e-02 -2.7645096854407063e+00 1.6282961342125923e-02 8.0087061045901020e-02 6.1893487985373430e-01 3.7985887079368535e-02 1.2795004856511694e-02 1.0397433491534036e+01 2.5073325067897015e-02 1.1895957661036106e-01 1.4892573070101786e-01 -1.2156822268207901e-01 -1.1016682945738196e-01 9.0949298484848673e-03 -3.0297434782756021e-02 1.3294837771283491e-01 1.9460935459875234e-02 -1.0367726134468638e-01 -4.6975053505503434e-03 1.0559932299255013e+00 1.0272444810464737e-01 1.1775122322895631e-01 -2.1614773406763295e+00 1.6633285368786849e-01 -9.8554175615455986e-02 8.1931178478847393e+00 -6.3950777624415298e-02 -5.6891518301755983e-03 -1.1054755732065560e+00 1.2134930260845774e-02 5.3892769097902971e-03 9.2321533568162639e-03 -1.0083624441461408e-02 8.0693724710734216e-03 4.5393975149627952e-03 -2.4045745103463079e-02 6.9640886756482390e-03 2.6767951843298761e+00 -1.7974206330771680e-03 -9.5053958729768295e-03 1.2756123496528504e-01 3.9772545726572739e-02 -8.0598537717535557e-04 -6.7795317562776276e+00 -3.4637744079591970e-02 1.8747861115670506e-02 7.2919047357919142e-01 -5.3038033791907857e-04 4.2324029307130751e-02 3.4513775920577139e-03 -1.0852184261080333e-01 -5.3289873350922556e-02 -3.7120117342846370e-02 -1.2090540321579191e-02 -1.8522017243343236e-02 1.4617132969001965e+00 2.8299333046136244e-02 1.4607340348365083e-02 2.4393371597896585e-01 2.1874722732101892e-02 -1.5222045688085717e-02 -2.0374627831873475e+00 2.2117429018981088e-02 -5.5952368545078013e-03 -3.8311065498489594e-01 -3.4474578248328447e-02 6.6568586453579215e-03 2.2967545372789222e-02 6.2532726469750416e-02 4.5496768136827015e-02 -2.1601468315819439e-02 -1.6728172983476508e-02 -1.2064794535752044e-02 1.5551364199610482e+00 3.3778147746479581e-02 1.3056205628390405e-01 -1.5675320150255312e-01 -4.4137241611701572e-02 9.3638597086190878e-02 2.2058885818884733e-01 1.4707631604348015e-02 3.0915292583836740e-02 1.8583964016164263e+00 3.7386042680295078e-02 5.1580022784928743e-02 2.9973510427228733e-02 4.9387941674842430e-02 3.8865126898389127e-02 7.7149884680647318e-02 -1.1362703872451252e-01 -8.0893243873066401e-03 -1.0615911603027115e+00 1.1100759141003945e-02 3.7808050858715012e-02 -1.3055358737212410e+00 -7.6212542863269228e-02 1.1154751204589421e+00 1.7519616406682690e+00 1.5557962992009078e+00 -1.3409532221659382e-01 1.1333478797620984e+01 -3.0801245077462269e-01 -4.2480522724811665e-01 2.4512908983387399e-02 -5.1606187499977496e-01 -8.9091475338038106e-01 -2.2841198474836610e-01 5.8855632410114822e-02 4.0363424234969969e-01 1.4722247996805931e+00 1.6019290046668644e-01 -5.7700799202435871e-02 -8.8180473053291220e+00 -2.8077267050122767e-01 2.5828388074908837e-03 
      </Row>
      <Row Index="142">
        1.3973905759624184e+01 -6.6931883452221552e+02 4.9559663238214871e+00 6.5279148291448141e-01 -1.9355219902520560e+02 2.0655960247379008e+00 -4.0938526656294396e+00 -6.2594517670219609e+00 1.5140846287590406e+00 1.2970366321911913e+00 -2.1352618634087790e+00 -2.2730957996632931e+01 -5.3465025519596079e+00 2.2054077071605928e+02 2.9625533255020318e+00 -6.2929908084714370e-01 -2.4376079869275597e+02 1.1348532344679914e+00 -3.3388782186517023e+00 -6.8068511103487720e+02 5.5145184924093860e+00 -3.8239649698407407e+00 1.7079309331747172e+02 -2.3873670611131215e+00 5.3918866548954671e+00 -7.6974423206383680e-01 -2.7216151980141925e+00 -5.5148202247681741e+00 -6.3346845881608234e+00 -2.0975992072751279e+01 9.0308624368608204e-02 3.4361702118358500e+02 -2.8467359415853308e+00 -1.1047242010169001e+00 -1.4866134627093470e+02 2.9135477729986032e+00 1.8315755859126597e+00 -5.3021830586003489e+01 5.9108037821821502e-01 5.0445339507112674e-01 1.0350688370877255e+02 -3.9143282577284921e-01 -2.3420798037283896e-01 1.1989424138275240e+00 -3.3353984110136015e-02 7.4810939995444148e-01 -5.9271785091156204e-01 -3.6532071372054560e+00 -1.0924742296533811e+00 6.0351248051199448e+01 -4.2119511885527139e-01 -6.8714080446358849e-02 3.3804901044927213e+01 -3.0164192381320980e+00 9.0869499799306652e-01 -2.7112250923907059e+03 -3.5009408332358838e-01 1.0595464929884137e+00 -4.7265872492686913e+02 5.9104090167386403e-01 9.0658715328507178e-01 1.6797779580241290e+00 8.9697042490378642e-01 1.4612511584575891e+00 -2.0242226311432887e-01 1.2629146172120102e+01 3.4959344370788514e-01 9.7814648032866273e+01 -1.3568389043336104e-01 1.5976588184286911e+00 -3.0334239160093813e+02 1.7014377966165313e+00 -5.9069306918748117e+00 1.0970572442697205e+03 -3.4749678855560511e+00 -1.7090516541117620e+00 5.1982680169207595e+02 4.0270281728074195e+00 -5.7697899937248565e+00 -9.7877352040584054e+00 4.4247223936775715e+00 2.1384027145554992e+01 -6.6301005055965376e+00 4.0308618118712360e+01 2.1759263769367543e+00 1.2581971621860009e+02 5.5225449300849041e+00 8.2108491421072962e+00 3.0587522229026587e+02 7.5928682619109704e+00 -7.8116846594606670e-01 7.8449170409849853e+02 -3.5497829502324905e+00 -2.3267394305336175e-01 2.3915949269874667e+02 -3.1156702206556330e-01 -7.0590673920037261e-02 5.0599427157996857e-01 1.2947067564177623e+00 -2.2678623263770703e-01 1.0815472266994384e+00 -2.8640911781449940e-01 2.8386555057181808e+00 -1.7093014565465256e+02 -1.2650088081875870e+00 -1.9176408516324983e-01 8.8686584394934258e+01 1.4661263890307339e+00 -9.6156723480533302e-01 -7.7318585894047919e+02 -3.9557179955337141e-01 1.3374552164854592e-01 -1.0420751040551127e+02 1.0976441435107205e+00 1.8457409934061815e+00 -2.5240203891593893e-01 1.2012103580232747e-02 -4.9100652015323760e+00 -2.9338000528055090e+00 3.4015580020545784e+00 -1.5501770419846075e+00 2.5134694739267366e+02 -9.2602970028596943e-01 -4.4623572478325073e+00 -9.9307094361390583e+01 7.2300442785562211e+00 -3.5602547190900822e+00 5.0666418735238931e+03 1.5689167975524496e+00 -3.6949451835247160e-01 2.6110284910573500e+02 2.2736912424342535e+00 1.0994632374711557e+00 -1.6681681177122840e+00 5.2249390820682828e-01 6.5411380387828189e-01 -1.3296613833464370e+00 -6.4035472735432641e+00 -7.6204523590426412e+00 5.8153876971483868e+01 -5.9636797516458895e-02 -1.5675320068352327e-01 4.2642115937574454e+02 2.8773079360398413e-02 6.1771366495885225e+00 -8.4947560595795011e+00 5.6116871266921189e+00 -3.5347761569373057e+00 5.4049067930013265e+01 3.5746188655365314e+00 -4.3175640272478280e+00 -1.5157957901208020e+01 2.6051430457628326e+00 1.6961999012087688e+01 -1.4741586694683624e+01 -2.8586445099327125e+00 -3.4401477620643561e+00 1.7295815999078087e+02 4.9002716323332276e+00 5.3808245534639987e+00 -4.9920311268888923e+01 6.3856131715441222e+00 2.7209851264700220e+01 -7.8840128701258072e+02 7.5016286650259133e+01 -1.8061734180145148e+01 -4.3064020405822885e+03 2.7431762821516713e+01 -3.2719426253726503e+01 1.3230234632920661e+00 -9.3511844901354664e+00 -6.0696577229025394e+01 -4.0344804574046123e+01 -1.0200410272265958e+02 1.0767921906937585e+02 2.4759794883319928e+03 -3.1857216608840986e+01 2.7242809025646114e+01 8.6380081767198117e+03 -5.2552582993569530e+01 -3.3501232165126680e+01 
      </Row>
      <Row Index="143">
        4.8573053925671322e-02 -2.5044941231579188e-01 3.7841957519415589e-02 2.5969953654271107e-02 -2.6011112132083170e-01 -8.3223275170860117e-02 1.3350360317963078e-02 1.2332672460767022e-01 3.9128256656877219e-03 5.9542307767161490e-02 -7.7616841384680835e-02 3.8255036584592061e-02 1.5700908524200821e-01 3.8322685712607445e+00 -8.6986613056900530e-02 -1.1573062709988796e-01 -2.4199211161920567e-01 -1.0288370031917882e-01 4.1348403646062647e-02 -6.4002487357364428e+00 -1.0056180122102579e-01 -7.9651315283598007e-02 4.2743810660501225e-01 -8.8763074635548458e-02 -7.4810044735897252e-02 1.0386394898818095e-01 -9.8368982468898941e-03 1.6148619219350452e-01 4.5671092672100566e-02 9.1353528896031738e-02 1.0517356256540683e-02 4.6418446555784261e+00 -4.7560765983843636e-02 6.3079213876487517e-02 -2.8236141908674328e-01 1.1810463387916983e-02 1.1598453247972207e-02 1.3973183600406255e+01 7.9897880427282075e-04 -2.7491358177947872e-02 -1.5046414503981320e-01 5.8893765405060305e-04 4.9342136777334733e-03 -2.7419656022628636e-03 -7.1590027777240495e-03 5.5369828196372192e-02 -2.5138525289447877e-02 -8.2395727260608509e-02 -7.4306829569998206e-03 7.8075163486483112e-01 7.5442848732310275e-03 6.5135021151607742e-03 -1.2638280223094739e-02 1.9584360323194383e-02 1.7105972530684577e-02 2.0597116127689148e+00 2.4745934181883866e-02 8.0716055169935241e-02 6.3380186540790318e-01 1.2924394085243041e-02 -2.4306007209508040e-02 -9.1922240439719083e-02 -4.2668861235614641e-03 -1.0566480376420878e-01 1.7157927686313634e-02 3.9366866906464681e-02 -2.5562667051792332e-02 -5.7114496193283593e-01 5.1490790666318120e-03 -1.0390002628707595e-02 -6.0607822462363270e-01 3.6903361136233992e-02 -6.3115229419948682e-02 -7.7190863274186619e+00 1.2755041926249683e-03 -2.5905152125169244e-02 1.9940609352670207e+00 1.1620821486731610e-01 1.5736556302047988e-01 -3.3233401384685574e-01 2.9303687279684548e-02 -1.9412194385541603e-01 -6.7271525485294303e-02 -1.5791421287552768e-01 -1.9204414362518457e-01 -5.4418520725880253e+00 8.6203562729887120e-02 -1.6379649439261845e-01 1.5599414645535554e+00 1.2560509909261108e-02 3.8563602270291764e-02 -1.4379631462397770e+01 2.5410821292221386e-02 3.3487030350339286e-02 9.6550348674244324e-01 -2.8207447058525882e-03 1.3394583458889997e-03 9.4898659600677782e-02 1.4893502331008460e-02 -3.0581697448848200e-02 1.2318123375454126e-02 -4.2534576659183060e-02 -1.8334053753346360e-02 -1.0627233311063726e+00 3.0299032184410379e-02 1.9768976987192488e-02 -8.4712707940306942e-02 -2.5370783920809936e-02 9.2481658132199662e-03 -2.2106397711867103e+01 2.4616719198591042e-02 1.6479112594318113e-02 1.6772335132722305e+00 9.5551933938644584e-03 -4.4978557120261442e-02 -4.8563373346277361e-02 3.6312943625615268e-02 2.2058957695148318e-02 4.9266133554326075e-02 9.8378520373133549e-02 1.2231677007481068e-02 -1.6870075610933366e+00 -9.8662271943349977e-03 -5.6097110279569318e-03 -4.7339863339455646e-01 -8.4847449584120604e-02 1.5254111708980833e-02 -1.0505221765582242e+01 -1.1096464878925960e-02 1.8509297787417167e-02 5.2518838415365598e-01 1.1895817518499219e-02 6.0293043253227818e-03 -3.3095583545952767e-02 -1.8735832137892164e-02 -3.9467794790023936e-02 -6.9895440843382728e-03 -1.2905324508746718e-01 3.9390243173896944e-02 2.2661350144528978e+00 -9.6392282166669063e-03 -4.4137241610388511e-02 2.8773079524798906e-02 1.4291735936792072e-01 3.4214582525897458e-02 1.2083323452114492e-01 -6.2725422308469975e-02 -6.2162765379633667e-02 -1.7318985369174826e+00 -5.1754286785035269e-02 5.9630786673944239e-02 -4.8441742008082933e-02 2.1823826313673973e-02 2.1314571308568619e-02 -7.8799592458487111e-02 -5.6748940140785853e-03 -1.2501395190509079e-02 2.0439504911199435e+00 -3.0471865013722094e-02 -2.0478932956220081e-01 5.2783944181926379e-01 -2.8210631308317913e-02 -4.4573290675788740e-01 -4.2699155316888149e-01 -5.9061823489833598e-01 8.8524807451544785e-01 -6.3396223116575046e+00 1.2007006804267117e-01 5.4225971012295482e-01 -8.7118618982300544e-01 2.4345656405975480e-01 1.1010327070211012e+00 -7.4963755698860712e-02 -2.0436608101915259e+00 -8.3149383916092034e-01 1.2877067319271930e+01 6.4204415342029098e-01 1.1016750910310957e-02 7.3552561697542238e+00 6.3632857163754464e-01 -1.1792381918555428e-01 
      </Row>
      <Row Index="144">
        1.2099283849727374e+01 3.9764613216897868e+02 3.8562820697404732e-01 -2.9364975716851358e+00 -2.7668698124232389e+01 4.2496486516253640e-01 -1.2580583073197236e+00 8.2492698580377422e-01 -4.1415779854008523e+00 1.9687843796014670e+00 1.0084600044265470e+00 2.9178727430653950e-01 -2.0001934556909173e+00 6.4259472045801886e+01 -1.9819752033870319e-01 1.4063323181180092e+00 -1.5835105499853308e+01 -3.2336950190799669e+00 6.8065846794417473e+00 1.4758856284657077e+02 1.6808435046340966e+00 -5.5413088443557179e-01 -3.1051997090596252e+01 -1.5022503251276742e-02 8.7556622622343971e-01 -1.4459232170582070e+00 1.4882128852605359e+00 1.9940076346391322e-01 -3.3704261799602677e+00 -1.1588740542150777e+00 3.9086783071390752e-01 1.3499825771867592e+02 -6.4550685640226213e-01 -2.2038669075979733e+00 4.4993849250718387e+00 -2.3764841647060910e+00 -3.0734428749236820e-01 -2.1139072325532720e+02 1.0910259789082888e-01 3.0415977419497242e-01 4.7095554626597318e+00 2.1679806120921796e-02 1.8474894775194839e-01 2.8398721788652814e-01 -6.5289027634110930e-01 -5.2458844485365663e-01 -3.6478278242770834e-01 -2.0935343641015436e-01 -4.8904310297509301e-02 -3.8268290159213834e+00 -1.5008429371070520e-01 -2.7119836726003399e-01 -1.4874171704617547e+00 1.6857968919705968e-01 -1.6794805264306234e+00 -2.7890632446025734e+02 -4.4151584604098204e-01 5.8928977523033055e-02 -3.2092713269097626e+00 5.7464970212770083e-02 -2.9934879446420659e-01 4.3156250025464615e-01 -1.7017809976140903e+00 5.5677913292684167e-01 9.6765403041743525e-01 5.6735354306312047e-03 1.1347663150004195e-01 -6.0795745206671313e+01 2.6117783668084726e-01 5.2731470009972625e-01 4.9086523949801304e+00 6.5008002747166671e-01 -3.9797665131677817e-01 2.4642797456534595e+02 2.1167146658971996e+00 1.0271412383119798e+00 -6.8038123608031242e+01 1.1811093867814699e+00 2.6718864455244384e-01 -2.0184313493396431e+00 6.0495087087394239e+00 -1.0098993837947141e+00 1.1799750931315245e-01 2.9746499893193148e+00 8.7479863322599272e-01 1.2969763841033304e+02 1.0045613536777798e+00 -5.8951545335968980e-01 8.2632994450857922e-01 1.5675025653638599e+00 -6.0756008672568385e-01 -1.0120179295564571e+02 -1.2034769909006471e-01 2.5205180939937577e-01 7.9845051135573399e+00 1.0107765096305565e-01 -2.2294840737228583e-01 3.0705969038114844e-01 -1.0176583298762263e+00 -2.2208756257725781e-02 2.3102502291072113e-01 -4.8058515606729912e-01 -4.8620766161305617e-02 4.1119727758754323e+01 2.5524434005477659e-01 2.4638616850569761e-01 -7.3873738202315309e+00 4.2205541027190918e-01 -4.0665722316362007e-01 -1.0726560839155491e+02 -2.1095870666823302e-01 1.4330565645563809e-01 1.9047282864304321e+01 -4.2015924516974223e-02 -1.5665591604491169e-01 8.7732883940930151e-02 1.9685028622880374e-01 -7.4683019848312870e-01 6.2156779040313381e-01 -2.1574423853110147e-03 -9.0762600134226545e-03 4.5042925422177404e+00 5.1551797836387614e-01 3.5595273276585715e-01 -8.6154607819665330e-01 2.1501280328322991e-01 7.3274270618799875e-02 2.5689666725979066e+02 5.4092869197954219e-01 1.6404514905286049e-02 -6.5439282633429627e+00 1.2188931034213013e-01 2.1120075778917169e-02 -1.0831447675618122e-01 -4.0289025471396256e-01 2.0457548150389471e-02 7.6115799720653854e-02 1.6374875066876626e-01 -2.1992318959756574e-01 1.1209434010782161e+01 -2.8804218357747491e-02 9.3638597017001501e-02 6.1771367045370091e+00 3.4214582553651951e-02 1.7449043594076826e+01 3.0888173043176153e+01 4.2296501026262892e+00 -2.3337508043952493e+00 -6.8872093556661284e+01 1.4759797007701287e+00 -1.8861916587749961e-01 -2.2992708809834017e+00 2.6311396859689089e+00 1.1831936827757803e+00 -1.8814810014754535e+00 2.0936489884991900e+00 -8.7292668569635934e-01 2.8385130026721504e+02 3.6664017014663802e-01 -1.2966998347939267e+00 -1.3281129636404350e+01 -3.9436202968609422e+00 7.8619333870218000e+00 1.5148559177503165e+02 1.3310982176976630e+01 -7.9071694286135141e-01 3.5946359388668816e+02 1.3720439976643206e+00 1.2335434491705328e+00 1.6253335546022862e+00 3.8730712256031168e+01 -1.3085215628302564e+01 8.6037907984039776e+00 1.8916585894760729e+00 4.3597463504332836e+00 9.4295938301879687e+01 9.1532814036387435e+00 -1.6233153556486712e+00 -3.0428494615450745e+01 5.4888488952978776e-01 -1.0908199797537060e+02 
      </Row>
      <Row Index="145">
        1.5564846065993834e+01 6.5852392493279185e+03 -2.8943954739196869e+00 1.4860415446541168e+01 -2.7335237060896179e+02 3.9516479713222452e+00 8.6241503841213785e+00 -9.7277019696431353e+00 1.4361527292444634e+01 1.1854575769802977e+00 -2.0820730642314686e+01 -1.1945032876451478e-01 4.9152579532636764e+00 -2.4761578859586734e+02 6.1424183149266440e+00 -1.6452330636988279e+01 -5.6247304481619722e+01 1.2298783147398808e+01 2.9568162766180940e+01 -4.4648395013905974e+03 2.0656823115409679e+00 -7.1438290264474702e-01 -5.7102510808547959e+02 -3.1755897069370036e+00 1.4868045771261222e+00 -3.5815044433949481e+00 4.2484500534781944e-01 1.2087537011608219e+01 -1.8873805640997745e+01 2.7602596840319393e+01 4.0933928467594853e+00 6.8381143964572357e+02 8.4908534666466977e+00 -1.2654450535616775e+01 2.0879110058304661e+02 -1.2777793458094351e+00 -2.5646998071147777e+00 3.2985233156346221e+03 6.6165398843511980e-01 3.6196160428978601e+00 -2.0352960502911446e+02 -2.9019331104814228e-01 9.1608842471066509e-01 3.8968933826546390e+00 1.3608499346910037e+00 1.4861472611785871e+00 -4.4390283545345710e-01 2.3443118123054774e-01 -4.4822053451696320e-03 -1.4816796200372937e+02 1.2152939802121523e+00 -1.0319813487573128e+00 6.6297260015601466e+01 6.4652726670215088e-01 6.2098302860977128e-01 -6.5717403674594825e+03 8.4768971915127622e+00 -2.9385123231733132e+00 4.6901304414562236e+02 3.0304800558676561e+00 -2.4202027762833040e+00 4.1592540315689348e+00 2.4908971970324956e-01 -7.5912315111319231e+00 7.2266466723981466e+00 2.3747774429525634e+00 4.8207065254928239e-02 -2.5649288986932334e+02 -5.0912322467324884e+00 4.9742364408724598e+00 -6.6541536499959193e+01 1.7549614722973388e+00 -1.3356226022879980e+01 -1.7646474209551106e+03 -3.6298078969799406e+00 -4.0004625884990105e+01 2.7188795994654748e+02 -1.5484987443273326e+00 -4.3946760788608259e+00 -1.8701639512632482e+01 -1.6228088553113921e+01 -1.1040822273690765e-01 -6.3324690179426000e+00 -3.3597750081686655e+01 -1.2949503251027636e+01 -1.4856278980528787e+03 -3.6454433102574967e+01 3.6850779384335624e+01 -8.6491002657057834e+00 -3.2800223321283966e+00 -2.7329461295998954e+00 -1.1022654967829585e+03 1.4442091091029852e-01 7.5970558601079574e-01 -8.5515358935558652e+00 3.7047562619616414e-01 -2.6632585902134451e+00 -8.6489110727802654e-01 -3.6438374927774930e-01 2.1079779452220464e+00 -3.8912999151054919e+00 -1.1367731845822391e+00 3.0648005349246432e-01 4.5179854912916562e+02 -5.1916873613816961e+00 6.4022836247090709e-01 -1.7926029955192462e+01 -4.4971874661450784e-01 7.8987172138454298e-01 4.4356916153396451e+03 -2.3793319894701881e+00 3.9186436483828402e+00 -1.2692918202185729e+02 2.7567123652124792e-01 -2.3811730201234695e+00 4.2543494036765424e+00 8.8779816808005307e-01 7.9176324637514881e+00 7.1688932349388779e+00 1.5501442433551347e+00 9.0641305133067362e-01 -6.7763612693943287e+02 -7.6657632422663369e+00 -2.9484324804407152e+00 2.9317235778141367e+01 -1.3692181245173742e+00 -5.4719601361205150e-01 -3.7255837255354527e+03 2.8379892324653895e+00 -5.0070523812485135e+00 6.0489808085902951e+01 2.3714537896870524e+00 -1.2466929737638566e-01 -1.9155412478417020e+00 2.0544607536196509e+00 -2.9552339887663948e+00 3.0409543160876638e+00 -5.1658788995669056e+00 -2.7555945429714939e+00 2.4689659124829086e+02 -3.4380228838372773e-01 2.2058886382922083e-01 -8.4947657612690364e+00 1.2083321663715196e-01 3.0888174161237828e+01 9.8304734122149437e+05 -6.8424172555047562e+00 -2.2582499437557090e+01 -2.7025147024020193e+03 -8.8341130636169396e-01 5.4891839081477904e+00 -3.0163444287755738e+01 -7.6199212288885576e-01 1.0269512775674002e+01 -4.0216464767809043e+01 -5.5569730840752527e+00 -4.3381759555987855e+00 -7.6420091811817656e+02 -1.8127499373384637e+01 5.1872651475206339e+00 2.4435574582487607e+02 7.7939461136791124e+00 2.8425071892244887e+01 -1.9040812117890164e+03 7.4470962622435763e+01 -7.4036260402430344e+01 3.0771109853321104e+02 3.4204831024395389e+01 4.0579610326303964e+01 5.8878220685457791e+01 -9.4129957470336763e+01 2.0452287684725843e+02 1.4620519253296766e+02 -5.7059504066786076e+01 4.0456560597947828e+01 -2.3376668769502967e+03 -2.3424888475751141e+02 3.4964454255161399e+01 -6.2607709594183689e+01 1.3232055662388120e-01 1.2478277520583535e+05 
      </Row>
      <Row Index="146">
        -1.0821532284567927e+00 4.5926561000246352e+01 3.0797669785116843e+00 -2.4955678088364124e+00 -1.9820234660425776e+01 2.5362211277512259e-01 -6.2754193724867013e-01 -6.2718345794650459e+00 -2.1174576162156806e+00 1.6388864028390349e+00 2.5409869621697219e+00 3.8311662275049061e+00 -1.2224893561780039e+00 6.9120624216243428e+01 2.4149693710203946e+00 1.5937203837071729e+00 9.5584704656135813e+00 5.0247797084196311e-01 4.2739304945709371e+00 -2.3743158405425658e+02 1.9321067411654247e+00 -1.2107854886611848e+00 3.5970883023066378e+01 -5.5943650094334441e-03 7.8269096024272677e-01 -3.7736344485226261e+00 -1.1513854504492649e-01 9.3796632536515023e-01 -1.6475013019950062e+00 2.6637571386795944e-01 -6.7077767396916244e-01 -4.1899422297672920e+01 1.2227192806964826e-02 -7.9289010250653558e-01 -1.3878896057171213e+00 -9.3450609758497061e-02 9.2789510726375646e-02 -3.3402019091529098e+01 -5.7975422801760268e-01 3.5961513969775538e-03 8.9941196548272018e-01 2.4799794489220872e-02 -1.0102721481199950e-03 5.3121347445210887e-01 -3.6140374824132282e-01 -3.2196139196628026e-01 -3.2208882316511112e-01 5.4751072007732660e-02 -7.0949999883650472e-03 -1.0667742693110704e+01 8.5023021808922294e-02 -6.8440616065933213e-02 1.8473745621666060e+00 3.8715679009389525e-01 -4.7068873500274577e-01 -1.6681257258471283e+02 -1.5394871539847541e+00 4.0101843876157073e-01 -1.4811268767458525e+00 -5.6595649332429332e-03 9.9701654200345935e-02 8.8320773888160176e-01 -4.8850711699518357e-01 -1.6470297345613893e-01 4.7516370931752760e-02 1.7471857592634876e-01 1.8609542375471122e-01 -1.0257277867697582e+01 -1.3938664367756104e-01 2.7196782470783276e-02 1.8201205818291157e+00 -2.8573144263954120e-01 1.7546300316384680e+00 1.6832876644790485e+02 4.1685844785111525e+00 1.8720784734954334e+00 -3.4513420135859278e+01 6.2548950484066290e-01 -1.2667402174673739e+00 1.7796842661338808e+00 3.7168545686908887e+00 -4.7143947450187618e-01 2.5240029581135599e+00 3.2675876649751023e-01 2.9576949083856552e-02 1.3078363985449045e+02 -2.1028041227175533e+00 -6.3084643163171217e-01 -5.8066994197457475e+00 -3.0449792670099916e+00 1.0259210253677296e+00 -1.7724273389366664e+02 -5.2581866508744968e-01 -7.1565418204269093e-03 1.0997567999205405e+01 7.6988974225295825e-02 1.3801755979343966e-02 -1.8747105898679983e-01 -2.6755598799078961e-01 -4.9234439973062649e-03 2.6222611663911621e-01 2.0176385574437461e-03 9.5671641007579744e-03 -2.7718804612457035e+01 -2.0243572932684817e-01 1.1025669299009699e-01 -4.5460233273072248e-01 -4.0005728981023125e-01 1.5323276101793581e-01 -2.4651474480486729e+02 1.3380596406637224e-01 1.6747865468531131e-02 1.3426418871147092e+01 -4.5126247924596186e-02 3.4671846256371452e-01 2.1418220716160974e-01 -7.9946341716000902e-02 -3.2003817151915026e-01 -5.9982946203970755e-01 -2.1778038539210343e-02 -2.3207658245858909e-02 -9.3130020956411954e+00 -4.1833340702539612e-01 -1.4455419643629952e-01 -1.4377426861707221e+00 -5.2441821690469936e-01 -7.3128916809800160e-02 -2.2694027073793507e+01 3.8875004746054653e-02 1.3499438505761319e-01 -1.1519981419323592e+01 -5.0277331279799498e-02 8.9643895743868995e-02 -1.9290557498194083e-01 3.2261152168797214e-02 -1.9431669935640628e-01 -1.2216373869714481e-01 -2.5613638668245287e-01 -2.2167012151917831e-01 -1.2913183422032546e+00 -1.9306045295028440e-02 1.4707631634637508e-02 5.6116871592554212e+00 -6.2725422322055024e-02 4.2296501019318669e+00 -6.8424176814079090e+00 8.8703552812042563e+00 -1.7762372680685368e+00 -3.5004461569152120e+01 8.4301596367158926e-01 -1.0341446374259775e+00 -8.0479652143474443e+00 1.3902173039894885e+00 1.9266311022860112e+00 3.0332951695032415e+00 4.6062026500581599e+00 -1.8408156725162921e+00 2.3558341773499052e+02 4.9904313583799753e-01 2.4275446369314935e-01 1.4116614962421639e+01 -1.8841073840404494e+00 -2.1016923343264011e+01 -2.9759716683636199e+01 -9.1764256054182525e-01 2.0544992341887962e+00 -4.2763920552587166e+01 -8.7431746314186398e-01 -3.7836838856779096e+00 2.0235854236392385e+00 9.9506175620442470e+00 -6.1365285448299733e+00 -5.7604858339572580e+00 1.3184344932019698e+00 2.4645593164025854e+00 1.7317734084433553e+01 -9.6284022290617486e+00 -2.0914426754486470e-01 9.5619858650106835e+00 3.5545580829615915e+00 6.3485387435733756e+01 
      </Row>
      <Row Index="147">
        -4.3762642727996965e+00 1.4969885371512231e+02 -2.3531535009130016e+00 6.0097555927544581e+00 -6.0123019443516377e+00 -4.6189561056398931e-01 1.0664943472218127e+00 6.3037093854248152e+00 1.0157118762299127e+00 3.1483261205574142e+00 -3.5749430302144556e+00 -2.3491942702959707e+00 9.9510552804016994e-01 6.9464227896885689e+00 -7.2498355610208776e-01 1.8471751666452585e-01 2.9869945370308844e+00 1.5668197162963691e+00 8.4132693912273848e-01 -3.5766642716884667e+02 -3.5282219707238394e-01 1.7390329321558204e+00 4.1485387975440062e+00 -3.0430119395012084e-01 -9.6921417867764426e-02 2.8109120331763444e+00 -7.9893752764587345e-01 -1.0200579443343880e+00 -1.5245156124690136e+00 1.7026795571889974e-01 1.3684748953788346e+00 2.1039197650005249e+01 1.1324003594072554e-01 7.8453463832334469e-01 1.5589493881913402e+01 -9.4262580969811516e-01 4.7089988170288621e-01 6.9491570773320035e+01 -1.5604790486285769e-02 2.1003117943063088e-02 -2.2156362629976307e+00 1.4487559385027549e-02 -2.6517775825649847e-02 -6.3633389482758096e-01 9.7876497705658871e-02 -9.2416958378404357e-02 5.8685436500824451e-01 1.9312608266788089e-01 3.6118218911468186e-02 -4.0031239227508388e+00 1.1097303957336990e-02 -4.1923268633352606e-02 -7.9992503243543778e-01 -1.3141900964439124e-02 2.4877044177104857e-01 1.0635717063095359e+02 -2.6762633151087822e-01 -9.0700373659236710e-01 1.5439288163757019e+00 -1.2981949935798065e-01 3.4712952526103180e-02 -1.0080705774019196e+00 1.6926044849053623e-01 6.1947700468877276e-01 -3.1267746302728483e-01 -1.3092199099515067e-01 -2.0206281722323194e-01 1.1361077723776503e+01 1.6664057302010260e-02 -1.9960281559295456e-01 -1.9759635493162055e+00 8.0243598404373784e-02 9.7400210972358992e-01 3.8042519347807719e+01 6.1567559307506958e-01 1.5451227111635952e+00 1.2395096547792129e+01 7.0101229141050547e-02 -8.4035342993028239e-01 -7.7137030692964048e-01 2.1267784066192963e-01 -2.4062717078622620e-01 1.0436503043718697e+00 -9.6015995923181663e-02 -8.2860666131681304e-01 -4.1490856547461000e+01 6.8318508671038436e-01 -1.0771054948525784e+00 5.7163095416790473e+00 -6.9003205443869442e-01 8.8879979811235010e-01 -7.7202314394719295e+01 9.0970692634357198e-02 -4.0821752133416078e-01 2.9347965050243525e+00 -2.8765934866926871e-02 -1.1643339242463568e-01 -1.5313115197448646e-01 -7.2993335617877908e-02 2.2273902999339867e-01 -1.2350449238223060e-01 -5.1508473465150750e-02 -5.3717473313435460e-02 -1.6036934412284992e+01 1.2182846301303596e-01 -2.0695851996647430e-01 3.4756251555480517e+00 4.3839075298084396e-03 1.7468879148712091e-02 4.6826957392044534e+01 7.8923627273909780e-02 1.2465441211057549e-01 -6.5547620498234753e+00 4.2089989237077852e-02 1.4165172464135622e-03 -4.8716474886124850e-01 1.9953185277290530e-01 -3.0988134018603564e-02 -3.1184203621415207e-01 -1.3664511580182470e-01 -1.9524353536558792e-02 1.1162153755928074e+01 1.2709768961692380e-01 -1.9067478139218785e-01 -9.0177427965624712e-01 1.5430790402353800e-01 1.9873980048536954e-01 -2.0926429890865748e+01 -2.0013479424664471e-01 -1.7780506169515764e-01 1.8387247973437706e+00 -1.2665165532859968e-01 -1.8177828591194434e-02 3.4905285046484691e-01 1.2536872154089229e-01 1.2763095862791030e-01 -2.2042116552346558e-01 1.7970341229032449e-01 4.2767515729882888e-01 -1.4423611953341290e+01 3.2147412903614780e-02 3.0915292618446610e-02 -3.5347761652182763e+00 -6.2162765381644558e-02 -2.3337508043621478e+00 -2.2582499314537323e+01 -1.7762372682530436e+00 8.8912268330760433e+00 8.1636840462747173e+00 -6.7775144233802664e-01 2.2530176650182912e-01 8.1933634552312693e+00 3.8696318720521800e-01 1.9823463966202388e+00 -3.6708120615394808e+00 -2.1988135733014347e+00 1.5403145934980036e+00 -3.7081664923217488e+01 -7.0869650778205687e-02 -1.7853462862469804e-01 2.5915298201025216e+01 5.0103307779766126e-02 -1.4666531951101604e+01 -7.9550070639952466e+01 -6.1052716122843194e+00 -6.6029164705823220e+00 -8.8030478695093876e+01 -1.6900714480076893e+00 3.6821417877801661e+00 -3.5013321131384867e+00 -3.5793231165851003e+00 -1.9381990666371598e+00 -1.3020548094041760e+00 4.0806585482355109e+00 -5.7399157911101781e+00 -1.0066381510079914e+01 5.0568098692497259e+00 1.0725214370843190e+00 6.3003299024872916e-01 -8.8316170125486559e-01 4.6562428462793022e+01 
      </Row>
      <Row Index="148">
        4.4387700050843932e+00 -2.1332266198000965e+04 -1.1589760383043597e+01 -5.9659191260901594e+01 3.5914706230820434e+03 2.0812461970019740e+01 -1.8627846270923328e+01 -4.2821652256982361e+00 -3.5418748258012300e+01 4.8470990496031391e+01 -8.8016702186856946e+01 -1.7217770958972551e+02 -1.4802256561185914e+01 -4.1177499872093031e+03 -5.6632492263339486e+01 7.5042507283721307e+01 -9.0729407717710092e+02 -3.7962336284615048e+01 -8.9789275523411902e+01 2.0989926390091778e+03 -2.1080672927787646e+01 1.0511037972165539e+01 2.7664710173397166e+03 -2.6562757252069332e+01 -2.3681729466867907e+01 1.8415134927527561e+01 -1.3051372065542921e+01 1.2170470072522050e+01 1.1404493075850303e+02 -1.2089686676982910e+02 1.3653832975045702e+01 -9.2762079369400590e+02 -1.3327503643839066e+01 4.7293052578503421e+01 -8.3963659895851583e+02 1.9658909608531900e+01 -1.9476997897409092e+00 1.5922250606431044e+02 3.6968642188310810e+00 2.3962510346460704e+00 2.5639714366713270e+02 -2.8814885787915046e+00 -2.2102107648865967e+00 -6.9391975393239136e+00 1.7779409147397018e+00 -1.0237996873432849e+01 7.3971788408136945e+00 6.6966139229571127e+00 3.5413252257566796e+00 6.2351230350103197e+02 3.7587441595519522e-02 1.7157753373840023e+00 -4.6039674058876813e+01 -9.1454567750906790e-01 -7.3522301374050585e+00 9.6066747225859726e+03 3.2056465535115422e+00 -1.1605903875278273e+01 -8.4090457452384794e+02 6.8136423679789004e-02 7.4597185074665049e+00 -2.9010308216829799e+00 4.5109436283953528e+00 -1.8744890613702410e+00 -2.3093080933105739e+01 5.3329861152055855e+00 -1.0618064498758031e+00 1.6006017981919285e+03 9.7563814252662269e+00 -1.2373731661049078e+01 8.5719132472897400e+01 -8.1105083657207615e+00 9.4646271606920891e+00 -7.3737127773502216e+03 2.4233648968913712e-01 6.1865255811395144e+01 1.2757306841687900e+03 6.4573058338564326e+00 1.4505983996544387e+01 8.5391000389219244e+01 7.0713105473331552e+00 -2.9258995610340662e+01 2.1185727042657959e+01 9.3960299099894200e+01 1.1538290880171814e+01 3.4869487420073119e+03 9.3407045140860134e+01 -1.0635908817611312e+02 -3.3863557566210238e+02 2.3356483523557472e+01 -3.7361561431964219e+01 6.2493520326479920e+03 -8.1043779668391380e-01 -6.6410784508616416e-01 -3.0118528572296054e+02 -1.4318641264552099e+00 9.2726846531841147e+00 -1.0473080926776674e+00 -3.9826402963473129e-01 -6.9767544047426782e+00 1.1756762091191376e+01 2.3636348448667377e+00 1.5634658188540698e+00 -4.6630176795263833e+02 1.1717681554147703e+01 -1.9468449698210861e+00 7.8585344788669317e+01 1.8596794979948754e+00 -3.0602054658966154e+00 6.6813594421588350e+03 -3.1862714712187881e+00 -4.0711206961805146e-01 -2.4858094975555832e+02 6.3129447549999895e-01 5.7009714006626382e+00 3.4700403345323139e+00 -1.2456945925698619e+01 -9.4664373471744057e+00 -1.7595197036273021e+01 -8.4684073952757899e-01 -3.1540440682510962e+00 1.5976276688719809e+03 1.6841267694938779e+01 1.3889133412269075e+01 -3.7658698684754199e-01 6.8098617827845374e+00 -9.3463768352535226e+00 4.7709158288191829e+03 -3.5750424725805487e+00 4.2422742212870617e+00 1.0410213284876954e+02 8.3424249663084993e-01 -4.9138354598835576e-01 1.3443559742000616e+01 -5.8373776985426957e+00 -2.0320051867383881e+00 -7.6344948771875352e+00 2.1117353798176737e+01 1.6615443368027627e+00 2.7162703418224555e+02 6.2187569910213369e-01 1.8583964080212354e+00 5.4049065500072174e+01 -1.7318985419915407e+00 -6.8872093605902137e+01 -2.7025146786161931e+03 -3.5004461676350275e+01 8.1636840011931326e+00 9.6333952130597499e+03 9.4543390770940050e-01 -2.6100583819446271e+01 9.0889632522685019e+01 -3.9998890798438339e+01 2.8424245726482056e+01 3.0046410484614626e+01 -2.0042565919303371e+02 1.2574738331066897e+01 -6.6193296231132827e+03 1.4849769882955133e+01 2.2134277710215429e+01 -2.2662495367718275e+03 2.2396512249251828e+00 5.7157902376990069e+02 -4.5825374618456053e+03 8.2925155376692601e+00 2.2332289982487964e+01 -6.4131694592477379e+03 1.4388487852920662e+01 -1.2639141514398852e+02 -1.8209984238712764e+01 1.0217411985576973e+02 -9.8366433707473334e+01 -3.8911434780159385e+02 1.6048964960043941e+02 1.6598667747894069e+00 1.1849757956742946e+04 5.3010682870376331e+02 -1.3351524653438901e+02 2.9653190158341022e+03 -3.1662626481370353e+01 1.6330174189782818e+04 
      </Row>
      <Row Index="149">
        1.0473022852979319e-01 3.6315388925503100e+01 -6.8300066839785178e-02 -1.2730167255860911e+00 5.0385722583707091e+00 2.2590458861278448e+00 9.1744155660175486e-01 -1.9051216837258309e+00 -1.1568044667163652e-01 3.6388768774133845e-01 -3.6024150297441299e-01 1.8644238066479635e+00 -1.5316949821077226e+00 -5.1985762356212803e+01 -8.0534358942929418e-01 9.6120415219308197e-02 1.0223922157709604e+00 4.4608657766939902e-01 1.1653599948521932e-01 -1.0603071839130678e+00 -5.9581336820535447e-01 -6.7370657316449187e-03 -2.3640913798480405e+01 1.6409366923275235e+00 7.6571470950697429e-01 -1.3861118159594605e+00 -2.2122949095146655e-01 6.0182592797829937e-01 -1.4177681343488697e+00 6.3973978016950084e-01 -8.8693314530090150e-01 9.7742644685146851e-01 1.0482247729059627e-01 1.4873474377698512e-01 7.3149023429969544e+00 -1.5806581535866771e-01 1.0442945227185321e-01 -2.7023704166030988e+01 -3.0684641673059405e-02 9.4447910585394895e-02 -1.7004687971485346e+00 -1.3009563690300602e-01 -4.3533698297298772e-02 2.0757147405417567e-01 -5.4939279116388302e-02 -3.6728357540208992e-02 -6.3565986872306801e-02 3.4115833638594151e-01 1.1242988144189370e-01 3.4680073422352860e+00 1.7804726957899440e-02 -8.2442672608339429e-02 7.6224107656292117e-01 4.4480101433974323e-02 2.9534440311111443e-01 -1.2150063045278283e+02 -1.0842942615230144e-01 -1.2371999651922860e-01 2.4377232788558798e+00 -3.3895437535221967e-01 -9.6510474327096668e-02 1.9438421210463108e-01 5.7204813571484325e-02 -5.3219433244498404e-02 2.4764511441995274e-01 -2.8626806345497735e-01 1.0570832583241585e-01 8.8757728654212134e+00 3.0338996608293922e-02 -1.2341231969253036e-01 -3.5817719196779016e+00 5.8282381658018370e-02 1.1157692993749075e+00 1.7845580164737179e+01 1.3293858463673454e+00 6.3551842649510004e-01 8.1210500871904152e+00 5.9119952574086465e-01 6.4148234457620412e-02 2.9790627081960586e-01 7.1391804286465577e-01 -9.9714739485558734e-01 -3.4897742406446497e-01 -9.1961631991980719e-01 1.9493395710060257e-01 1.4519156479661371e+01 8.8131323428397845e-01 -9.2534464252631857e-02 -8.2431670995211075e+00 1.0724379950977492e-01 1.0134367057892746e-01 -8.3083297768603757e+00 2.7065160239372810e-01 -2.0384149955360709e-01 9.6853851017677106e-01 -4.2317989116546259e-02 3.6300290453471717e-02 -2.0732952176190222e-01 3.9092102303856305e-03 6.4383066310821357e-02 6.2597327700578131e-02 -4.2403315287355248e-02 4.8318147668350714e-03 6.2414308843451263e+00 1.1984041560474297e-01 -2.7203136621956281e-02 1.7320701103004430e+00 6.7223321664826585e-02 -3.5435360397205629e-02 6.0635010865695492e+01 -9.7577198806206356e-02 1.2945128172831027e-01 -6.7052653590775453e+00 -4.8204272296679340e-02 -3.6234483331202383e-02 7.6822142982604924e-02 -6.1581291177647990e-02 1.2631643671737011e-02 6.2169561713657284e-02 -3.8159786495834669e-01 5.5438299543360547e-02 -1.2722253529117875e+01 1.9423603511463328e-01 6.2904628794257955e-02 1.2344723936444675e+00 1.0565056605543244e-02 6.1278414527614539e-02 1.0286647591167190e+02 4.7093431254087950e-02 4.2021654744593240e-02 -4.1722323211568906e+00 4.4408785859226196e-02 -3.5082747755073695e-02 -5.6688358629045754e-02 8.0342868573787835e-02 -1.1826554228626274e-01 7.1634086947248932e-02 6.5531808094105115e-01 -1.2821771878824828e-03 -1.4567121057225334e+01 3.2866022582975565e-02 3.7386042676544828e-02 3.5746188718355265e+00 -5.1754286742106720e-02 1.4759796992399510e+00 -8.8341134659698994e-01 8.4301596283881453e-01 -6.7775144179965396e-01 9.4543390758623991e-01 4.1804438508981914e+00 1.6265203676601006e+00 -2.8769394256110536e+00 2.3035673517784949e-01 -1.4263160389814455e-02 -2.0040737782834257e+00 1.7528436115356190e+00 -2.0329830409656395e+00 -2.1168419848696011e+01 1.2658402964569754e-01 1.0276084339248781e-01 6.9769015681866957e+00 4.1811538400506687e-01 -2.8674462281871218e+00 -1.8347144510772537e+01 -4.7375208346953945e+00 -8.7800725008379565e-01 -1.0444994330816431e+02 -4.6418123930742095e-01 -1.2842298654655804e-01 1.2278123809085946e+00 -1.4900982265641842e+00 1.2364422469882135e+00 2.1669469740613562e-01 1.0288483231319255e+01 1.0389397974090109e-01 -1.2553400265268738e+02 4.6233394829979630e+00 -7.9168337127534638e-01 5.9634656984327435e+01 9.2429268158939437e-01 -1.1896681984781862e+01 
      </Row>
      <Row Index="150">
        -1.7976903608610040e+00 7.7343008457959286e+01 -7.5283202473273159e-01 9.9135349362208858e-01 7.2381315391692063e+00 1.8288301538374800e+00 1.1078928006482052e+00 1.9911058581896590e-01 5.6934992000793061e-01 2.9884222659880155e-01 -1.5925417871246967e+00 1.2281536455066115e+00 -8.6139857887035909e-01 -6.7895229258069094e+01 -2.0538905822778819e-01 -4.0817113299486163e-01 1.5686222428269025e+01 3.8673267869273609e-02 1.5885642646495677e+00 -5.4660166445540014e+01 2.3019529879836753e-01 9.0570536410990399e-01 -4.9140679361282729e+01 -1.8769273373987283e-01 3.0173358028833381e+00 5.1424119103974109e-01 -3.5645229118192356e-01 3.4165980671785512e-01 -1.4064116332168943e+00 2.9397455169020952e+00 7.6219813674042536e-01 1.1280946550029790e+02 -3.2389861775019568e-03 -5.3868795475913611e-01 1.9113448338532020e+01 8.1520330442595279e-01 3.6497148613327290e-01 7.0623561315887173e+01 9.9797908664344348e-02 2.9526876809954139e-02 -1.4569097947242962e+00 -9.0603662969593657e-02 -7.8972102958232426e-03 5.6464493236711100e-02 9.2634147267319777e-02 4.4856361894559438e-02 1.4160489416301925e-01 1.7088440059520416e-01 4.1788153550090357e-02 -4.3239620938075589e+00 1.7170755028482088e-02 -2.6551674511047541e-01 -5.7892935738197959e-01 1.8242741802810070e-01 6.4667186182816749e-02 -1.1708807072012041e+02 1.4731495433920561e-01 -3.7893548574302471e-01 2.7940838393448811e+01 1.1182326082107252e-01 -7.1026189949233309e-01 -3.1861311132459491e-03 1.1687402098800881e-01 2.4044061812885431e-02 3.2816166348055020e-01 -1.7154824486923026e-01 8.9838197248713669e-02 -2.9347216240010496e+01 2.6646237308002974e-02 -1.4967612490546944e-01 9.8255136183590253e-01 -2.6667448250397818e-01 -1.3891401729179842e-01 -4.9513155519377861e+01 -3.7550980022185731e-01 -1.6194022858013861e+00 4.4136208190570393e+01 9.7935000070830891e-02 2.1630317913174624e+00 -6.0606348752068762e-01 -4.9216035269166292e-01 -8.5319710097750434e-01 -2.5699595792966807e+00 -3.1925507619428206e+00 -9.4951264660312340e-02 -1.0455080933057893e+02 4.4116749042250436e-01 1.2119081344737879e+00 -2.9597007865890870e+01 4.8324600792130834e-01 2.3729613894921542e-01 -2.1116289653217564e+01 -7.8243944845434843e-02 -1.4650406946614591e-01 -1.1708486855402121e+01 1.1215081003026039e-02 -6.8945928485248942e-02 -2.1000397118225855e-01 1.7052594727716319e-01 5.1286005548742963e-02 7.8572750587255769e-03 -6.7674213235700442e-02 7.9998384835252345e-02 2.2081108716349632e+01 1.7230003025875940e-01 1.2850721685629818e-01 1.5756208158531990e+00 -1.8302062602246849e-01 2.0922564891263207e-01 -1.4260790789184455e+02 -2.4086876352785325e-01 1.3359346865166621e-01 5.2292283108263895e+00 2.5818198841740525e-02 -3.4898748891031417e-01 2.1631609302101040e-01 -3.9513624124129620e-02 5.9192785214510213e-02 4.6279270320667365e-02 -3.9407604470903834e-01 4.9266018278878221e-02 -4.4794495798060154e+00 -1.3096032714077088e-01 5.5278823699032031e-01 6.5094717759706633e-01 -5.8159063394666433e-01 4.3628351066827964e-01 -2.2941607943517357e+02 1.8501491275054960e-02 -6.0554367074649562e-02 -1.1498591401431284e+00 9.2082348508721878e-02 -5.3267605006629637e-02 -4.4933997897288691e-02 2.2541699738072385e-01 9.8796484818187480e-02 -6.6522063792719521e-02 -5.6585670135369526e-03 -8.2683009574880728e-02 1.5967882253247097e+01 4.1613456279165906e-03 5.1580022781935853e-02 -4.3175640334595542e+00 5.9630786719230500e-02 -1.8861916555016833e-01 5.4891835946873471e+00 -1.0341446377116084e+00 2.2530176656686018e-01 -2.6100583938704016e+01 1.6265203671543613e+00 5.7764090011120750e+00 4.4438303123850886e-02 -2.4806879611058363e-01 -1.9063401482158415e-01 -5.1591348903063565e+00 1.1407918378104118e+00 -2.8814867921962639e-01 -3.9948046840511878e+01 2.3376538445675202e-01 1.3486964637693433e-01 1.0576289374543094e+01 1.5684202506597806e+00 -5.6655595732306807e+00 -4.8045888765571476e+00 2.5373050316952117e-01 -1.3206758184455438e+00 3.7486435631401378e+01 1.4923024273807926e+00 4.7307179520262324e+00 1.9124900867303620e+00 -5.3027161820858506e+00 4.3826426311537627e+00 1.4594551282848860e+00 2.8865669544346879e+00 1.4210514524601479e+00 -5.3386693760972861e+01 6.7034151450170043e-01 -3.7894350070283025e+00 -9.9857942368677016e+01 3.9519428143250419e+00 -7.1140289641542722e+01 
      </Row>
      <Row Index="151">
        3.5209355945054015e+00 -6.8207149239473779e+02 -7.1496156548802254e+00 7.7210889455282601e+00 6.4029209285841105e+01 -2.8961149149506280e+00 9.6497867658381864e-01 3.4068702229073843e+01 -5.6599621290938290e-02 -2.8224155810751252e+00 -1.3241293737666760e+01 -9.3217596345239961e+00 2.3564360808745235e+00 -5.6091191884171778e+01 -4.0132050524648717e+00 1.8256728030430693e+00 -1.1934117755781212e+01 1.9089147313970756e+00 -4.9851078223245597e+00 4.2812431270461741e+02 -2.1763930461467798e+00 7.7121656627115887e-01 -9.6635438652938106e+00 -1.6143759468564634e-01 -3.0029322557938780e+00 8.0346241636733993e+00 1.5136090119833518e+00 -2.7067129416920821e+00 -1.0380657535951929e+00 1.0427036744547795e+00 9.5933049553786631e-01 3.3429435144721452e+01 -3.1207925434933248e-01 2.2109355821316221e+00 -2.4091358058555272e+00 -1.2917428477143451e+00 -1.6273096312159652e-01 1.5936761166620840e+02 9.8870065268830221e-01 9.8810563817114172e-01 -8.6051066135636241e+00 6.8079750291605734e-02 1.1601428535541025e-01 -1.8646259488264469e+00 3.1028067241960589e-01 3.0268945733055475e-01 1.3942336563106821e+00 -3.1769252938932269e-01 -1.1094535777145254e-01 2.8895410212360616e+01 9.2570359830851601e-02 2.1868154019639263e-02 -3.5074063580063246e+00 2.8378646946148223e-02 2.5435073514020701e-01 4.4964981120631410e+02 1.1484595885192057e+00 -1.2094989464051054e-01 -1.7034710085866571e+00 -8.8693460215708342e-02 -3.3719871440026949e-01 -2.0199231826869735e+00 -3.3039913759249018e-01 1.4028307490724252e+00 -2.4835613304432513e-01 3.1450250458333073e-01 1.7628841501436199e-01 3.3284193115994753e+00 2.7711486444660238e-01 -3.5095828553593833e-01 2.1387903094229944e+01 3.8222466517793130e-01 -1.9836266592337459e+00 -1.9926262714677307e+02 1.1164177419031880e+00 3.5581884924029339e-01 -2.9387723647581041e+01 1.6974422704242942e-01 2.0507273195206888e+00 5.5189712610824309e+00 -2.3107065390584807e+00 2.5343627438964837e+00 -8.7219078403479156e-01 -1.1052949210362879e+00 -2.0278743918347608e-01 1.2093070943949499e+02 3.9935028682254265e+00 -4.3055894504436072e+00 -2.4217223226267386e+00 1.5142772273193117e+00 -4.2953884319921087e-01 -5.8804158439930006e+01 3.0299980563546214e-03 -2.9643347258600983e-01 -1.2278835127503214e+01 7.9168609558458058e-02 -7.1198874260198863e-01 -2.7255908217865255e-01 1.2861168147766122e-01 -1.5157184292878867e-01 -7.0149416749229943e-01 -3.8267310174674662e-02 -8.8164101517087978e-02 1.4193894433495416e+01 5.2489269615331757e-01 -1.5105279569504759e-01 9.0626510654340109e-01 4.2546999909660599e-01 -2.8199631069190900e-01 2.9337656580364501e+02 6.9290991925058165e-02 5.2666378441858797e-01 -7.7823958631679773e+00 -4.5567668971031594e-02 -8.5268466278165533e-01 -9.8521949098751094e-01 6.3859579266751609e-01 -5.5339723705572297e-01 4.0569833899706964e-01 -4.0456657678302577e-01 3.2828823210877545e-02 4.6671561855040068e+01 4.2099569272452619e-01 1.4300847137042183e-01 -1.0430222501620676e+00 -5.4875439701583417e-01 4.4536767347587158e-03 6.2223517151625060e+01 2.7814480522808438e-02 -5.9185751461502178e-01 -8.8742739189656845e+00 -2.9742149632194526e-01 -4.4942532251794631e-01 4.9705885083105272e-01 -1.1303564051143056e-01 1.1752210047766027e+00 3.7563571556866293e-01 -1.7495178385753860e+00 -2.0181134227783559e-03 -2.8696647176353963e+01 1.2072877495177359e-01 2.9973510478779275e-02 -1.5157957937707479e+01 -4.8441742013956457e-02 -2.2992708769877481e+00 -3.0163444187946880e+01 -8.0479652133081760e+00 8.1933634539641140e+00 9.0889632368177246e+01 -2.8769394257130902e+00 4.4438304585517230e-02 4.5611001510756331e+01 -8.0665981822733679e-01 -2.2307571845848280e+00 -1.3523245975553181e+01 -9.0875552223325702e+00 2.8015902107329076e+00 -7.1410540561975878e+01 -1.9956704325992014e-01 -4.5579868114927535e-02 -3.0859009521676526e+01 2.4118627585269721e+00 1.2569102450546879e+01 1.4419235616392655e+01 1.1200590471037756e+01 -2.0274649585109586e+01 4.5676401426440975e+01 -2.8509923206922849e+00 2.1154351708808427e+01 -4.6377664394653202e+00 4.5021050108282274e+00 -1.8696098946588585e+01 1.9660784641070048e+01 -1.4638581274237744e+01 -1.6067520092304903e+00 8.2235122937323140e+01 1.6812868005758276e+01 8.0273227131320368e-01 -3.4134414803597826e+02 4.1993084739650754e+00 2.1284207828320692e+02 
      </Row>
      <Row Index="152">
        6.1549499083380388e-01 -3.4401997193174725e+02 1.5679906994004389e-01 1.8755666570901819e-01 -1.9112942980705910e+01 -6.0384296949531002e-01 7.2025074683244839e-01 -1.5737729094720176e-01 1.6297395628690030e+00 9.6018117866485753e-01 1.9377327895423555e+00 -8.5278849085974073e-01 -2.0726103279053998e-01 1.1490011636210895e+02 3.5626083732953073e-01 -1.0148945056563559e+00 -1.0229950228909956e-01 8.5350858065656787e-01 1.8750308292911246e+00 2.3727618198145254e+02 8.3108561296009054e-01 -1.0718860979731382e+00 -9.2823159855102944e+00 6.9641423642734557e-01 3.0595699744475890e-01 2.8275732141493037e-02 1.2016477791184217e+00 6.5408757192930977e-01 -7.9212539542106075e-01 5.5133218798726169e-01 -9.8760701656650518e-02 1.0821631244567019e+01 -5.5541746264862879e-01 -2.9142913483718225e-01 -2.1633442870967023e-01 -1.3613120522057049e+00 1.3728743836940094e-01 7.3243916632501396e+00 7.3140909076445437e-02 -1.3346643832633909e-01 6.2062411849226562e-01 6.1996260856503227e-02 -3.4300397917895076e-02 -3.7934936367673977e-02 -1.0752912631301648e-01 2.6980453629003653e-01 -1.7353902308893243e-01 1.1539962070633791e-01 -6.5995455132913383e-02 1.3796023872939003e+00 -9.6724829021717085e-02 2.1858074092241608e-02 -5.5615450562952340e-01 -1.3828634570820775e-01 9.0889582162873239e-02 -8.6040391272905936e+01 1.9673799499057232e-01 4.4492460623479779e-01 2.3081538827879680e+00 -7.5251262442382227e-02 8.2703836879145953e-02 -1.7747613606931978e-01 -4.1963774466197012e-01 -3.9535436602594842e-02 -3.8342315669908089e-02 3.0666815210675935e-02 -1.0243122125725534e-02 1.4815621029024385e+01 1.7735404180713132e-01 2.1758640607885127e-03 2.4668657202585820e-01 2.2274881352234743e-01 3.3905696409679154e-01 5.8195409221665471e+01 6.1948753315750693e-01 1.3127089227782971e+00 -3.2734725448960475e+01 1.5244587551168354e-01 -1.3558683632260440e+00 -8.3953694844460358e-01 1.4023682475844674e+00 -1.8684977373685365e+00 2.8022437233685489e+00 1.2049193460196999e+00 1.1379231079890442e+00 3.4906982116262149e+01 5.1019280890865604e-01 1.3322810139020356e+00 1.4714920096430308e+01 -5.7989917766152921e-01 9.9074106582839505e-01 -1.3786703912496907e+02 5.1649513829138183e-02 3.5965273822256449e-02 9.0559513662786806e+00 6.9192832977406249e-02 -1.9422706874152595e-02 2.7125585287010168e-01 2.1190363110853427e-02 2.0130812602224779e-01 5.9348560913822013e-02 -1.6670573308192882e-02 -3.7783091810498881e-02 6.5465993067740555e+00 1.4675473840893183e-02 6.7968190493012060e-02 -2.5911177030701111e+00 6.9753081033020692e-02 1.3648726568522562e-02 -1.9102506596900071e+01 1.1794913413449848e-02 7.3818514707770788e-02 1.3898523472504465e+00 -2.9035048346973014e-02 1.2265186666337158e-01 -3.5074428310779737e-01 -2.2478857059704538e-02 -6.5578007985561904e-02 -8.4463333971314114e-02 -4.8914276288002156e-02 -3.2241065934300650e-02 3.6715315275918670e+00 1.0399577028960216e-01 -1.8311502456581508e-01 7.0371116862893501e-01 1.9925162885975567e-01 1.2021760058511610e-01 7.3717963755798394e+01 1.1502603757256402e-01 2.3667156220248842e-02 -4.2819671330159395e+00 -2.4839741527930670e-02 1.0751085646548830e-01 -2.7459706721653987e-02 1.1447608502161621e-01 -6.5107377374197029e-02 -1.6965066617223457e-01 -1.1757859521043557e-01 -1.8048568952399080e-01 -3.0055754517925948e+00 2.3517541489196603e-02 4.9387941689376547e-02 2.6051430642889013e+00 2.1823826295777948e-02 2.6311396864239356e+00 -7.6199179357118396e-01 1.3902173043596306e+00 3.8696318710777255e-01 -3.9998890697554970e+01 2.3035673550612801e-01 -2.4806879665556747e-01 -8.0665981822965094e-01 4.0236913571140152e+00 -4.1644539589242413e-02 3.6615801536879120e+00 7.7424315112327768e-01 6.6902486342211320e-01 1.3389503823477071e+02 3.2967294811641490e-01 -2.4148713146056267e-02 1.3897890656127180e+01 -1.0762780925650492e+00 -1.1351355574964195e+01 3.0853176864181108e+01 4.3632035713557542e+00 1.3427107164339125e+00 2.8438593998955724e+01 -2.0640231569277034e-01 -2.0453883881142403e+00 -3.5510730544321745e+00 -3.3906630151228168e-01 2.9772357752140621e-01 -1.9552025375839406e+00 5.3486150563870183e-02 3.1776778076534242e+00 4.6760021464709439e+01 1.6032858503484846e+00 5.3005061476795845e-01 -1.2933585716159655e+01 -4.5160626429681372e-01 5.1274170240127440e+01 
      </Row>
      <Row Index="153">
        1.0178351553001141e+00 1.6711574226197439e+02 2.7162866239999484e+00 2.2832082638910292e+00 -8.3872697715068867e+00 5.6850494341663049e-01 -8.8042906023523582e-01 -1.0584133826579194e+00 -1.4765972744868530e+00 3.8358768669952981e+00 -1.4855073422858505e+00 -9.5987692413490766e-01 -9.1386010823632979e-01 3.5283354519814466e+01 7.8400281674530981e-01 1.0620039897651035e+00 -1.2795908288772271e+01 -8.0639005831723054e-01 1.5514950997563521e+00 -3.3401636865661482e+02 1.7291319957022377e-01 -1.2283122770898074e+00 1.7948391098719064e+01 -4.1591191935093985e-01 8.5509886978941552e-01 -4.3677030368132286e-01 -5.4064551542693828e-01 8.2490756534962628e-01 -9.5755187222914051e-01 -4.3760926476271838e+00 9.0564936188532230e-01 -1.5726027723517165e+01 4.2737331562788028e-01 8.8692694145954665e-01 1.1482416657684498e+01 1.0172034816096176e+00 4.5046703233095542e-01 -4.2956791136930406e-02 -1.0786175236112860e-01 1.6650712081130781e-02 -2.0267430910354989e-01 1.7893470594658289e-02 -1.8847891053136667e-02 4.7266607897725521e-02 -3.3592448621768245e-01 -5.4607633497129893e-01 4.1613064855806137e-01 6.6778809070873635e-02 -1.4355374892481065e-02 1.0890652970592942e+01 9.1864076362333513e-03 -1.1784883513406186e-01 -2.8342526193845963e-01 -1.7152362799399601e-01 3.6694119224975452e-02 -5.6297505497761449e+01 -5.5495720940627091e-01 4.5118392650615302e-01 -2.9356027700358201e+01 6.1093866368608474e-02 1.9191456983771271e-01 -1.7050373897903981e-01 -3.1429277534054911e-01 -1.5280943077603126e-01 -2.9081319369277736e-01 5.9511842370850587e-01 -4.5576791944910156e-02 1.5646340419852152e+00 -1.7402243981048215e-01 -2.0215700280723681e-01 -1.2756102849836580e+01 -7.9689313085961722e-02 -1.5976104093467738e+00 1.0433347666250347e+02 -9.5915129950565570e-01 7.5148511641272453e-01 1.1185891123068233e+01 -2.2763205050811597e-01 -1.9883247302066009e-01 -1.3933176221764390e+00 2.0769259722234263e+00 5.4559529052868934e+00 -6.5445156714632757e-01 5.3796699999952384e+00 7.1754582798036814e-02 5.8179307899502831e+01 3.1439276847077025e-01 1.6211399355284164e+00 1.3197167999048464e+01 1.0507930571919886e+00 4.0518240992588517e-01 -1.0178197325552537e+02 -5.9191007646215565e-01 2.5944875905802256e-01 1.5006809417703067e+01 6.3273554092647122e-02 -3.9346508991897622e-02 6.0107142114862633e-01 -1.2937002831550792e-01 -2.8621080507010532e-01 -5.0853800981970565e-02 4.6856854001155135e-02 5.2993447212349665e-02 -1.9592561372800958e+01 -1.9289203823533585e-01 -1.1028332278658759e-01 5.6344955936440329e+00 -5.4277984666519785e-02 1.7981869796084027e-01 5.9182451020847566e+01 2.5747957993618531e-01 1.8898074411651855e-01 -1.3398307596778075e+01 2.4987789709047803e-02 3.7579913407099141e-01 -5.3839220481743055e-01 1.5691425957581462e-01 -7.8617952707853078e-01 -3.3322302650485369e-01 -5.2583646500397307e-01 -1.0854392608123931e-01 4.2827473166830487e+01 -3.1646811674859254e-01 -1.8062022871969674e-01 -5.8084066298143764e+00 5.5032621581186980e-01 7.6338653276378565e-02 3.4358840102635253e+02 3.1887580855962661e-03 1.4364276445873436e-01 4.8900162093612707e+00 -9.5567643930698054e-02 2.0643146695000780e-01 1.3715007529560452e-02 -8.9050097251690996e-02 3.2229742866584132e-01 -3.9545999036305624e-01 6.7193810702238821e-01 -3.7538246709441836e-02 -4.2514329143843327e+01 9.3506581063924621e-03 3.8865126970020647e-02 1.6961999010823465e+01 2.1314571310011132e-02 1.1831936799050031e+00 1.0269512888384526e+01 1.9266311004789300e+00 1.9823463972559459e+00 2.8424245864623174e+01 -1.4263160660104468e-02 -1.9063401389757539e-01 -2.2307571824298518e+00 -4.1644540645512151e-02 9.3989844654967847e+00 -2.7697594912755239e+00 2.0103890704811977e-01 -1.2728472235485011e-02 4.1462414304802188e+01 1.4184503071601262e+00 3.2218420481587060e+00 1.7631723776666966e+01 8.7730635449617544e-01 -9.7294100769041751e+00 -7.7718660364865684e+01 6.4584370247379042e+00 5.1378157407194180e-01 -3.0958479150716460e+02 -6.4575822822212103e-01 -3.0085080799794390e+00 -6.5555489963674010e+00 1.7579474787829632e+01 -1.3619441679396189e+01 -4.4912303396049120e+00 1.0715005303180222e+01 1.5704739706895907e+00 2.2208827599662385e+01 -6.4869863294262302e+00 9.7546449012367731e-01 3.5780910457983907e+02 -4.9992463931894271e+00 7.9065703479597261e+01 
      </Row>
      <Row Index="154">
        6.2110646036128303e-01 -5.1430319874351653e+02 3.4565159127426965e+00 -6.2087461285116197e+00 -9.3374895963215280e+01 -1.6764423448521191e+00 -9.2198881472052241e-01 -1.4406282657869129e+01 -2.2001783440109346e-01 -2.6280450837728697e-01 2.5347002203231977e+01 8.6097029261925151e+00 -6.4165477642728819e-01 3.1459823820059006e+02 3.8471295398883858e+00 -3.1945816760818069e-01 2.6310857128106754e+01 -6.5054983165523161e-01 -3.5592189897250193e+00 2.0697323884344195e+02 6.0336741220474543e-01 -1.0308547206637759e+00 5.6436894888927128e+01 -9.8537053663380059e-02 -1.7359025968419890e+00 1.3182988596653828e+00 2.2837975985832690e+00 1.4908797598799310e+00 6.6768805896348731e+00 3.0415398425982509e-02 -2.0984320431884926e+00 -2.4880883794863300e+02 -4.3690249914208024e-01 2.2472258153061011e+00 -3.9261508944667412e+01 -2.7383797534966696e+00 -8.5683122949388490e-01 -1.7374898941521582e+02 -9.3296704379336126e-02 -9.5658401596783671e-01 1.6372041596996240e+01 1.0166179165411826e-01 1.4701651491427770e-02 4.3311126941410372e-02 -1.1173649895569215e-01 2.8117333729841043e-01 -1.6875093704891384e+00 -5.3076054580348142e-02 5.8822729631881177e-02 -4.4220496535000741e+01 -3.4549976090972723e-01 7.1481165109120148e-01 -4.5129463843981634e+00 -8.1196851665417125e-01 2.3353916695614529e-01 1.3453544643742737e+02 4.5549991205245277e-01 1.0350971136491296e+00 1.2921070005752345e+01 -1.7333378903279062e-01 7.8727229894957862e-01 -3.1167154333370206e-01 -6.2115959786428832e-01 -8.8618619247669983e-01 -1.0570299325208126e+00 -1.2998133183253451e+00 6.8339234551455519e-03 2.5891623028283504e+01 2.3034915855333793e-01 1.3106830337745556e-01 1.7652755409253110e+01 7.3517455542635624e-01 1.9729004208132364e+00 -2.3601846887795816e+02 -4.1591060809553193e-01 3.6804991317141242e+00 -6.7327983520359595e+01 -4.2747842817121873e-01 -3.0285742604608719e+00 -3.9250771690195041e-01 1.8720088725476089e+00 -3.9658869169473290e+00 5.9865402318929473e+00 2.5663120384190194e+00 2.3063748186952076e+00 9.7251043602445847e+01 -1.1361975122221351e+00 -1.0401427617843932e+00 2.4831833480483475e+01 -3.1683939243917614e-01 5.7864058596363321e-01 1.4203757488275710e+02 -3.4756247686696939e-01 5.1048344559040082e-01 8.3109799099990767e-01 -5.2694929995649675e-02 2.3163516657480443e-01 5.0981992537324317e-01 -2.6249806687466726e-01 1.3698931698259287e-01 7.3104498148279262e-01 4.9356347989712290e-01 -1.1191428428050854e-01 -1.9776712685754148e+01 -1.6046224904379036e-01 -3.5040404423450688e-02 -1.2283781875411293e+01 2.6096185274274220e-01 -1.3708579123156994e-01 -2.0279420076681618e+01 2.2733902363877512e-01 -7.0221019592176859e-01 2.9850884784930436e+00 -2.0728938532965202e-01 8.2420792503129903e-01 -1.3659014892935772e-01 -5.1623172100330628e-01 7.8953866087367519e-01 -1.2208050203678766e+00 4.5393900790780961e-01 -1.4474043271796688e-01 1.0026803793693773e+01 3.6452102599388869e-01 -6.5548226894416217e-01 7.5198449115239541e+00 1.0186756605524536e+00 -5.2859503569626565e-01 -1.2812863841533829e+02 1.5751868762118004e-01 5.3092480368209038e-01 -3.8204294977519162e+01 -2.6951937960889794e-02 2.0423759963892252e-01 -1.0163617082224974e-01 -4.2529741349693317e-01 -2.1981072460904372e-01 -2.5919443286156252e-01 1.6993668856558557e+00 6.7525928856481343e-02 -3.4798864293954196e+01 -6.8390906066784662e-02 7.7149884750161490e-02 -1.4741586656950567e+01 -7.8799592470774726e-02 -1.8814810004128839e+00 -4.0216464376499403e+01 3.0332951724146331e+00 -3.6708120610229140e+00 3.0046410608040876e+01 -2.0040737770302064e+00 -5.1591348897327185e+00 -1.3523245974602791e+01 3.6615801551813680e+00 -2.7697594879908962e+00 3.5362907923553024e+01 9.7965877532708525e+00 -1.8331190342887904e-01 2.0100210094179749e+02 1.9851370436482916e+00 9.7825037001840442e-01 3.4014574123079981e+00 -4.3809879007614922e+00 8.3259149271660249e-01 -5.3942336058773066e+01 7.7712243188545216e+00 2.0795218313572661e+01 -3.2189701930334320e+02 -1.7261515898673139e+00 -1.4145550891727517e+01 -5.3201236641310947e+00 6.0921502968899404e+00 6.6275733476032919e+00 -1.9859669983755680e+01 1.1241353284100516e+01 9.0577290284483070e-01 -4.3962037866497798e+02 1.9334557982882785e+00 4.5362072077672053e+00 -4.2893358052238534e+02 -8.3669061579543342e+00 3.6160822170470266e+02 
      </Row>
      <Row Index="155">
        -2.5845164997050158e+00 1.0157789868616328e+02 6.1600341922913691e+00 -3.4154218152535032e+00 -2.3449337081016483e+02 -1.4814361828065614e-01 -4.3282879456229040e-01 -8.8964855747685405e+00 -3.0057546101043169e+00 1.6511967658539817e-01 1.5951061023245479e+01 2.5911075241385795e+01 -1.0517376665991449e+00 4.8616166286399152e+02 5.8102662565329650e+00 3.9911910776259063e+00 9.5322606380485894e+01 -1.2972350041037828e+00 1.6657755115234552e+00 -1.1968863681962944e+01 -4.0868830321574734e-02 1.7486645476338554e+00 -7.3508279808681479e+01 1.8361156922445732e+00 -6.6529582294478473e-01 2.8058346394498805e+00 2.6371058852755853e+00 -1.1107525715477238e+00 1.1459151944122681e+00 1.1526426450900933e+01 -2.3290802811577844e+00 -2.1405387000666721e+01 1.2711464710940064e+00 4.9685956304220724e-01 2.3430735555753529e+01 -8.0523572166911350e-01 8.9817906100721601e-01 -4.2953711392179912e+02 -2.8852641546829183e-01 -2.4962586998785241e-01 2.4778152964291486e+01 1.2884458642208330e-01 1.3107089609821543e-02 1.2772079582365237e-01 -6.7359341027311892e-01 -4.8928244022107492e-01 -4.7693910654643190e-01 -1.1487142221530746e+00 -5.1005131960033090e-02 -3.2313002382918256e+01 -1.3474623123822482e-01 -1.6765434263524526e-01 -5.8517371661450088e+00 3.0829272825529586e-01 5.0489980830437275e-01 -1.9614187386495814e+02 -1.3386514658267785e+00 -5.7201188107065093e-01 1.4269162397551000e+01 -3.8939702920498576e-01 -2.6352271882002754e-01 -5.3419645077181599e-01 -7.9124718291222251e-01 5.5217978835813142e-02 4.8165339390453710e-01 -2.7008840465147586e+00 7.2411775310655457e-02 -8.2203181162908777e+01 -2.8515285652817823e-01 -1.2190849253416758e-01 6.3909280384805811e-01 4.9288114129826255e-02 3.1295862649969273e+00 5.5425862577624571e+01 -2.0371000485829658e+00 -7.2403032136003098e-01 6.2785259460052281e+00 1.6188963268526990e-01 2.3877732230137383e+00 -3.5687249239798646e+00 1.5435628763805358e+00 1.5952397434956715e+00 -7.5061371281567890e+00 5.4501832958621108e+00 1.3726094274464451e-01 -9.3067397454719625e+01 -3.6854470208676422e+00 -1.9423677265065216e+00 8.7244284981693454e-01 -1.4566971792182528e+00 2.7584427735841075e+00 -4.6766252303782198e+02 -6.9837626115129581e-01 1.6290601924934833e-01 2.0520204447610240e+01 -2.8341669943952930e-02 -1.7734750193369564e-01 2.3799470474614282e-01 -4.9591387409843435e-01 -6.7162927059740696e-02 -1.2673535751311249e-01 -1.4506123273750049e-01 -2.0865352760835876e-01 -2.0615124226014359e+01 -2.4617473990173266e-01 -1.6080948318590771e-01 1.2644493598716622e+00 -1.1312560179538877e-01 4.6621511345907152e-01 -5.5566911224985233e+01 1.1208556689139471e-01 -5.7402669471264289e-01 3.8500609108697574e+00 -1.1665665258479407e-01 -2.9859058913200442e-01 -6.8310143239358467e-01 5.9293248879873062e-01 2.8473617793460804e-01 3.8217205787373132e-01 -3.1832019559519154e-01 2.0499099358258377e-01 -3.0342400250703804e+01 -3.0237244371435779e-01 1.4253096004901522e-01 -2.6135330551912546e+00 -5.0525856719981732e-01 -5.9754785640549812e-02 -2.2736538404930434e+02 -2.3052657599378179e-01 3.1409965535367235e-01 1.6981148395461787e+00 3.4018135898783441e-02 -1.1026642697061106e-02 -4.5030437763855957e-02 -1.8966767882399971e-01 1.5676459196052406e-01 7.9509071969894762e-02 6.0446740472336558e-01 5.8159661149800002e-01 -4.4900670865929555e+01 -4.6501980549885857e-02 -1.1362703872359248e-01 -2.8586444287092263e+00 -5.6748939274342547e-03 2.0936489854132248e+00 -5.5569720559788038e+00 4.6062026509262495e+00 -2.1988135714866281e+00 -2.0042565891748586e+02 1.7528436115306691e+00 1.1407918354749402e+00 -9.0875552245339115e+00 7.7424315349800743e-01 2.0103891157340570e-01 9.7965877517062836e+00 4.1089763993256547e+01 -2.9541400333080094e+00 4.0450294927640823e+02 3.3069628076694553e+00 2.4890914867032734e+00 1.1515521297412776e+02 -3.1238762303022725e+00 -4.4573078471011257e+01 3.1039066753099416e+01 -3.1531949217685451e-01 7.9190624964708718e+00 -1.0600083303371230e+02 -3.3073082923092443e+00 4.3286548079457532e+00 -2.4183613824729946e+00 1.9963411309968464e+01 -3.6100665900351174e+00 8.1954527738082117e+00 8.7999975715716658e+00 -1.0408279023012483e+01 -4.3877153778645504e+02 -1.1075325754516712e+01 1.1850401849797265e+00 -8.2328701127670001e+01 2.2930006180023526e+00 -4.3896468624637009e+01 
      </Row>
      <Row Index="156">
        -1.1070315962054798e+00 -1.2750064316774470e+01 -7.9771977654216808e-01 1.8450597742827681e+00 1.8324009515940194e+00 -1.3148893707479630e+00 -3.5611590595177134e-01 2.7112924820442030e+00 -7.9309717798298762e-02 -3.7761999011666969e-01 -7.3226596339185868e-01 -1.9586731479978028e+00 1.0298826459535630e+00 2.3182735515324989e+01 -3.7639249102459371e-01 -1.3073887486948590e+00 -5.9389575137847945e+00 -6.8891853841748318e-01 1.9768678863531702e-02 -2.6547429521513465e+01 -5.1115088829321254e-01 2.0423881243895259e-01 -3.6227026844181296e+00 -1.2567479608539993e+00 1.0105768664362680e-01 1.1222524913108369e+00 6.2849746820112429e-01 -1.1816596729848761e-01 2.0346666406444425e-01 -1.4931844475539224e+00 2.1686205321047045e+00 4.2663792165513087e+01 3.0683520509688106e-01 4.6127651245505019e-01 7.1626143306186121e+00 4.8534180788192854e-01 1.2911699084465678e-01 1.6659883963986573e+01 -1.3722567482707559e-02 3.0666575052689549e-02 5.0166692550746461e-02 6.2128854965347369e-02 5.7042711381571243e-02 -2.3823022577317543e-01 1.2839188437114746e-01 2.3093913276141831e-01 1.3350963698066698e-01 -5.2013592799055841e-01 -6.1540653908105203e-02 4.2692464129523824e+00 5.8175495794233978e-02 3.6003878981853976e-02 -1.1635952861206387e+00 5.3722969572023160e-04 -1.1602702068290149e-01 1.7627497570724643e+02 1.0131001745247481e-01 -2.1891481096135434e-01 -6.2499683590114943e+00 3.1123852963629162e-01 -7.4070036288484964e-03 -1.5177564783175868e-01 -2.2370424459048799e-01 9.0973322838482140e-02 -2.0360570783690335e-01 3.9372230511536044e-01 -4.2537290763128333e-01 6.0695004816864042e+00 -9.0234343598734501e-02 -1.2957922968385249e-01 1.0165676709176097e-01 -1.1126581881738984e-01 1.0024012026291573e-01 -3.9327525658706406e+01 -8.2729183679738416e-01 -5.0336805420674835e-01 -6.2710728509224900e+00 3.6637469875753931e-01 -8.9072105277528291e-02 -9.7666076075975283e-01 1.6662693022319597e-01 3.9909443986142668e-01 3.5177848313433313e-01 1.0273108172330241e+00 1.8414977851133014e+00 -2.3420124104097482e+01 -5.1253413829676964e-01 6.4068381101227478e-01 1.6899308805504763e+01 -1.1987449286386980e+00 -3.9318842415495325e-02 -2.4532168106798849e+01 3.6617476201881016e-01 5.7812524720025849e-02 -8.2391107617241044e-01 -1.3119700408078167e-02 -1.7721133328329586e-02 -9.3759506213686450e-04 -1.4813876980178603e-01 4.6669578433796488e-02 -1.1144361167600092e-01 -4.6690510534666885e-02 1.4711611578549499e-02 3.2507583686495423e-01 -8.9693607788044138e-02 -5.0008252041985113e-02 -6.6693067268537476e-01 -8.1967783937473726e-02 -1.7400748924103837e-01 4.5560029135720299e+01 1.0791691438558093e-01 -5.6557327330926555e-02 -4.4518839245352506e+00 1.1305493874847805e-01 -5.3495414861718160e-02 5.4953151176402315e-02 1.0703413280063501e-01 1.4461216015405443e-01 -3.3289032676293573e-03 2.7607494716870384e-01 -1.5046535537046957e-01 1.3463339684844144e+01 -2.1078819963866047e-01 1.9165739074295374e-01 1.6079113565724157e-01 2.0254393965855932e-02 3.1326562452967455e-01 1.7608102632145489e+01 -2.6242136657621229e-01 -1.0371760952360098e-01 6.1472072531697926e+00 6.8178328955335932e-02 -2.8542070770871675e-02 1.5577628765409646e-01 -1.0308209829792636e-01 1.3062910625895974e-01 -3.6549558741355348e-02 -2.2569817634557410e-01 4.0131495054594346e-02 1.1443130151292351e+00 -7.5680560860272861e-03 -8.0893243708173301e-03 -3.4401477711873731e+00 -1.2501395234311818e-02 -8.7292668478609836e-01 -4.3381757978107629e+00 -1.8408156721091942e+00 1.5403145932024349e+00 1.2574738330239269e+01 -2.0329830408820637e+00 -2.8814867923410237e-01 2.8015902110949860e+00 6.6902486352719592e-01 -1.2728472456513984e-02 -1.8331190259919206e-01 -2.9541400334709653e+00 4.6531802916471525e+00 -4.2769511064633221e+00 -5.7807375155074459e-01 -2.5244627387990537e-01 4.1887382887002165e+00 -1.3161345261281836e+00 1.0582295572842773e+00 3.6292018290274086e-01 -6.2818915155947863e+00 -3.0829252861028031e+00 5.3799888370762446e+01 1.9612466735838936e+00 1.4634015758658467e+00 6.6298923225962003e-01 2.5695784811181133e+00 2.2042613013413712e+00 7.0138845282549422e-01 -9.9609173045744903e+00 4.1303642480558267e-01 8.1935221610207961e+01 -3.7290467249201100e+00 -1.1828870631364001e+00 -2.9488479253998548e+01 -1.4194256130548766e+00 4.5056307305377956e+01 
      </Row>
      <Row Index="157">
        1.0800992698172070e+02 7.8048231453713524e+03 7.3660165587298167e+01 2.7625715383439172e+01 -5.3352325644161392e+03 -6.7168134178864079e+01 -5.8276364931495777e+01 1.6220109702969694e+01 -7.5458816074578323e+01 -3.7045774220270914e+01 3.4060763910416404e+02 3.4149839188264536e+02 -3.5840317092461191e+01 1.3258969079282568e+04 1.3237758895445850e+02 1.5823640786738679e+01 1.5987383892176686e+03 -5.6775671359258013e+01 2.2826920634946174e+02 -1.1381386649310480e+03 2.1274785859381041e+01 -8.5775806970359724e+01 9.0278399913591329e+01 6.4829241163508868e+00 2.5044052896197400e+00 -6.0144009322467355e+01 8.6118698810923902e+01 2.2255057538760695e+01 -1.3318598497286519e+02 8.0498099134610356e+01 -1.8810487919901504e+01 4.7159417539384303e+03 9.3101776371690903e+00 5.2904689703382246e+00 3.2450955351461181e+02 -8.7570777703803572e+01 8.3370995673808466e+00 -7.9152046034378873e+02 -1.6268165029232392e+01 -4.4139768164005773e+00 1.2020760206291425e+02 4.7721002527619021e+00 1.3896841510709805e+00 -2.1484689587123285e-01 -1.7970436418174359e+01 9.7603053183345310e+00 -2.3749236143147527e+01 -3.0409071336258421e+01 -5.8100959665785297e+00 -1.0321922896287833e+02 -3.6971006861916749e+00 -2.5490364222605422e-02 -5.6362740667887124e+01 7.7355303807325981e+00 -2.4186071311155501e+01 -2.4742073631960957e+03 -6.7988255641490014e+01 4.6099555164768617e+01 4.0502916798541537e+02 5.9110813152938135e-01 2.7158915387462912e-01 4.9685927131304197e+00 -4.6307113241194429e+01 2.2254763404291680e+00 2.6081904146411034e+01 3.2196170903641814e+00 1.3313105645691849e+01 -2.5240404600575384e+03 -7.0808932419897701e+00 -3.0700873767968915e+00 3.3104385611344242e+02 1.6638302255287385e+01 -2.0735000852553412e+01 7.2826784835246835e+03 1.2074046162220549e+02 1.9231475601594951e+01 -2.2742574919603589e+03 4.2194121794737889e+01 1.6808301301783871e+01 -3.4715672328894925e+01 1.4082968239620283e+02 5.3477503901785212e+01 -7.7618723563243748e+00 -3.3471371640381449e+00 5.7991750709577332e+01 6.0002221114051208e+03 -3.4374700685329344e+01 2.5886259040618143e+00 -1.6018962387483703e+02 -2.4419116887449036e+01 5.9183447101021557e+01 -9.8179705409791204e+03 2.3622191322444905e+00 2.2263932509254118e+00 2.7843717393586303e+02 2.6730147001387650e+00 -6.7143580847732665e+00 1.4652752261706155e+01 -1.9598459644892728e+01 -1.2361013817211642e+01 8.2504921651752738e-01 1.5854247646766453e+00 5.3425339787128223e+00 -1.0692973088750077e+03 -9.8813952515525898e+00 -7.7767628465221605e-01 -1.0745718566272080e+02 -4.5961162494468226e+00 8.7025231862967303e+00 -4.2718757158807421e+03 1.6429696925096096e+01 2.7481504756192408e+00 6.0455927186957797e+02 -3.2337709045996235e+00 8.9194250202308467e-01 -1.9274887190901609e+01 2.1792578642372519e+01 -9.8187871028061409e+00 1.2422063273239473e+01 1.5152437395276138e+01 -2.3187492266283698e+00 2.0359433222504595e+02 -1.1144841565198362e+01 -9.9577071270050510e+00 -5.3958785509953032e+01 -1.4517856360446785e+01 9.7096848238281837e+00 2.0742817891749437e+03 -7.4231657621581917e+00 2.4355771250875478e+00 -6.0458829419196809e+02 -5.3350928411532550e-01 6.9102571973053273e-01 -1.4031613259054666e+01 -3.0418845766641311e+00 9.0429035136348830e+00 2.0900863284905427e+00 -3.9833468530207483e+01 -1.6700765074444462e+01 -1.1367043895414099e+02 -1.9120880673327747e+00 -1.0615911584209243e+00 1.7295816320600852e+02 2.0439504909038533e+00 2.8385130029731204e+02 -7.6420092973196734e+02 2.3558341781293876e+02 -3.7081664938813219e+01 -6.6193296155403059e+03 -2.1168419799430552e+01 -3.9948046883391640e+01 -7.1410540789730192e+01 1.3389503826145176e+02 4.1462414464116364e+01 2.0100210075217160e+02 4.0450294927362631e+02 -4.2769511400384772e+00 2.3242060902373127e+04 1.0692549721967026e+02 2.1095693053418472e+01 1.7968765950121065e+03 -1.4990177389725932e+02 -1.0291441585515095e+03 3.1814187357122910e+03 -4.4710974853485459e+02 -6.3289774792847311e+00 6.5029186911380202e+03 -8.0312158885135432e+00 9.4856979119495008e+00 -1.5615826163078827e+02 9.2803306324034861e+02 -4.3894550487004017e+02 2.2593468698318594e+02 -4.2374897350502442e+02 2.6172965008422761e+02 7.3350365152785325e+03 -3.4572427599106959e+02 7.9125901654034351e+01 -5.6452565721137071e+03 8.5829444585976034e+01 3.0753074408668854e+03 
      </Row>
      <Row Index="158">
        6.7137075577938354e-02 -1.5126474932251199e+01 1.8487144423855439e+00 1.0921307006443179e+00 -3.8314622564190060e+01 -4.9373369386309318e-01 -9.2709579723160473e-01 -1.1652388684126436e-02 6.1434867920250769e-02 -4.3416691173452149e-02 4.2551208718725606e+00 3.0274296505699629e+00 -6.0324741155032746e-01 1.0797726474429476e+02 1.6986269176147526e+00 2.1436240711398664e+00 1.1850868704415344e+01 -1.2115669262351836e+00 1.4100997366444683e+00 -2.6649147445093583e+01 4.9227616827610676e-01 -4.4244350119713083e-01 1.4626278198800426e+01 6.2017669818727905e-01 -1.2414134825372536e+00 2.1934619825922097e-01 9.1483809496456070e-01 4.7405225626454350e-01 2.8732648979717701e-01 8.6364463273876035e-02 -7.2641870988566493e-01 2.4738538453063082e+01 3.7040375529526520e-01 1.4647554146144781e+00 -1.5164644618067886e+00 -1.5646632301816652e+00 3.4201042394203363e-01 7.6638791044153152e+00 -5.9420303114309958e-02 -8.3770564141462556e-02 5.7618899215447996e+00 1.8435412231092130e-02 1.7298514988022040e-02 -1.1314698428857017e-01 -1.1696989229014143e-01 -1.6992857404376505e-02 -5.2972490362578561e-02 1.2498285774610096e-02 -7.4536702771355046e-05 -2.3834422752931879e+00 -1.1828904059550216e-01 -6.1242661290741296e-02 -1.1890313708441449e+00 -8.1467166017978876e-03 -8.4704484003962577e-02 -2.5584033322678067e+01 -3.7071980458437315e-01 3.1470511642612253e-01 1.0118841362005204e-01 -9.5664509169668399e-02 1.0282012190189649e-01 -1.0679947164356207e-01 -2.8494213820694636e-01 -9.9040201000154759e-02 -4.4239733181626661e-02 -1.6406315742655142e-01 1.1205505122449910e-01 3.6383840779988930e-01 -1.2039419218536107e-01 -3.8406521036868568e-01 -1.9257540652319278e+00 2.6776710457247521e-01 -1.1434712336877344e+00 -6.5168861012106689e+01 -2.1078080543105879e+00 -8.1622281407135855e-01 2.1055779967885258e+01 4.2260162720332950e-02 2.4814449971049424e+00 -5.3822413712395534e-01 -5.6345465155513397e-01 1.1494702282875069e+00 -2.6987003095662416e+00 3.3915558040455984e-01 7.1466326715276951e-01 2.1724840859655206e+01 1.8331728586159062e+00 -3.7068898776573711e-01 -1.1590990924347047e+01 2.3120128095909998e+00 6.0013597893389914e-01 -1.0351840199268256e+02 2.7455757853852569e-02 1.5146450599650141e-01 5.3693524907591499e+00 3.5805756063868877e-02 4.1699609882478228e-02 2.6858027282678254e-01 -1.0654309035378018e-01 -2.2133318177517936e-01 -8.2090514297077810e-02 6.6558271681300685e-03 3.6557521884567956e-02 -9.1803355458489619e+00 1.0091399374037913e-02 -5.0475823535109487e-02 9.2552666219054558e-01 6.0536604689154672e-02 2.1134808599119381e-01 5.6900203937945946e+01 9.8716739353668981e-02 2.7636072962828884e-02 -5.0334534953438812e+00 -1.2268044127523581e-03 -1.0750786788996258e-01 -2.8737293932678831e-01 7.0950005929439897e-02 -9.2919416274681144e-02 -7.1097335201152134e-02 -2.5297717507919693e-01 -6.9835643335463438e-02 2.3504047298007322e+01 3.9499492839514705e-02 -2.2256797119515781e-02 -8.3488360506095827e-01 3.0356299552016353e-02 2.7254351641579078e-03 2.8389898711976031e+01 -7.9644968840927755e-02 7.1859698371337544e-02 -9.4357218638263163e-01 -3.9655751394411354e-02 -5.6195110325205633e-02 3.8206538327202111e-02 -2.5575597752268808e-02 1.2318917422816256e-01 -7.2171300641043601e-02 6.0029993668682469e-01 -1.1818359254623889e-01 -1.0593038837017524e+01 2.8169298531310893e-04 1.1100759234345503e-02 4.9002716358566065e+00 -3.0471865026623135e-02 3.6664016915877418e-01 -1.8127499135621960e+01 4.9904313524432031e-01 -7.0869650989488164e-02 1.4849769981970507e+01 1.2658402938452995e-01 2.3376538483645803e-01 -1.9956704295757788e-01 3.2967294773592942e-01 1.4184503069618741e+00 1.9851370404807209e+00 3.3069628038090961e+00 -5.7807375154828788e-01 1.0692549714907130e+02 3.5987005723574579e+00 3.0358038670169760e+00 2.6613356806969310e+00 -4.6474117307102070e-01 -9.8488449270637233e+00 -3.4985196805973828e+01 -1.5614710941153547e+00 5.6417145677718850e-01 -1.4888960958166538e+02 -6.1017894553027219e-01 2.4550943493319934e+00 -2.9532639134049514e+00 5.7756054180645169e+00 -3.3047562154576084e+00 -2.2323873120928717e-01 7.7633041820524138e+00 2.0623719537250906e+00 8.6645152988181053e+01 3.1194055887572105e+00 -5.6474225486049079e-01 6.6913708205911789e+01 -1.2443767892549396e-01 1.4563010210351263e+02 
      </Row>
      <Row Index="159">
        -6.5355040287605148e-01 -1.0928951300351844e+02 3.9673899454309010e+00 1.4689011325855019e+00 -1.5970884780647992e+01 1.9985299823423786e-01 -1.2077767352175592e+00 -2.7023172060754241e-01 -3.9292520985414758e-01 -2.7345094565642425e-01 1.3926396615795076e+00 2.7444624646153040e+00 -7.9921456287130077e-01 7.2525633119843206e+01 3.4855600312271440e+00 4.9391030049515603e+00 1.7402862036867532e+01 4.8495669761686289e-01 -4.4163728306937539e-01 2.0060229747753289e+02 4.4137135894709800e-01 -2.2127730274249577e-01 2.5173942113421290e+01 1.1824171372159848e+00 1.8693694307280140e-01 1.0421425961928643e+00 7.7304936776854538e-01 3.6731146554655369e-01 4.9852908360832648e-01 -2.1505732539490632e+00 -4.8016947435654878e-01 -2.3242593147216027e+01 2.2916525943236863e+00 5.0808067351393502e+00 -1.7023420739658779e+00 -5.1744964599874033e-01 -1.1843303682769690e-01 2.3999279672321620e+01 -1.7105736638072977e-01 2.3760430858761783e-02 1.0830602196893118e+00 2.6170388268853984e-02 -1.6521509627803943e-01 1.0694202141433617e-01 -1.3328161355731383e-01 -2.2893437913714521e-01 9.6193621399662810e-02 1.4590862918922198e-02 8.7478014688182615e-03 1.6055218332528653e-02 2.5028864219082125e-02 -2.3126645295694992e-01 -2.7548298526407056e-02 -1.4254831483184560e-01 -1.7625842452143203e-01 -2.3773534700608479e+01 1.9654347646072345e-01 4.8698399027361194e-01 -9.9363458111205212e+00 -9.5479454451787404e-02 4.3094052295912810e-01 -4.4189730803271843e-01 -1.2265362068356378e-01 1.0068092322621958e-01 -2.8023826845002731e-01 1.8487407658682287e-02 1.0550344732643779e-01 1.0518536087626927e+01 -5.2879786321711997e-01 -9.1564660359840477e-01 -2.0342426277146100e+00 1.7491346296919619e-01 7.9117733767645637e-02 -5.5270588173840636e+01 -4.1496416886708003e+00 -1.6185202434281583e+00 3.9443887563104276e+00 -1.2659022841586771e+00 1.2284021102997300e+00 -1.0881641338733008e+00 -2.7282936850768269e-01 3.5113869241547873e+00 -9.5312285827600252e-01 1.8209530054054142e+00 1.0426224925426297e+00 2.9817587289256558e+01 -2.6961056860927988e+00 3.0573261928796835e+00 -6.2932799343078063e+00 2.1095971868277124e+00 1.3660453109971371e-01 -8.8698634340261293e+01 -2.1759372247146147e-01 1.2223932641651647e-01 4.9143255028353359e+00 5.9175744097532845e-02 3.7202906759624454e-02 2.9233059034405784e-01 -5.7961464734543666e-02 -2.4660252909529490e-01 6.5162331840069143e-02 1.6686204050661702e-01 4.4852338287919347e-02 -7.7084379405000902e+00 -6.4864614382166375e-01 -3.2298784461624219e-01 3.3219954036216137e-01 4.3416357696361985e-02 4.0248295246330557e-01 8.1408953433597048e+01 4.2784399731679290e-01 6.9093975471911762e-02 -9.8252831505285592e+00 6.2440209946714731e-03 4.1728486592516134e-01 -5.1330103984894393e-01 9.9378542392862812e-02 -2.7293891665630232e-01 -1.2850945074973197e-01 -1.5971540661983141e-01 -8.6493510328207179e-02 4.4164502235393428e+01 -6.5065383028521184e-01 -6.7529172905689627e-01 -5.9794758759602296e-01 2.6646914553402823e-01 -2.7874996756993653e-01 8.6511569395651719e+01 -1.1813010890271780e-01 7.7747007847444927e-02 4.1257590868241181e+00 1.1045503657229183e-01 1.6227656025023585e-01 -4.5620438431193122e-02 5.1122940513383952e-02 1.9280137098037642e-01 -2.3644547092549040e-01 2.8597718701654351e-01 -3.4167035735530682e-01 -2.7307373043863848e+01 1.3721176540306468e-02 3.7808050906988910e-02 5.3808245409688151e+00 -2.0478932959271212e-01 -1.2966998353516215e+00 5.1872654552665836e+00 2.4275446294208125e-01 -1.7853462909678663e-01 2.2134277746225536e+01 1.0276084299267740e-01 1.3486964651593780e-01 -4.5579867574614630e-02 -2.4148713330509719e-02 3.2218420471189311e+00 9.7825036892286565e-01 2.4890914834973143e+00 -2.5244627372748818e-01 2.1095692979802145e+01 3.0358038662767051e+00 1.2091227991525173e+01 1.0889164366747154e+01 1.8761897315693155e+00 -9.1628033809714093e-01 3.5364820071662109e+01 7.8368238416812748e+00 5.3548451499512595e-01 -5.8311522061020142e+01 3.9189526183494650e-01 -6.5492442879192314e+00 -4.6626636893094462e+00 3.0377837836686883e-01 -9.2150529649058530e+00 -3.7921681709265167e+00 5.1918285973839602e+00 4.5703245402978041e+00 1.2251474615301532e+02 -1.8335444132049133e+01 4.1383888863612732e+00 6.8831682988994004e+01 -4.1086219812002902e+00 7.8705792370083913e+01 
      </Row>
      <Row Index="160">
        -5.2244746170001108e+01 1.2730957713147855e+03 1.7560372462156707e+01 2.0872739069394143e+01 -1.0605922979532884e+03 -4.8880142345154809e+00 9.4869268580690118e+00 -1.2022430941551534e+01 4.7198098169125906e+00 -2.5100199843971325e+00 3.5976890818997617e+01 9.0452311540966207e+01 4.9116903585384080e+00 2.0751444741500181e+03 2.0152440320561915e+01 -1.3444715827408174e+01 4.5632265905176178e+02 1.6883271167149474e+01 2.3014838751143031e+01 -3.3550797330842306e+03 -4.1962701687116351e+00 9.0869189813549625e+00 -5.2772921662546548e+02 1.2750910864705730e+01 6.5247316086448848e+00 3.2522928404705453e+00 5.9451283820895782e+00 1.2560411164869265e+00 -2.4178482166378188e+01 4.6006475673523624e+01 -3.4901250021716805e+00 1.6627421981611974e+01 1.5757795136131378e+01 5.2113380541479728e+00 3.6558528112376013e+02 -1.9070792535051240e+00 6.0577662510260666e+00 6.1155504953899799e+02 -3.2754465105891342e+00 -2.7440463883587540e-01 -7.3401713456033974e+01 7.5010106721276770e-01 -4.1959197084054267e-01 5.9969720762586576e-01 -1.2673967816451466e+00 2.1403556518315554e+00 -9.5577259826751515e-01 -1.0118749162074892e-02 -8.1411573423286399e-01 -7.7633702512972604e+01 1.0982329713494039e+00 -9.1923509656044189e-01 -6.5720163399713556e+00 7.4398729805693620e-01 9.1578751547137927e+00 -8.9789077596666175e+01 -6.9612437214669853e+00 -1.2460188074663847e+00 1.6703074823494859e+02 -1.3269898840574115e+00 -6.2346192846507620e-01 -2.7481926834493606e+00 1.5042294125095168e-01 2.2217982120645274e+00 3.2209137931945406e+00 -5.1553251620013043e+00 -1.5512216016209095e+00 -1.7646575359210874e+02 -5.0156179612016558e+00 -1.4396564104724803e+00 -3.8817274651000389e+01 -8.5196329843699914e-01 1.5374736812227837e+01 1.2877408015954006e+03 -4.1122576206045380e+00 -2.7817591418568668e+00 -2.0802860679049451e+02 -4.4197708878431285e-01 -4.7764080746104156e+00 -2.5571330189406126e+01 3.8951457916491563e+00 1.9508802891122656e+01 -1.1778024050991917e+01 -2.2160541542325404e+01 3.3877152891982121e+00 -1.2997537307092821e+03 -3.4478206778423626e+01 2.1810567267742954e+01 2.3204318511112132e+02 -2.0869725139701586e+01 2.7220931583899983e+01 -3.7433412232298833e+03 1.3599057007664328e+00 -2.9195319581273225e+00 1.3163705999316926e+02 6.4655769361550242e-01 -1.0894477227238895e+00 -5.8473598119269354e-01 1.7233039076529622e-03 3.7920060045162245e+00 -3.3735756800258514e+00 -7.9300486598953057e-02 -2.1682030726833261e+00 -1.8010639858598370e+02 -4.7408678076960769e+00 -5.6626638328737045e-01 1.2246239156737829e+01 -3.1224018181053452e+00 4.1534631045465176e-01 -1.3535868245668316e+03 2.7317872558497811e+00 2.8280577126429307e-01 1.8306663952170766e+01 1.0257265348104738e-01 -7.8644694024387718e-01 -4.9039857941529590e+00 3.8002398880178703e+00 2.4943979438676820e+00 3.8156318956953328e+00 -3.7500365609298569e+00 1.1469752724630098e+00 -3.4209722965978654e+02 -7.7961174804031543e+00 -1.3849478068068493e+00 -1.4676254742327956e+01 -4.4915187144245010e+00 5.3329607937841956e+00 -1.3160267483046664e+03 -2.1206038042865032e+00 -6.5868700573105343e-01 -7.4028728847743878e+01 -6.1955555225495118e-01 2.1679555010769036e-01 -2.3993233886111511e+00 7.0085088755810432e-01 8.2019509457518325e-01 1.3089267851656814e+00 1.5768087065955569e+00 4.4674747831054447e+00 -4.0032626919768336e+02 -1.2639027661150237e-01 -1.3055358745110652e+00 -4.9920310762621853e+01 5.2783944264467664e-01 -1.3281129630074901e+01 2.4435575148064163e+02 1.4116614982995372e+01 2.5915298213793022e+01 -2.2662495359309919e+03 6.9769015643222332e+00 1.0576289348762135e+01 -3.0859009541630442e+01 1.3897890682013028e+01 1.7631723804548244e+01 3.4014574170407741e+00 1.1515521300100528e+02 4.1887382918733351e+00 1.7968765964233153e+03 2.6613357053954161e+00 1.0889164380581974e+01 1.1538273879916721e+03 -2.6611076685311446e+00 -4.2463070129022151e+02 -3.2249823641219882e+02 -1.0451075003128227e+02 -2.2881044013706287e+01 -1.2576546095111962e+02 -1.6592050862958786e+01 2.0216056202819345e+01 -2.2477608839165725e+01 -1.2985540053624220e+01 -7.3262537767209324e-01 6.8997372795934481e+01 6.5019553047698537e+01 -7.6133927149177907e+01 -3.1852323406968057e+03 -1.9986898439052038e+02 1.3757493583789255e+01 -9.9188321812530558e+02 2.0134409544134314e+01 -2.2641598043255131e+03 
      </Row>
      <Row Index="161">
        -1.5494428369414750e+00 -1.7550582887215245e+02 -8.0326060220570694e-01 8.2055201312031767e-01 2.4910766471180516e+01 3.1580815020839337e-01 1.9246136774111295e+00 2.3290292564942900e+00 2.1088155101312029e+00 -1.2715044032717326e+00 -3.7986035609614661e+00 -2.3146663860537506e+00 3.2137833534612442e-02 -1.0707183768386956e+02 -9.7496024467510056e-01 -3.6652573237866126e-01 -1.0129847597576038e+00 4.9319780994911842e+00 -2.2775308546476287e+00 6.5312471371118548e+01 -1.2062943703077178e-01 -4.7004208931914426e-01 -4.7373214453455699e+00 1.7445319366277467e-01 4.2361319561350691e-01 -6.0099583555762193e-01 -1.1819388232045445e+00 2.8760396157568607e-01 -1.5372098648222936e+00 -3.7916487932940834e-01 -3.9066902444276369e-01 -5.1108966765412468e+01 -9.4230875798541935e-01 -7.9957119988198155e-02 -6.0780897966139067e+00 3.9968268373957136e+00 4.4176901753569531e-02 6.6201156951127771e+01 2.8642627218750655e-01 2.4123910529426695e-02 -6.8040952181754122e+00 -6.9775710161872673e-02 -5.3894864590513847e-02 -5.4734688977759460e-02 9.4458116053713292e-02 1.0371665682719855e-02 4.5772484366459459e-01 4.2366506286661099e-01 3.8497939186179241e-02 1.8454356849269860e+01 -1.7666256567210076e-02 -4.8048044349350616e-02 1.7264954153754808e+00 -3.5813830396678858e-01 3.0175385895900741e-01 7.7597890110602734e+01 5.1001204107073406e-01 -3.8717018157443717e-02 -1.4637726873652248e+01 1.9252044060135254e-02 -1.7057734973585337e-01 -1.8370979596227022e-01 9.7387320476351036e-01 8.2139445907591258e-02 4.5191983571208461e-02 4.5868829405691824e-01 2.5271180138023963e-01 1.7128057519958560e+01 1.8475631585496222e-01 -3.1872260597416879e-02 -3.2089518540922204e+00 -1.0504150603342701e+00 -3.2998709267598003e-01 -7.1283744779480003e+01 -5.7108492525993981e-01 -3.0530345606236264e-01 2.2226662286827452e+01 2.9520545775364226e-02 -8.0056358492065915e-01 6.4559493387484701e-01 -2.2435680804326958e+00 1.9287180414618810e+00 4.8664989578423096e-01 -8.6118011490683943e-01 -1.0271573868557315e+00 -2.9388238455695895e+01 1.5653679596566117e+00 2.4712177956753911e+00 -5.2535030990515130e-01 4.3590024356702051e-01 -5.4127535337238797e-02 1.1652055005441292e+02 -4.4272011800895039e-01 -2.1614947907473869e-01 -1.0552823103835762e-01 -1.8386466765999952e-02 -1.3203285191967939e-01 -6.4066924073561515e-02 6.4190558784670548e-01 1.0518574420539961e-01 -5.0443004833275573e-01 4.0241936052394600e-01 1.3444251652416617e-01 -2.3963743595530005e+00 8.1418151531567728e-02 -5.4412412078472694e-02 3.1749970627515149e+00 -2.3588252456259196e-01 1.1567309949722060e-01 1.0511852140678701e+02 -2.1135838079768476e-01 1.1795206825644544e-01 -7.8692683512725008e+00 -2.8855109027820181e-02 -1.1926713634698682e-01 -8.2307045640694687e-02 1.6402521056863129e-02 -3.2179688512848220e-01 2.5135660936349247e-01 -2.6473015068446482e-01 2.9561759487209738e-02 -1.1528674834473833e+01 7.8714677824369139e-02 -4.3141988036318879e-01 -1.1493879994712370e+00 1.4529828690194679e-01 -8.8756852615390902e-02 5.3080675414610809e+01 9.4249901100499051e-02 -7.3334331575980793e-02 6.9873020711561953e+00 1.1452232068940371e-01 3.7279630844719858e-02 -9.3433465074941324e-03 2.5610732315710499e-01 1.6038771735699964e-01 3.4967756087713964e-02 -5.3195475872887865e-02 -3.1935190841863448e-01 -1.2552114458444612e+01 -3.0224587000211897e-02 -7.6212542901577307e-02 6.3856131557332603e+00 -2.8210631266487374e-02 -3.9436202973373509e+00 7.7939464571365100e+00 -1.8841073848441086e+00 5.0103308087922044e-02 2.2396511891088706e+00 4.1811538328631037e-01 1.5684202504776814e+00 2.4118627597561528e+00 -1.0762780926093198e+00 8.7730635350628283e-01 -4.3809878999758718e+00 -3.1238762315437616e+00 -1.3161345255591288e+00 -1.4990177392615391e+02 -4.6474117373376622e-01 1.8761897309798750e+00 -2.6611076634442816e+00 8.6653852906147506e+00 3.2376862673336007e+00 -3.4535225228195770e+01 7.8081220661856179e+00 -5.5884256936408860e-01 -7.4093676883326452e+01 1.4160088194961755e+00 3.1828731284258094e+00 -1.3834677925258714e+00 -1.9969394566198375e+01 -2.5734867453027706e+00 6.3359505151866156e+00 3.8868394439678076e+00 4.7306010183833180e+00 -4.6401743426570008e+01 3.4505784414181528e+00 2.6245858894095750e+00 1.4744262497047936e+02 -1.6485508334145076e+00 -8.1052088304821183e+01 
      </Row>
      <Row Index="162">
        1.1237971118791069e+02 -1.4888780860801780e+03 -2.3027786637513032e+01 -1.4485444020829984e+01 4.6715699591013106e+02 1.1169388608901244e+01 8.5909600763622507e-01 7.6017060224742750e-02 8.4441858603398501e-01 -5.5942122265200567e+00 -2.9188186608320365e+01 2.6207989605735520e+00 -6.1106682869330058e+00 -1.4043727185477519e+03 -5.8768955155215057e+00 -5.0814992679524096e-01 -1.9582519652519102e+02 -1.3036506705998548e+01 -7.4755011775524068e+01 1.9750504809865342e+03 1.3323242744836776e+01 -6.6649541111892621e+00 2.3486361378943073e+01 -1.8775893716829231e+00 -3.8086916854206549e+00 -3.0255075698535876e+00 -5.6638335034442875e+00 1.7618337242952009e+00 1.5243306210780855e+01 -2.4363790294576003e+01 2.9180944482772091e+00 8.4525602920353009e+01 -2.5139160333371784e+00 -8.3526192618286217e+00 -5.4519664561212458e+01 -4.1147216181582156e+00 -1.4165547541257297e+01 -2.3267876929072190e+02 5.1441367431259231e+00 1.8699167549826257e-01 4.8888620513071174e+01 1.7409349040661937e-02 -1.0650769338413966e+00 2.0885625293465182e-01 8.0874137496528675e-01 6.6880542905005314e-01 1.8594400735244960e+00 -2.7825052333402027e+00 -2.8958073650474958e-01 -3.9640951601754466e+01 -3.3530002824027605e-01 1.5454992207082796e-01 -2.2361112441787149e+01 -4.2537968029739943e+00 -5.6533767046376511e+00 -1.7918097165089494e+03 7.4610221284862916e+00 2.0473773956451566e+00 9.1647386056803157e+01 -8.4913046747908538e-01 1.4138983476639737e+00 -5.2600083364603734e-01 -5.7951520778776455e-01 -5.9614289617686040e+00 6.7648583227446579e-01 -3.0840552353619728e+00 -1.0741006572301330e+00 -4.1567967635266041e+02 1.0531225636339059e+00 2.1608236414261057e+00 -2.7493074564108611e+00 3.0710577204484579e+00 -3.9827703724087392e+01 1.3122467415702681e+03 -9.3503539415129708e+00 5.5024797980776849e+00 5.9292338809398082e+01 -1.3242612470600097e+01 -2.9719562967686208e+00 1.5975793590756126e+01 -6.2888444310926239e+00 -5.5042781302718495e+00 1.5702090721516171e+01 -2.4309602155756664e+01 3.5547760959252059e+00 2.2389821675420691e+02 -2.4299877377896744e+00 8.2179792740261774e+00 -7.7134141592109657e+01 2.8176512959436621e+01 -6.0941637950542258e+01 7.0421904747412427e+03 1.3244567595376751e+00 1.0582724973247082e+00 -3.9183470504683788e+02 -1.6306314216584017e-01 -1.0665507739136046e+00 1.0871485781568424e+00 -8.0567200779021064e-01 -4.4222844167829862e+00 4.0166761770383346e+00 -5.5633223437994630e+00 8.1579927754695802e-02 7.5602237345588992e+02 1.1298893557116827e+00 -1.1934794724485585e+00 1.2587077664607136e+01 3.1605509055785888e+00 -4.8897519440781707e+00 1.0618426159092724e+03 -4.8655459360595330e+00 -8.5287855596715190e-01 -3.1857337198551249e+01 7.1316714734575726e-01 7.5633928919751270e-01 4.0658290022918209e-02 1.6343843723123541e-01 2.1039020449224495e+00 4.0985716774716821e+00 -1.1919769751496574e+00 -2.9619970554875863e-01 8.0518585958003314e+01 3.5052155661069406e+00 -1.5499769162592543e+00 7.9052553165591348e+00 8.7667465201429877e+00 -1.1980740289028574e+01 4.6353390836648305e+02 1.8093975828392246e+00 6.7552876468920431e-01 2.8113482044172997e+01 1.2410816480075937e-01 1.0013358767957925e+00 -6.9193773298684391e-01 1.4620718554063217e-02 -1.7315106695205031e+00 -1.1682103408969624e-01 5.3491040767095797e+00 -4.6817259302656566e-01 3.8739878716385510e+02 1.0881031276826185e+00 1.1154751201191289e+00 2.7209851158918923e+01 -4.4573290652047604e-01 7.8619333921788481e+00 2.8425074351737749e+01 -2.1016923343030072e+01 -1.4666531953272802e+01 5.7157902218374340e+02 -2.8674462262494131e+00 -5.6655595656023126e+00 1.2569102441547887e+01 -1.1351355575926478e+01 -9.7294100826232324e+00 8.3259149516928233e-01 -4.4573078443701107e+01 1.0582295553064611e+00 -1.0291441581804472e+03 -9.8488449356667100e+00 -9.1628034522861412e-01 -4.2463070093026545e+02 3.2376862684279786e+00 9.1184265843578919e+02 1.3261016227887453e+02 1.5125835737971130e+02 2.5165098745521504e+01 2.7446635467782210e+02 -4.5293719462592890e+00 -4.3611722332953946e+01 -9.4776825038468147e+00 -1.5032562186995477e+00 6.7609802233304123e+01 1.5734429395974413e+01 1.0121053684531944e+01 7.5772437915384216e+00 1.6733047662675676e+02 4.6899219520463930e+01 1.6711294667655352e+01 4.7347283242392314e+02 -6.2628238036993935e+01 -2.5894328696846230e+02 
      </Row>
      <Row Index="163">
        6.2650394919609710e+01 -2.2616840299007497e+04 -5.8791988206643254e+01 -4.4113706575318758e+01 2.1488517031883566e+02 2.0736637536590365e+01 1.0385955124854718e+01 -9.4819110888865680e+01 3.1772245892818773e-01 -5.0358494674757992e+01 -7.3724104915125736e+01 -1.6738109413726306e+01 -2.2635322277580030e+01 1.2408580288287494e+03 3.7337442889711710e+01 -2.4576453830238279e+01 4.4408416653257581e+02 4.7635187109758476e+01 1.2689188128962775e+02 -6.2919255011308633e+04 -6.8541105507371753e+01 -3.6120409205259818e+01 5.5552127723804733e+02 -4.5917156816417304e+01 -7.8335239599673514e+00 4.7536390072306972e+01 5.3451285481218548e+01 2.4264401004956653e+01 -8.4203861595507419e+01 1.4275705352866635e+02 -1.5608371365878327e+01 1.5252578529602484e+04 4.8341477275974057e+01 3.2886928786159615e+01 -4.2779242630913643e+01 -6.1310036172848086e+01 -1.8538569685941752e+01 4.5515980129407806e+04 3.6218144130254473e+00 -7.2110520788930899e+00 7.6322483333445143e+02 -3.8069994459965528e+00 -1.6074429636176433e+00 -7.0659095758480817e-01 5.8360772381898869e+00 1.1734599325664703e+01 -1.2272258974669512e+00 -3.3763733754528857e+00 -1.8226468676789693e+00 3.3361696236585976e+03 6.4399904163274186e+00 1.7684559768513282e+00 6.3662790597854439e+01 7.7449654897841356e+00 -8.7794907420570780e+00 -4.7485935442160189e+04 2.6692239942196693e+01 2.1321616108136595e+01 4.8017240276542643e+03 2.6946566177956356e+01 -6.3694672062479185e-01 -1.3993612533397481e+01 -1.2426320874334465e+01 -1.2278975059783306e+01 2.1629719741438748e+01 7.8887715076316454e+00 2.0588584456368608e+01 3.4464371677384333e+03 -1.6034846648279427e+01 -3.1632562072313704e+00 9.0342108527992195e+02 5.0624638397889044e+00 -1.8457901026975719e+01 -5.1317117025275671e+04 9.9567075178192340e+01 -4.8324726956934683e+00 2.7460350782895807e+03 1.0084967649331247e+01 -7.7274177221777336e+00 6.1210095800229965e+01 -2.0551027842718270e+01 -5.5861162658348121e+01 1.0407076703020186e+02 -8.4340938946188089e+01 5.0960033012850204e+01 1.0377514542250505e+04 -1.3196129932160909e+02 3.0100655605476504e+01 -1.0274597232122524e+03 -4.3433154684048077e+01 -6.6275072504440686e+00 -3.2383270949040016e+03 2.1900621421573817e+01 1.3965645188731969e+01 -1.5246977167435207e+03 7.8550527653111573e+00 -7.9139233912428608e-03 1.2686050795849269e+01 -7.3569647810328149e+00 1.2276907217083135e+01 -7.5743595591711710e-01 -6.3242474983113652e+00 4.8651361317471924e+00 -8.1630754207101563e+02 -2.0010081308890904e+01 -5.1174363943698609e+00 -4.4810763276862235e+02 -4.9668303956232194e+00 -4.4123954560454877e+00 1.0447649850546129e+05 -3.3312908215309562e+00 -1.2416504679029913e+01 1.5632606882387327e+03 -1.2754449230860700e+00 -9.1987938409374692e-01 -1.2572709610039510e+01 6.6885353672350902e+00 1.6515001988879135e+01 1.8842460829007905e+01 1.2772309118491648e+01 1.0237391441412456e+00 2.1420659355266980e+03 -2.9169749817341881e+01 1.4819902655026453e+00 2.9556711001147187e+02 -2.8696903485421444e+01 6.0634933685282704e+00 -1.6294673374239443e+04 2.3674839744041378e+00 1.7101217517324585e+00 -3.6428248907576817e+03 2.3702921186263211e+01 -1.4268932176778435e+00 1.0797694813193175e+01 5.8733776860341891e+00 -9.4981830446790809e+00 3.7367527367573530e+00 -2.9617291761780507e+01 -3.4078582841716980e+01 3.5848166867180626e+03 -5.3915577571970630e-01 1.7519616481520188e+00 -7.8840129588479931e+02 -4.2699157197034765e-01 1.5148559365042456e+02 -1.9040814009316127e+03 -2.9759715654042282e+01 -7.9550071224591477e+01 -4.5825375194960161e+03 -1.8347144785609373e+01 -4.8045893969404929e+00 1.4419235601225864e+01 3.0853177680492209e+01 -7.7718660809500989e+01 -5.3942335690855998e+01 3.1039066940201494e+01 3.6292015304030656e-01 3.1814188266722795e+03 -3.4985197100646644e+01 3.5364820061577348e+01 -3.2249822732906341e+02 -3.4535225645611035e+01 1.3261016046531859e+02 9.4288520781176083e+05 -1.8948776554897995e+02 2.2603088298388366e+02 -1.0896471510993887e+05 3.3067484115148545e+02 -2.9307651317015370e+01 -1.2980479409356462e+02 -1.6882641160212268e+02 4.2111133336640114e+02 2.5802175775915748e+02 -3.4176265211420150e+02 5.3181140362322185e+02 6.7242340575244511e+04 -8.2449408978902829e+02 2.1994512310103346e+01 -2.6003442989470655e+04 1.5366339408891940e+02 -9.4870783450134550e+03 
      </Row>
      <Row Index="164">
        3.5945126893813132e+01 -1.1373227433977986e+03 -2.8836056085331581e+01 -1.2169928742723865e+01 1.6425530350256960e+02 2.0892179648854965e+00 -5.0096861995338902e+00 5.7757400738469373e+00 -4.0059463658009697e+00 5.7655930310804782e-01 1.3181272586530868e+01 -1.5515643288756914e+01 -6.0884455254037508e+00 -1.5207064835361891e+02 7.2417072989896853e+00 1.3143313926606872e+01 -1.6294984120700522e+02 -3.2708241381855547e+00 -1.1605760623620013e+01 -8.1286995054649947e+02 6.9334574306127067e+01 -2.3453774267146819e+00 2.6132258251635443e+02 -7.4974686390438432e+00 6.0716793261971551e+00 1.0492400324045869e+01 -8.6848607825758006e-01 -2.0278378517684253e+01 7.2103720579381099e+00 -1.6124578496635934e+01 -5.5621536445824349e+00 -6.7118770145564292e+02 -4.8617180939155240e+00 1.5721401210659769e-01 -1.9523979124890559e+02 7.3968561401423534e+00 -4.1800549450323210e+00 -6.6523165931069536e+02 1.1205574616038849e+01 -7.1645337111406071e-01 5.2501465708991091e+01 -4.5416932925557063e-01 -5.1751195874516975e-01 1.8665467271586955e+00 -1.4208375966575555e+00 -5.7672947408298567e+00 -6.3338162713541379e-01 4.6557868889616474e+00 -5.8554680462506614e-01 -2.6082324123861315e+02 -7.4340242217772101e-01 4.6075527828211404e-01 1.1331475017705001e+01 -3.6749784536721322e+00 -4.0011314385227505e+00 -7.2093376381903317e+02 2.1571238761108624e+01 5.7472913997910546e-01 1.5133516230571445e+01 2.6487893146575097e+00 1.6234603330954589e-01 -2.9209284761241840e+00 -1.7982590359053938e+00 8.6687201497966360e+00 1.7295955510387131e+00 6.7269694130809041e+00 4.7382790957033372e+00 -1.0112141233566745e+03 6.5572025696846747e-01 4.9188713946377742e+00 3.8438168584516376e+01 2.3157028388486633e+00 -1.0876685099358404e+01 5.2938178092177532e+02 -4.0837939444970583e+00 7.6249123381658110e+00 -9.4699874569168131e+01 9.2396721335349330e-01 -9.3983465797930976e-01 -5.0239350057673118e+00 9.0057123667943451e+00 2.7287987118498336e+01 -1.2405785878454045e+01 2.8662587793122086e+01 6.5065225853731379e+00 -1.8709914986757278e+02 -5.5248547317834324e+00 -4.8389350699731315e+00 1.4806491718682449e+02 8.8326680344244224e+00 -3.9989283571615211e+00 -5.5175979946413713e+02 -4.3082985841824026e+01 2.1245015246222660e+00 -3.3983362677155187e+00 1.5629131817140589e+00 -2.2856823951659067e-01 1.1419211596153995e+00 1.6364984926742916e+00 2.4831519222695650e+00 -1.2790852388509073e+00 7.5888238962319554e-01 -1.1594370641552032e-01 8.0199758822026047e+02 2.8257742338632763e-01 -1.6602495421585850e-01 -1.1551592721028948e+01 3.9082322116415895e+00 4.3390467188995023e+00 -2.3610000994290067e+03 -1.5698671082399660e+01 1.9305245184134274e+00 1.6910470729853313e+02 -4.0407904067981626e-01 2.6861446011245835e+00 2.8706618138176827e+00 -1.5920154084119309e+00 -8.1359119168733116e+00 8.2150357193035717e-01 -4.4696674691952696e+00 -9.6704490513147423e-01 4.1769938724210573e+02 -1.0652013586935249e+00 -4.1404755008377947e+00 -3.1742445939902421e+01 6.0771172147056660e+00 -7.2697548063795816e+00 -1.4136018895851732e+03 1.2113428239846339e+01 -1.9855713101785311e-01 9.4419100461275320e+00 1.1650128571938034e+00 7.2223260942312173e-01 -1.7918469309019756e+00 1.1542003422739551e+00 6.1244686602015674e+00 1.1730145147735951e+00 8.5309069415941430e+00 -4.1299092557090562e+00 4.1956081289638405e+01 9.1353887022612990e-02 1.5557962989456100e+00 7.5016286617210014e+01 -5.9061823486728526e-01 1.3310982190963799e+01 7.4470962444367757e+01 -9.1764255699902386e-01 -6.1052716144921888e+00 8.2925156007821315e+00 -4.7375208369029753e+00 2.5373049775978873e-01 1.1200590487361533e+01 4.3632035772043336e+00 6.4584370208475308e+00 7.7712243314050449e+00 -3.1531949155651884e-01 -6.2818915122428631e+00 -4.4710974807228530e+02 -1.5614710946369228e+00 7.8368238369167385e+00 -1.0451075006913393e+02 7.8081220588232654e+00 1.5125835737565185e+02 -1.8948776728602573e+02 9.7630164845911463e+02 2.9376120618479312e+01 -3.6360244988884460e+00 2.9133892700908358e+01 -3.5068588105717076e+01 6.7991202046245203e-01 3.5894756272564599e+01 -1.8474013268880373e+02 3.5894825976420627e+01 1.1853028141856825e+02 7.5776057252118960e+01 -7.5896137950273982e+01 -4.0100082514900407e+01 4.2661801714493684e+01 6.7875562540235308e+02 -6.0416810477715700e+01 -8.6018382540134303e+02 
      </Row>
      <Row Index="165">
        3.8826408232827601e+00 -1.8088224463437655e+01 3.1963416355086807e+00 -1.7164346270222332e+01 -6.8867346285381231e+01 -1.9407811284430112e+00 1.8828546484961719e+00 -1.3934783332266115e+01 2.3369201274035385e+00 1.2754655265715498e+00 1.5742477283015397e+01 1.1061244805555280e+01 1.7801778297181796e+00 1.6496548607144936e+02 1.9152129018569983e+00 1.8101014262289521e+00 6.8630397602561274e+01 -1.9801923832771737e+00 -3.9578090117906255e+00 3.5704513662365065e+02 3.3005591152718217e+00 6.9788596893908510e+00 8.1200495022518211e+01 1.4418578417604289e+00 -3.4677015140213796e+00 1.4737010643782924e+01 1.5959531091144679e+00 1.0614201705765240e+01 8.3509662678679124e+00 3.3371437661723471e+00 -3.0080307031634321e+00 -1.8333292937970850e+02 -1.8779056856306262e+00 1.2242133831972355e+00 -3.8641910107557642e+01 -2.3505910779278425e+00 -2.5149781171934986e+00 -2.8796545258102026e+02 -1.0053219405452740e+00 -1.1531409678861307e+01 2.8797225138000286e+01 -9.5818428885130480e-02 -1.3810037607799108e-01 -1.3547282991521037e+00 -3.5765259736608535e-01 1.1995922361683196e+00 -7.1712370334675146e-01 -7.7457345722656434e-01 1.7295034838656287e-01 -5.7875325584754506e+01 -4.3957562685412421e-01 6.8765264046687324e-01 6.8076000042742546e+00 -1.9231694679358542e+00 1.0753573887573378e+00 1.4534328051915895e+02 6.3665558667303745e-01 7.1836871014253054e+00 2.5382577713300289e+01 -9.3514492897665669e-02 8.6462277538107024e-01 -1.4499273932244090e+01 -5.6303175944902861e-03 -9.8788217918303971e+00 -9.3798996781778854e-01 -1.3498409940217480e+00 2.9078444668287240e-01 4.2149673841566084e+00 4.0519675451461090e-01 3.7861744936064401e-01 1.4801019181927039e+01 1.8633042929394337e+00 2.0475065547704485e-01 9.4560201243480236e+01 -3.5513387870878690e+00 2.7048392949436950e+00 2.0570442334996546e+01 -2.0010355644506239e-01 2.0961734602291404e-01 -2.6600380016257262e+01 -2.5938537447230949e+00 -8.1648117038679686e+00 -2.7875301333232834e+00 -6.0377602812351512e+00 -2.4382006924585546e+00 1.8839304884472035e+01 5.3689780271597842e-01 -2.5216717404730011e+00 -4.3555412494138338e+01 4.4071462002074080e+00 -2.1448856619293188e+00 4.2651363094642886e+02 -1.4583300163718211e+00 1.9165173764001038e+00 -3.1735834950044612e+01 9.6802743486068266e-02 3.4753242300276810e-01 8.6806931478397278e+00 2.9191213624318424e-01 2.1743103111464706e+00 -2.2016620249453922e-01 -5.6475239893423979e-01 1.5071976864012360e-01 -1.1352498004171991e+00 5.9269473919849602e-01 2.0395248076836392e-01 -4.7273635469134163e+00 8.2417193900239738e-01 -4.5000536865475382e-01 -1.1938270622993700e+03 -1.6155804310130506e-01 -4.6075385250853813e+00 9.9752662765524093e+01 2.2434208223162244e-01 3.8945379735100616e-01 -9.7002978402338034e+00 -7.4713941086882230e-02 3.1892111097317599e+00 1.9310075003387794e-01 1.9539488286297662e+00 -1.6971914999866478e-01 -3.5251698760446885e+01 -2.9517847098107319e-01 -2.5538061589537673e+00 -1.6164744993539539e+00 -9.7034787551837809e-02 -8.7854730545824822e-02 -4.5849004989657323e+02 8.9403241091758368e-01 8.3670633137776598e+00 -1.9104585389975121e+01 3.7027964734779939e-01 3.1962993714886956e-01 -1.4610223839377880e+00 4.3855460789895773e-01 -3.9541237706048626e+00 -9.7085445731235787e-01 -3.9919107528238840e+00 -7.4887019707175106e-01 1.4678897305447578e+02 5.2746233577147272e-01 -1.3409532225093468e-01 -1.8061734175726762e+01 8.8524807440045716e-01 -7.9071694084011579e-01 -7.4036259451144957e+01 2.0544992359680241e+00 -6.6029164728313887e+00 2.2332290094047970e+01 -8.7800725128647628e-01 -1.3206758232787144e+00 -2.0274649586815958e+01 1.3427107181810132e+00 5.1378157328900897e-01 2.0795218318963823e+01 7.9190624905271685e+00 -3.0829252850360276e+00 -6.3289775429954318e+00 5.6417145400790947e-01 5.3548451427614374e-01 -2.2881044049866006e+01 -5.5884256962982448e-01 2.5165098761766775e+01 2.2603088215831647e+02 2.9376120636916117e+01 2.6736588705896582e+02 5.5940639073239720e+02 5.8895752204284690e-01 -4.7386747910586724e+00 -1.4623716264673996e+02 -1.6855138157671377e+01 1.3471163708931053e+02 -1.2833065187869312e+01 -4.4867761431708139e+01 5.9238508318955780e+00 3.9692778160598283e+02 1.4294272540081181e+01 1.6347523476663238e+01 -4.6886721504848038e+02 -8.6964352971750714e+00 2.1519972371877827e+01 
      </Row>
      <Row Index="166">
        1.9587845989326019e+02 -3.7506914848132292e+04 -1.1305531509103631e+02 1.9982283361415938e+01 6.6287934798504557e+03 5.0803587945532627e+01 4.4507772087463991e+01 6.9105385931410865e+01 1.1005784454594209e+02 -8.0521264104151669e+01 -2.7097345818025588e+02 -1.8752350838010989e+02 -4.9801326521221995e+01 6.0598301688208003e+03 8.2800046382521515e+01 3.6373975289863438e+01 2.6814384497183109e+03 6.4123859879989595e+01 1.7181570611851333e+02 -9.5144855656342464e+04 -1.3259135260062749e+00 6.4555577967120541e+01 8.6274322915343837e+03 -1.6778069714810800e+02 -1.0509135370242461e+01 1.0841447116129660e+02 8.8111738810491033e+01 -4.6531061064450910e+01 -5.1131450368366757e+01 8.5634778084473623e+01 6.6492375847804112e+01 4.3865230266940736e+04 7.0798324994498785e+01 7.8912439313591676e+01 8.9949938261191437e+02 -1.2272724365849817e+02 -2.4953148390759566e+01 -6.9676220160935773e+04 1.0219137896463081e+01 -1.8532226369164505e+01 -2.7676974574995388e+03 -1.1557646247520552e+01 -7.8900197717945275e+00 -8.7574648912891462e-02 8.3952010148639715e+00 -9.7892299587382468e+00 -4.5022556880576303e-01 6.4395440843814413e+01 -2.8539420271624465e+00 4.5624609740013939e+03 1.5627120804445553e+01 8.3060896366007455e+00 -3.0992930215650574e+02 2.4324527222391453e+01 -2.0485284632422008e+01 -9.2901774284015846e+04 3.9550236692858562e+01 -5.6874654651505807e-01 -4.3781067748040664e+02 5.3440470540282149e+01 -7.9016443648624772e+00 -4.6986804732613564e+01 -3.8258222486165323e+00 -3.0716529596377995e+01 4.5211585686602120e+01 -1.0234716695817337e+02 4.8842840286386945e+01 1.6401978339569614e+03 -1.1413120575722360e+01 -7.5131480850457137e+00 3.8572389879347484e+03 1.9836650345808948e+00 7.1253208698524304e+00 -1.8502066290008294e+05 9.0819937185731874e+01 -1.7990036576928023e+02 -2.5366282194863768e+04 2.2134919359172613e+01 9.3380295883028168e+00 -1.3479812513680076e+02 -1.7376078910496744e+02 -1.8589019103019837e+02 -6.8138074769433388e-01 1.2518193659262806e+00 5.7777989453570399e+01 4.9900941169806929e+03 -3.3477896674282601e+02 -1.8592950950613999e+02 -3.2558828247391448e+03 -7.8205428887907374e+01 -2.8352490733160266e+01 7.6621893909552382e+03 3.1736953821920906e+01 2.3767376213617126e+01 -2.4547262349644907e+03 1.6360432444770140e+01 1.2037287461851520e+01 1.3201416813701144e+01 -7.8664960836303521e+00 2.7116716763148361e+00 4.4140376880618533e+00 1.2233796843218215e+01 6.1330730931797461e+00 -4.1554602329014597e+02 -4.5965193149049810e+00 -1.1595428864809946e+01 -1.2460090007743729e+03 -1.7243413710615641e+01 2.4056342932268308e+01 -5.7283555495247419e+03 -2.5246054111233207e+01 3.8164975163763302e+00 5.6696427279856944e+03 -1.0200305366826797e+01 -1.5764225071851797e+01 8.4807608023193097e+00 1.9362314687286926e+00 5.3298772044291013e+01 6.8827636793452257e+01 -3.0542061874704814e+01 1.1914359679904010e+00 9.5948101686434456e+03 -1.5825061552627972e+01 1.6483902121441133e+01 9.9752397516040492e+02 -8.5568549017857549e+01 -6.6166122495044419e+00 6.2773531071479156e+04 -4.0662229684767226e-01 9.5190180406652871e+00 1.0803914613607130e+04 5.3377618879422698e+01 -1.2163885022972408e+01 1.9362007604502196e+01 1.9191835397901457e+01 -3.6162403050023386e+01 2.3748715726641876e+01 1.0258937917859703e+02 -5.4558822201818657e+01 2.0941489421312446e+04 4.7654726486549066e+00 1.1333478771218552e+01 -4.3064020502351468e+03 -6.3396224087030077e+00 3.5946359487203586e+02 3.0771116493435693e+02 -4.2763921221743203e+01 -8.8030479707149311e+01 -6.4131694430513871e+03 -1.0444994271974639e+02 3.7486434907762700e+01 4.5676401099455546e+01 2.8438593093393280e+01 -3.0958479258646435e+02 -3.2189701803640514e+02 -1.0600083605126767e+02 5.3799888190876004e+01 6.5029185464605889e+03 -1.4888961159500298e+02 -5.8311523839203801e+01 -1.2576548547254379e+02 -7.4093676498692957e+01 2.7446637172219744e+02 -1.0896471620536837e+05 -3.6360220848462177e+00 5.5940638738917369e+02 5.8896383869350376e+05 6.3732724332383805e+02 -2.4841023529528684e+01 -1.5562778399553122e+02 -5.6147493843364941e+02 1.0742724152023138e+03 6.3494859197521669e+02 1.1528664586431773e+03 9.6433597562915384e+02 2.3476950170329947e+05 -4.9729602566536778e+02 1.3769396758289076e-01 -1.0633794952498477e+05 4.8498944886597565e+02 -3.3697981068774243e+04 
      </Row>
      <Row Index="167">
        -1.6834986525010776e+00 -5.9847631458998102e+01 1.4614784369558489e+00 -2.7210860452412691e+00 3.2554319698929717e+01 3.8642440278171843e+00 -4.6936239022252524e-01 -4.2834234658144457e+00 2.1631880204524019e+00 1.2856689417551910e+00 -9.8831487445017352e-02 -1.5825797096584928e+00 -2.3577429890660451e+00 1.2040287998949015e+01 5.4401396072514818e-03 -2.2922483660317066e+00 1.3208233417974471e+01 -3.2535049484878886e-01 2.3296298564141460e+00 4.9678147291448727e+02 1.4314937986427689e-01 2.9375189812838549e+00 5.6513737082298981e+01 -1.3057588622191627e+01 2.1196862698435108e+00 2.3147717703646387e+00 -7.2359270830675992e-01 -2.4768054779292363e+00 -1.3124675006183728e+00 -7.1766745933580225e+00 -1.0331376903893092e+00 1.5731331569285459e+02 -2.6498564398580748e-01 -7.4782686485668659e-01 -3.2608613850133715e+01 1.2983965806804361e+00 -1.1024568235523802e-01 -2.6473958050767521e+01 3.7025064801517199e-01 1.3448828387283096e-01 1.2333672380087945e+01 -7.7292760529776849e-01 -1.3511681778208329e-01 9.6531622305384124e-01 4.0803354865837271e-01 3.4457544087453984e-01 -6.7759704880057225e-01 -6.6564614619576901e-01 -3.0185030859959505e-01 1.3018435672117985e+01 -1.0535899070147681e-01 2.0742464849786657e-01 2.7304873096985376e+00 -4.3072060693281067e-02 -1.2770053538044630e+00 3.0725800858261437e+01 9.4430180435546873e-01 -1.5827166331274802e+00 -1.7936796987444801e+00 5.8482550800791202e+00 3.9561240214005977e-02 7.4508718397201967e-02 6.6457979648884757e-01 4.2183176807413059e-01 -7.1892657923128311e-01 6.4841752173634104e+00 3.6630988840559491e+00 -4.3511191693995485e+01 -3.5752583926071235e-01 9.4082060271358259e-01 1.1941284264554653e+01 -4.7856780022430623e-01 1.3446048166873561e+00 4.1024877008518621e+02 -1.6783341059934076e+00 -2.0059438309693371e+00 -1.1545292714501239e+01 9.8591684146900391e+00 -2.6123723378188135e-02 -5.2643867385395327e-01 -1.4490528395519071e+00 5.0366295286677865e-01 5.2152593538346226e-02 6.5525018186762045e+00 6.8324869443620067e+00 3.0978560634228725e+01 -4.9235729477286849e-01 3.9872296600228707e+00 -5.1768241643305100e+00 3.2980548584232494e-01 1.2954849361889487e-01 -4.0888405521706659e+01 -1.0767623412952676e+00 -4.6923801467966042e-01 -3.3024672802506432e+00 4.7715408078040000e-01 -6.2829279209772437e-02 -1.0015201223438988e+00 3.8560613881357564e-01 1.1050258678336213e+00 -2.8578558245126651e-01 1.2339092199336539e+00 1.5962625490618394e+00 7.6620889656212086e+00 -2.7894378231269856e-01 8.7285734303312434e-02 -1.4748667218997973e+00 -3.2101245466236961e-01 -7.2178225450819866e-02 -1.7704048041695052e+02 -1.0369965005555413e+00 -3.0583783988694169e-01 3.0733993382882677e+01 6.2755834523428788e-01 3.8901740363051474e-01 1.3036156515855293e+00 -5.3084189063404796e-01 3.1329249357162148e-01 1.2803345199408511e-02 1.2411087217340615e+00 -6.6700893578159270e-01 1.0524862942117608e+01 -1.7821933029165526e-01 -1.6271028363197857e+00 6.0280771304794776e+00 2.5178243431877689e-02 -9.5144858807335808e-01 -2.8692668763114466e+02 3.6334915296397563e-01 -2.2148571737147638e-01 2.0921063299559091e+01 6.0449872018814652e+00 -4.7944814534655933e-02 -3.5526977541140958e-01 2.4970639361989300e-01 -4.0045466936485674e-01 -3.9351880966717623e-01 1.9898533669134144e+00 -4.2900672654038781e+00 6.3043949798904663e+01 -2.1311442784229007e-01 -3.0801245075309502e-01 2.7431762799234964e+01 1.2007006784461183e-01 1.3720440007285191e+00 3.4204831726913596e+01 -8.7431746348966444e-01 -1.6900714513838091e+00 1.4388487924441705e+01 -4.6418123925306887e-01 1.4923024254704518e+00 -2.8509923232104875e+00 -2.0640231704584727e-01 -6.4575823050891756e-01 -1.7261515890727368e+00 -3.3073083013743316e+00 1.9612466741232337e+00 -8.0312161267968634e+00 -6.1017895000251110e-01 3.9189525913701395e-01 -1.6592050926163175e+01 1.4160088194311413e+00 -4.5293719090913456e+00 3.3067484010570769e+02 2.9133892701316903e+01 5.8895751724276657e-01 6.3732724601775089e+02 8.0336990778198043e+01 -3.5037257490260512e+00 1.5148883142542015e+01 -2.8580690450897904e+01 1.3760287625808127e+01 4.1522222195071716e+00 -1.4722655820372411e+01 8.1669257726938866e+01 9.5016036530202337e+02 -8.4532796165888442e+00 1.0490846386071581e+01 6.5703539053974140e+01 -1.4798658947742833e+00 -5.7663133707661729e+01 
      </Row>
      <Row Index="168">
        -9.2139052912773725e+00 -3.3959025139485789e+02 -2.5292043129011805e+00 5.1185281443583177e+00 -5.2260563925813628e+01 -3.0046698150519440e+00 1.1938424279789279e+01 2.1142624875274688e+01 2.4418542403306525e+00 -1.8897895746052740e-01 3.7983048193579307e+00 4.7196186309214490e+00 3.4927774893612078e+00 5.8848614417874288e+01 -4.1622519090775816e+00 -1.1922621914972211e+00 4.4159152240109876e+01 -5.5965137798386877e-01 1.2117416383537547e+01 7.9647639355144449e+01 -3.0022309103159124e+00 2.1196105990591896e-01 -1.7197917728906612e+02 -2.0971029144924103e-01 -2.4289879860989863e+01 2.5378707114706147e+00 6.5928569553305838e-01 -6.7623312820551718e-01 -2.1490574340673014e+01 5.2162228347575255e+00 2.2150943307110813e+00 1.6572976578865087e+02 -3.9191451118022078e+00 -5.5778465980512593e-01 4.5614981605054126e+01 1.5666462710200912e+00 1.6950141314594980e+00 2.9353916670319131e+02 -2.3440425413182586e-01 1.8647263003356329e-01 -1.7600303503050611e+01 -5.8113590986565100e-02 3.3735443009073554e+00 -1.2592812156902440e+00 -6.3010179658274268e-02 -3.7845343474238469e-01 3.7952517900321183e+00 -1.5198023192582468e+00 -2.0732208901093951e-02 5.2857913560933838e+00 -5.4007363347645043e-01 -4.6887087776408976e-01 -4.7744336816073716e+00 1.6150620745694475e+00 -1.5170458982766917e+00 -3.2826993008888030e+02 -1.6015768490754603e+00 -1.0594131082890712e+00 1.0180023285615113e+02 2.4989590403394146e-01 -4.0564423683878914e+00 -1.2169348932402215e+00 -2.6004988547643748e-01 8.6692047511064629e-01 7.1813479158541327e-01 8.0931601575382217e-01 -8.0858232151733489e-01 -9.3772095599368640e+01 5.5076419391326681e-02 -5.2568468449003092e-02 -2.1400341053568255e+00 -8.3254756294338605e-01 -1.4689199791569862e+00 -1.2869624922623166e+02 7.5204106197372766e-01 -2.2770424064579489e+00 1.1845913669467905e+02 3.3382798079986697e+00 1.5314354007431728e+01 -3.5271059566087359e+00 -5.4184502051080381e+00 -1.6649826603194349e+00 -4.5692542459596339e+00 -5.0310245761710046e+00 -4.0692161402432472e+00 -3.1053730107948110e+02 1.1323923718252949e+01 -4.9933354053202894e+00 -6.8244460220196032e+01 6.3279621491152938e-01 1.4117869172463600e+00 -2.4146692818757731e+02 -3.2624840412463740e-01 3.7579542981237068e-01 2.3291354680716978e+00 -1.7452754473733623e-01 -4.6077741879611267e+00 8.2128908583614191e-01 -2.1419999133573508e-01 -3.3395081049081909e-01 -8.0827052475582093e+00 2.8689219892168616e-01 -5.2799997925212772e-01 -1.3228094895551180e+01 1.4276839213080592e+00 1.0116155791184376e+00 -3.9168537888274102e+00 -1.2164349618132491e+00 1.6204186567848069e+00 -1.8746365199448610e+02 4.3051143917805490e-01 -7.7477257753208306e-01 1.2788055716175677e+00 1.1379092596740747e-01 -7.6422950531298994e+00 -1.4843119785231096e+00 7.0697251275046114e-01 1.4540436720757786e+00 2.1209439822072795e+00 2.4692170575377759e-01 1.9452550901034726e-01 -7.0144538392612503e+00 1.1280843120216026e+00 8.7926811892540968e-01 -3.6680801990976164e+00 -3.1979098194340949e+00 1.0648345058475321e+00 -4.5241913571072769e+02 -7.8468264691111322e-01 2.4360102858712906e-01 -4.2448711161050028e+00 -3.0796739241995397e-01 -1.9360378566551475e+00 1.0025553072017388e+00 3.8461487612917011e-02 1.2240217229241921e+00 6.6194979378665408e-01 -3.5305698324418699e+00 1.0145273312614052e+00 -4.7697554879312634e+00 -3.6063645082291362e-01 -4.2480522734401660e-01 -3.2719426221154670e+01 5.4225971032857956e-01 1.2335434490995070e+00 4.0579609024017145e+01 -3.7836838849611247e+00 3.6821417902661633e+00 -1.2639141513175296e+02 -1.2842298890918080e-01 4.7307179473233916e+00 2.1154351707996085e+01 -2.0453883859995585e+00 -3.0085080779155184e+00 -1.4145550891971464e+01 4.3286548080574940e+00 1.4634015773120730e+00 9.4856981049686055e+00 2.4550943514589667e+00 -6.5492442858981548e+00 2.0216056217082667e+01 3.1828731277195814e+00 -4.3611722358961032e+01 -2.9307649913484408e+01 -3.5068588103609045e+01 -4.7386747781431495e+00 -2.4841021275707277e+01 -3.5037257380561755e+00 1.8079815909438247e+02 -7.0589119525755262e+00 -3.9856282463707089e+00 8.2086219514667889e+00 1.5628129260396105e+02 -3.4416513415950760e+01 -1.8340374079760068e+01 -5.6550193465429732e+02 4.6014428063708863e+01 -2.4169166308774663e+00 -4.4913307957620384e+02 2.5385564264916091e+01 -2.0588948397763465e+02 
      </Row>
      <Row Index="169">
        -4.3610326953820167e+00 3.2505001955925036e+02 -6.4011720448965259e-01 -1.4265177658045463e+00 8.9347207137483565e+01 3.4572963538948036e+00 -6.4227937060041329e-01 -1.1009859161612132e+01 -2.2535840671521949e+00 8.7105238813074681e-01 -3.0914313527567261e+00 -4.5656727409411237e+00 -4.7625879658817540e+00 -2.6670188134000898e+02 -7.8248963369442393e-01 -1.0492545122329826e+00 -2.9681042636683706e+01 4.7087429640065359e-01 2.3043650291390270e+00 -6.2731243140604590e+02 -4.9855985964983418e-01 6.7820093150071887e+00 1.7916878346918281e+00 -3.1984523111631771e+00 4.1640313373972582e+00 -1.3009605030434518e+01 -3.2460260428795840e+00 -3.8915241746331546e+00 -3.8873667236344924e+00 2.3659716151443599e-01 -4.9712262148607023e-02 -2.0132705225102121e+01 9.5940161836708171e-01 -2.1053345947933595e+00 -1.5522685262368896e+01 1.9101506294501618e+00 7.4247290555417145e-01 -2.1358514155719965e+02 2.7292360734523502e-01 5.8142255345469653e+00 7.5837066041042416e+00 -1.4397188911352110e-02 -4.6973072996936427e-04 4.0075250255258261e+00 1.5079982740841524e-01 -2.7655494114312962e+00 -1.2208160422088903e+00 4.4888268673384424e-01 2.4441401005894492e-01 -4.5451302704733415e+01 2.9913395638425633e-01 1.2369913254527898e-01 8.9406799622317372e+00 1.7088685710756524e+00 -1.8734385200823223e+00 -1.3584384148344674e+02 5.2205344008886989e-02 -1.1303436335432057e+01 4.4196793171593825e+01 9.8427485605004073e-01 -8.3172748601037227e-01 1.4845331952049383e+01 7.0059622974848690e-01 3.9972369942560473e+00 1.4996079341836257e+00 1.1280463784800334e+00 3.4314004843530554e-01 -1.1076758781222478e+02 -1.6657135833381886e-01 5.7339958160860061e-01 2.7870368021932279e+00 -2.2739667758211142e+00 4.7315840916011513e+00 -1.0157546242172324e+02 3.4041062270206566e+00 -8.7869929427047087e+00 3.8369949494853945e+00 8.4718290383019279e-01 -1.5716709294250935e+00 2.5783993506775253e+01 2.0279579544422166e+00 -3.8234874034690440e+00 2.7679883265693515e+00 2.7428428523583128e+00 5.8301006424896027e+00 -1.4223194591307356e+02 -3.5125644928928486e+00 -2.0421529555865727e+00 1.7069010198915642e+01 -4.6819020745752686e+00 8.4118751596380648e-01 5.7154029791123918e+01 -1.1055097294127658e-01 3.0873546323038070e-02 -6.6007047408784238e+00 -1.0639450620991364e-01 -8.5210927736078190e-02 -1.1236932546029374e+01 -6.7489807365888865e-01 -2.9728265498370376e-02 7.6791828086564529e-01 6.3474859739859690e-01 2.6652309816942132e-01 4.8192967134314330e+01 -7.6022202882856327e-01 -2.3175354508452184e-01 -1.4812765870566857e+01 -7.8723455361023120e-01 -3.7500741741193266e-01 -2.9856472674022314e+01 -1.0606613336904567e+00 -7.4029114851493638e-01 -1.3137851578048114e+01 -8.7099202479210547e-02 1.4870140086604877e-01 1.4709992172732528e+01 -3.6224707429481651e-01 1.4243201139796451e+00 -6.9356163800838999e-01 5.1487277273053955e-01 3.2896902029669839e-01 -8.6433857577822423e+01 2.9862590779135845e-01 8.5911201115350444e-01 2.8089264776646051e+01 -6.3989541506652436e-01 -8.7890377141318865e-02 -1.0675457711889312e+03 -3.8024976116757925e-01 -5.0466460252273100e+00 9.1499649562647107e+00 9.7697972224129437e-01 -1.0094406238379428e-01 9.4450130183457226e-01 1.5054832630630666e-01 1.0884736262955190e+00 1.2990448738666549e+00 3.5173925286246313e+00 -8.8069732758170183e-01 2.4861338911162761e+01 -5.6070518921038559e-01 2.4512908855058413e-02 1.3230234769668847e+00 -8.7118618968553685e-01 1.6253335552144921e+00 5.8878218971743166e+01 2.0235854242619014e+00 -3.5013321113459241e+00 -1.8209984418804613e+01 1.2278123816265643e+00 1.9124900884754887e+00 -4.6377664386148805e+00 -3.5510730541543682e+00 -6.5555489948867898e+00 -5.3201236619700953e+00 -2.4183613733005633e+00 6.6298923212414018e-01 -1.5615826143200078e+02 -2.9532639112290662e+00 -4.6626636904459851e+00 -2.2477608786634526e+01 -1.3834677939814659e+00 -9.4776825239564246e+00 -1.2980479314377524e+02 6.7991201217764363e-01 -1.4623716265157887e+02 -1.5562778999317243e+02 1.5148883133070925e+01 -7.0589119395679063e+00 1.8233214574168113e+02 -2.1389601740617072e+00 -2.4841464284952345e+01 1.0394388516604115e+01 2.3492805042393911e+01 1.7707694511282369e+01 -4.5402964611405071e+02 -2.1018185965993716e+01 -3.4555663404161585e+00 -4.4136679381517084e+01 1.3639940750086321e+01 -2.7887772922139175e+02 
      </Row>
      <Row Index="170">
        3.7151910885062613e+01 1.9182685278562110e+02 1.0855486190265893e+01 -2.6569633717526124e+00 -6.7164043311049170e+01 2.4541866114761497e+00 -1.2612690300920114e+01 6.5093637969781568e+00 -4.5916549224422113e+01 6.6903669287711898e+00 1.3680423176264753e+01 5.0890938934168872e-01 -5.3079886527173556e+00 4.3316491951299503e+02 3.5670059103076213e+00 9.5794882521652909e+00 -1.1985039302835385e+02 -1.6199356769631894e+01 1.4226589188516510e+01 -5.0726904560921241e+02 -8.3753941288394884e-01 -3.5992274253523817e+00 -3.9819667470988165e+01 -2.5903960153267036e-01 4.8480303209309739e-01 4.7810573582828040e+00 9.1193965903672005e+00 1.8963096790144842e+00 2.7724882103279329e+00 -9.5991096975836019e+00 5.3058728337041252e+00 4.0303797937030072e+02 1.4481033325625852e+00 -2.1751043015400100e+00 5.4343775719150692e+01 -1.1945752909223906e+01 4.1221474086331611e-01 -6.3380812326434148e+02 -2.0874032078216009e-01 1.3949213758197612e+00 2.6993153037966753e+01 4.5985305950910416e-01 4.3623206171145412e-01 -4.8381263501040905e-01 -4.3691746394367410e+00 -2.8596095739654164e+00 -5.6078628573623845e-01 -1.5210118887872142e+00 -1.1049030126540194e-01 -5.5618930775948861e+01 -4.4590970774100480e-01 -1.0086573180780363e+00 -1.6939541631291142e+01 -3.1916164199565600e-01 -2.7256324737159972e+00 3.2255255426264557e+02 -3.2804712144628780e+00 2.0660677464014796e+00 -5.1361413756102635e+01 -4.6386275646837305e-01 -2.6863482325801158e-01 -6.7112735628427345e-04 -1.2996863178922265e+01 5.6696848580301307e-01 1.1215047805640950e+00 -3.4744973630389318e+00 -1.9824873058375587e+00 -3.5404101410023685e+02 7.4149433918744023e-01 1.0004036034210628e-01 -2.1584313953429728e+00 4.5634074529026964e+00 -1.1308707260070648e+01 1.2496183288837926e+01 -2.2270404360869360e+00 2.5091367888324014e+00 -1.2835687687537052e+02 -4.6376012689775195e+00 7.2784084887187817e+00 -6.9111376188045277e+00 3.9689811412406478e+01 1.0357847864571948e+01 -1.0924645961979072e+01 3.1772703318826039e+01 3.3827748064431784e+00 3.5793313957304503e+02 3.9295378747090082e-01 -7.7906498234595283e+00 9.5221807993513551e+01 8.9639209622944378e+00 -1.7711628412537550e-01 -5.5553684898110748e+02 -1.9599800046067832e+00 1.9741879808149001e+00 3.7074816507222678e+01 2.8484427081010755e-01 -5.3990853107103476e-01 1.2265343799105537e+00 -6.1245404947514963e+00 -2.5637753300149768e+00 1.4551427863294037e+00 -6.4167123595116493e-01 -1.2705112490300134e+00 2.1034410965235793e+01 5.3694299739983720e-01 3.3619320800951158e-01 -2.3219839599368697e+01 2.2867480240493876e+00 -2.0301170527248260e+00 1.5201003924859742e+02 2.2133269048126891e-01 3.5790012592169518e-01 -2.8279070451676773e+00 -9.3464608603781585e-01 -2.6653492931531275e-01 -2.7059240932418049e-01 4.7744238939884660e+00 -2.7302058754864493e+00 9.5433428923877273e-01 -1.3430090073073728e+00 3.8302979231634282e-01 2.0918062140811082e+02 1.0417895325043034e+00 5.1893572585294123e+00 -7.4007467963617728e+00 1.3947763048221375e+00 1.4471735167709241e+00 7.1009046263919822e+02 7.8891730401856464e-01 -1.7264938768700233e-01 -2.7116623460543167e+01 -2.3937893991791945e+00 1.2291431034433487e-01 8.3727164585383207e-02 -5.6605815838813980e+00 2.3506645025030650e+00 4.6543889000894012e-02 1.9423753297382689e+00 2.5686993537953313e+00 -1.5263076380766040e+02 -3.8444799218048420e-01 -5.1606187482773080e-01 -9.3511844160091186e+00 2.4345656400361548e-01 3.8730712249729706e+01 -9.4129960761869711e+01 9.9506175617579835e+00 -3.5793231117118403e+00 1.0217411969778529e+02 -1.4900982203043047e+00 -5.3027161726327456e+00 4.5021050061008543e+00 -3.3906630283800032e-01 1.7579474795450668e+01 6.0921502868052215e+00 1.9963411334153275e+01 2.5695784774618042e+00 9.2803306342074916e+02 5.7756054253621736e+00 3.0377838373895116e-01 -1.2985539915449323e+01 -1.9969394564371115e+01 -1.5032562656466268e+00 -1.6882641330428416e+02 3.5894756197927926e+01 -1.6855138164106179e+01 -5.6147494330739823e+02 -2.8580690466211195e+01 -3.9856282220497903e+00 -2.1389601891846013e+00 3.6386061883848095e+02 -8.8235403423952008e+01 4.4629449566214827e+00 4.1176955265483002e+01 -3.4034154124199745e+01 -3.1839535363098497e+02 1.2967530119192475e+01 -2.0859672983849904e+01 -2.1262422529366177e+01 -1.0300567271064764e+01 5.7580299841560372e+02 
      </Row>
      <Row Index="171">
        -6.5751666716377128e+00 2.5106434950398892e+02 4.2100391273600302e+00 -3.2390461170147526e+00 -8.9460481587725582e+01 1.2171737684824215e+00 6.6871276631870433e+00 -1.4560811208207870e+01 1.4066712058070404e+01 2.1931804475235381e+00 7.3146107049942799e-01 1.3744395652832836e+01 4.1339088111715991e+00 -4.7541273401144466e+01 -4.5133363757422202e+00 -1.2324967976860393e+01 1.0594205013832726e+02 -3.9625147634608275e+00 -9.3424497532680562e+00 7.7374949773690662e+02 -1.0021544528432702e+01 1.8003659125509461e+01 -1.8666043971831519e+02 1.4992779682161457e+00 -1.6568276032903153e+00 8.2476270855665312e+00 1.9931938261205624e+00 3.4752885461883679e+01 4.8892652809440014e+00 1.0786818659404691e+01 -1.7445534177070234e+00 1.2888782273273688e+02 -2.2044458744597017e+00 -3.2322758360527004e+00 5.7846817402911931e+01 -6.1442305046737626e+00 -2.5384297942048804e+00 -1.6019173342412705e+02 -3.5868914636449825e+00 -6.5549668799607730e+00 3.8159874810585350e+00 -1.4205785773269852e-01 -1.4585382312761030e-01 -1.2736271522603175e+00 1.3680669702094237e+00 7.4291006029458622e+00 3.5246696353316054e-01 -1.5875477152734163e-01 7.1938239340737820e-01 -8.6027592188990297e+01 -1.7195481220877262e-01 5.8084212988650563e-01 8.9151244036195436e+00 -2.7062989207580657e-01 3.2114953920578841e+00 -1.1902724683151578e+03 1.3757458116930152e+00 -3.6375966304492877e+00 1.5736907854933878e+02 4.5836949707251051e-02 7.0332281190988155e-01 -3.2054838038792042e+00 4.8856850309960009e-02 -2.4941527841620236e+01 -2.4855817084668104e+00 -3.7130467759276726e+00 -1.6293102931796071e+00 3.5256021885755337e+02 1.0213041534157945e+00 -2.1283541600292217e+00 -2.6946058090800570e+01 8.9996641266544408e-01 2.2030738797184686e+00 3.1487588833040962e+02 -6.1129662401560401e+00 -1.8429948312113673e+01 1.6892639424842719e+02 -1.4351346318338281e+00 -5.5398783961458387e-01 -1.4646289742845006e+01 -1.6534925461596988e+01 -4.6851516322022832e+01 1.5877690114423828e+00 -2.6176059237008431e+01 -1.6787820324533396e+00 -3.9036508566644335e+02 3.5088814154443821e+00 6.3223053194621546e+00 -1.3881933717133705e+02 6.8684381164910207e+00 -6.1237472095431116e+00 9.3170368522314072e+02 1.0341189729381416e+01 2.8370510682854544e+00 -5.6794351992224492e+01 -6.5755018063053172e-01 6.5028120582724114e-02 1.5987689149943947e+00 7.2647998235625089e-01 7.8631336884478742e-01 2.9065518119333689e-01 -8.6600670869451601e-01 3.3007557080244609e-02 -5.8283720188422194e+01 1.2345760418909748e+00 -3.5363438405236991e-01 4.9395810583372395e+00 6.0801070648963673e-02 -2.7584952885211038e+00 6.5142733315503824e+02 -1.9981488583255569e-01 -5.0484482770634500e+00 -8.7141332032513105e+01 1.5311243328651472e+00 -8.4984563593026508e-01 -2.5240750451032028e+00 8.5539002637888117e-01 2.0279266788459097e+01 -4.7402681423932336e-01 2.3182761222393538e+00 1.3030966888946693e-01 -1.9352031446410285e+02 6.1881643476654169e-01 -1.0886983349897861e-01 4.6870331887030332e+01 -1.1796553257270475e+00 8.0387132387876647e-02 -8.8076761788898148e+02 -1.9166469602695511e+00 3.8817496913582019e+00 7.1762551705561378e+01 1.6420159643223009e+00 1.8536983854336597e-01 1.9068242293316544e+00 6.2615791952433408e-01 -1.0379937534462243e+01 -1.6922984672019865e+00 3.1613623914050635e+00 1.6025723055636760e+00 1.7375648030303739e+02 7.5426543588382788e-01 -8.9091475351651184e-01 -6.0696577248381033e+01 1.1010327070269348e+00 -1.3085215626044080e+01 2.0452287827280327e+02 -6.1365285450801377e+00 -1.9381990679838434e+00 -9.8366433992717717e+01 1.2364422448788681e+00 4.3826426257585895e+00 -1.8696098951602469e+01 2.9772357914292291e-01 -1.3619441681956683e+01 6.6275733542882236e+00 -3.6100665902689033e+00 2.2042613022869020e+00 -4.3894550489816362e+02 -3.3047562194632314e+00 -9.2150529681050521e+00 -7.3262535321784839e-01 -2.5734867448451908e+00 6.7609802233331152e+01 4.2111133455067147e+02 -1.8474013266000222e+02 1.3471163709833831e+02 1.0742724166866669e+03 1.3760287625592696e+01 8.2086219546694252e+00 -2.4841464282520938e+01 -8.8235403442535528e+01 4.1597539911544692e+02 -2.2471318433846676e+01 -1.0633218733029651e+01 -2.4315962408761493e+01 2.6826397140058435e+02 3.7867931779229025e+01 -3.8521333205432029e+00 -5.4652859887563409e+02 6.3233578630652900e+00 -4.0678601979529736e+02 
      </Row>
      <Row Index="172">
        8.6173919666859788e-01 -4.2094875740663088e+02 -4.4833819488030056e+00 2.2843221423315070e+00 -1.2878869418896886e+02 -2.0131416301121590e+00 1.2035131596166927e+01 2.0301223384075520e+01 1.9321387742806038e+00 -4.3582747376922768e+00 8.9806875072286232e+00 1.5945155113640084e+01 1.1983591725243130e+00 1.8113410969061857e+02 -7.6439158205877611e-01 3.4509167988873912e-01 8.5486029857351213e+01 1.0967191980397786e+00 1.2405421669173361e+01 6.9820560495632037e+02 -6.6993787156874873e-03 -2.6171917900793056e+00 -2.2270993954983979e+02 -3.3634799000298443e-01 -2.2612759126420425e+01 2.0228137986041155e+00 1.5259187003259758e+00 -5.8250748588685184e+00 -2.8229159547797455e+01 5.9830369313260476e+00 1.8973971095452775e+00 1.1223354392231482e+02 -2.2787074328777397e+00 -4.6977772726065297e+00 6.3519259475504256e+01 5.0477372125804791e+00 7.0383816562023327e-01 4.2575215986567355e+02 9.4014829696319779e-01 4.9169522202355864e-01 -5.0492876544318136e+01 -3.2583427114469998e-01 2.9038460931398582e+00 5.1795331136752765e-01 -2.8496005801835267e-01 -6.7550243824634748e-01 2.5007953765735067e+00 -2.6212050694050220e+00 -7.2840160601138848e-02 4.5079091767699680e+01 -8.1642968227426493e-01 -3.4530617439857281e-01 -2.1814185508920545e+00 -4.9180125157420207e-01 -3.9154211537128276e+00 -1.5716999994226353e+02 3.8172682408232106e-01 -4.6574191710287494e-01 1.4243908365279083e+02 6.1788366875731526e-01 -3.6818850035080715e+00 -1.2879326528488662e+00 5.7778649054540665e-02 2.5435780447564014e+00 6.8430566921884974e+00 3.9730968040349666e+00 -4.4627401167139169e-01 -3.1538624503641881e+02 -5.4020584000070926e-01 2.8167037440669844e+00 1.9768529963799239e+01 -2.8461606691190156e-01 -4.4255170772008370e+00 1.1220915409383065e+02 -1.2325375039306188e+00 -2.1029602666783340e+00 8.9845307596267759e+01 3.1012897760039877e+00 1.0058091476259573e+01 -3.7514396921600479e+00 -5.2902853086281816e+00 5.9338366658799302e+00 -1.0941976707528443e+01 -1.4086570509692343e+01 -1.9837536007803394e+00 -4.1089065473906470e+02 2.2049349609818405e+00 6.8938408674301854e-01 -8.9242719999876883e+01 1.9817375279258584e+00 -1.7360314600965125e+00 -2.6354345712391842e+02 -2.0198769001290842e+00 -1.2250897889165913e-01 -4.5351995644728618e+01 -1.5836387997816548e-01 -5.3443836275075682e+00 -7.9210681615074918e-01 -2.6982179954856989e-01 -3.3132429422266796e-01 -1.0472548490855900e+01 2.0148264366704183e-01 -7.3221233350648873e-01 1.7656189946310315e+02 -5.1397976303505288e-02 1.5307102045862848e+00 -1.0108872798908237e+01 7.1783068191854227e-01 -4.1408431755442621e-01 -1.1591895172592194e+02 2.5008870863649690e-01 -1.0334054211775481e+00 8.0951695382445450e+01 2.5367270249824969e-01 -7.1529457075187679e+00 -3.6495656131199894e-01 5.1021909439354829e-01 7.2679798803293494e-01 1.1550261818463241e+01 2.0919959861566895e+00 1.8687306125761438e-01 -1.7731224036965114e+02 5.5017621302620512e-01 -2.0866893827286503e-01 -5.0713670805212701e+00 1.0671488709473920e-01 -5.9194863916819429e-01 -1.6181576805156965e+02 1.7588458285169395e-01 -2.0704683062683671e-01 -4.5090415546380086e+01 1.4294754068299653e-01 -1.5297335969517292e+00 -5.7251956197688969e-01 -1.6979878593554432e-01 1.8992896058874180e+00 3.9614174147723418e+00 -6.4836115879249405e+00 7.2474363890501081e-01 9.9479380740551733e+00 -3.4985850578484445e-01 -2.2841198509249239e-01 -4.0344804492263847e+01 -7.4963755364109375e-02 8.6037908034612443e+00 1.4620519054921988e+02 -5.7604858293028798e+00 -1.3020548061889841e+00 -3.8911434803114173e+02 2.1669469535880026e-01 1.4594551199477879e+00 1.9660784632615144e+01 -1.9552025319585171e+00 -4.4912303344552100e+00 -1.9859669981853301e+01 8.1954527829314117e+00 7.0138845444782305e-01 2.2593468744267409e+02 -2.2323872874082795e-01 -3.7921681700916565e+00 6.8997372880513325e+01 6.3359505135548773e+00 1.5734429318696243e+01 2.5802175675087324e+02 3.5894825980379551e+01 -1.2833065174746650e+01 6.3494859560523344e+02 4.1522222318915283e+00 1.5628129260685549e+02 1.0394388504743880e+01 4.4629449320939329e+00 -2.2471318443380198e+01 2.6467030785484513e+02 -7.4121105584071330e+01 -1.4907666720794168e+01 -7.8162903144987774e+02 -7.3960080852605188e+00 1.2598470884298763e+01 -9.1644120521164859e+02 -9.9435064749229696e-02 -7.8171074883662141e+02 
      </Row>
      <Row Index="173">
        1.7047554940527966e+01 -8.9317579940790495e+02 -1.3298135230638835e+00 6.8267571771525963e+00 1.3125140783753753e+02 3.3305252010285660e+00 -4.7697359526396319e+00 -2.1614854222973129e+01 3.0322619392068821e+00 9.0363781607506493e+00 1.0387838402346048e+01 1.4688897169121731e+00 -2.0245983452843273e+01 -1.3618885511594303e+02 -4.4318405868786597e+00 1.4494313138500594e+00 -8.6511851729185807e+01 -8.3018076369065383e+00 -1.3046213555469246e+01 2.3647000656266488e+02 1.6428593653924718e+01 -1.1252018418527852e+01 -1.3707683077579901e+02 7.6211361005558853e+00 2.1666501591092242e+00 -1.7889923536802506e+01 -3.8197451760903767e+00 1.3655355749505055e+01 6.5807733381557707e+00 -3.2576169785059598e+01 -7.3787053060447612e+00 2.2065124750516898e+02 -7.2454261004268350e+00 -5.1840183157878350e+00 1.2161139760491764e+01 -7.4305964116795664e+00 3.9814621010800550e+00 -3.2562956622218003e+03 1.2708444585815357e+00 9.4705727316900479e-01 2.0252738767392373e+02 1.3024352411947859e-01 2.6370786305938054e-01 4.2809894112794922e-01 -1.4230286955641169e+00 -1.8791753217994120e+00 1.0176140467505590e-01 3.2932035235499612e+01 2.6482012156173980e+00 -4.0295005848003888e+02 -1.1077606370706228e+00 -9.9104467629825876e-01 -6.1219698671500353e+01 -4.7445980336566578e+00 3.1176692134049517e+00 -7.3870938019206733e+01 1.9716555726255010e+00 -1.1694813140667506e+00 1.0315721700059116e+02 -2.3505059869164242e+00 1.4232534872638354e+00 4.9935964864854157e+00 -2.0464097277569238e+00 1.9118052673451587e+00 -2.5543820995914359e+00 -3.1846903934723002e+01 1.6493538729219210e+00 1.9495362707675804e+02 3.9103522055250295e+00 7.9937397683298883e-01 -2.9905641224776417e+01 5.7144261493089648e+00 -6.7303019776307007e+00 -6.1534144022400164e+02 -8.7999485376395441e+00 9.1295525447928494e+00 -3.0434305119113816e+01 -7.6420662827918573e-01 5.2530526195606315e+00 2.6833498918869616e+01 1.0121996732759113e+00 -9.7839335565822303e+00 -3.2697575122494911e+00 4.6125445890336010e+01 1.6141955427219013e+01 -3.3188962332700123e+02 2.1617095652658229e+01 1.1000860426822697e+01 -4.3428919770748578e+01 3.0844628799914609e+01 -1.0271916320220953e-01 3.3998687567212596e+02 -4.9134976927700773e+00 -1.7741920853558071e+00 1.0178267479694156e+01 4.4488519015387196e-01 1.7147309009617402e+00 -2.7224315303190849e+00 -4.0106214546242835e-01 2.1268072940259231e-01 1.5108461569397207e+00 7.5417928251438759e+00 1.7939660150348331e+00 5.0088973325834672e+01 3.9474551220919523e+00 -2.9123445160262804e+00 -3.0905903375989823e+01 5.7383568723781053e+00 -5.0592301543510843e+00 4.7031431689380297e+03 -4.1206898100309530e+00 2.0024060983314200e+00 -3.6740000526960711e+02 -1.2402353324359865e+00 6.2357341290805834e-01 2.6730110386237982e+00 1.9363158910825007e+00 2.1220736858630573e+00 -4.1585028999101041e+00 -4.3384298081614219e+01 -3.9053502404211997e+00 6.0183027029791424e+02 6.3967626941847868e+00 -3.0863754514108592e+00 1.1338243334429379e+02 1.8164385846589703e+01 2.3561952320491173e+00 -5.5795593022602006e+03 1.7259988595151814e+00 -1.5345876420180886e+00 2.7473357429402768e+02 -5.8773459292616792e-01 4.2583722563348658e-01 1.8857094894130455e+00 -2.0729382737575994e+00 -1.8233527792937991e+00 -9.4056427733561065e-01 9.3757244356620930e+01 -2.3322791814577215e+00 -5.0844590987353990e+02 -7.0856920011837232e-01 5.8855632048505413e-02 -1.0200410269860279e+02 -2.0436608105930105e+00 1.8916585928362259e+00 -5.7059499947382392e+01 1.3184344935459151e+00 4.0806585426138628e+00 1.6048964939892551e+02 1.0288483235102404e+01 2.8865669510049177e+00 -1.4638581272158866e+01 5.3486150217294970e-02 1.0715005299060113e+01 1.1241353302627310e+01 8.7999975716908470e+00 -9.9609173085667297e+00 -4.2374897363040651e+02 7.7633041793528772e+00 5.1918285922870098e+00 6.5019553003013286e+01 3.8868394462205700e+00 1.0121053764172359e+01 -3.4176265189039248e+02 1.1853028144012012e+02 -4.4867761446524980e+01 1.1528664456531237e+03 -1.4722655842831500e+01 -3.4416513410437034e+01 2.3492805062675146e+01 4.1176955276046911e+01 -1.0633218751671549e+01 -7.4121105581557998e+01 1.2044131956115048e+03 9.3429776726817636e+01 -5.1876178485577725e+02 1.3925741754779096e+02 2.1909397695061500e+01 -5.6892844268165572e+02 -1.1349515989726264e+02 2.2227328524202602e+02 
      </Row>
      <Row Index="174">
        6.7532581452034091e+00 -3.6017242692949088e+02 -3.2774081584466273e+00 -3.5901012404177748e+00 7.9149782171240773e+01 4.4549599654043472e+00 -1.9343033258580196e+00 3.3261366506242324e-01 3.6144205454321128e+00 -2.2436667813761488e+00 1.5470588201121906e+00 -2.6184091007194770e+01 -1.7243128798459914e+01 -1.3889610818663184e+02 4.3145529822845603e+00 7.4466859856532563e-01 -2.7066935323986169e+01 6.4996327141438668e+00 1.2643790308163165e+00 1.1529379835554946e+03 5.5576018373135714e+00 -6.6399794853032351e-02 4.8992113444261662e+01 -1.3343249547205760e+01 4.4524745379462347e+00 1.4786578540777726e-01 -3.8095842649107681e-01 -5.2588328951179903e+00 -4.8204933981152394e+00 -1.7166882769336141e+01 1.5781119037373970e-01 2.2177269536527322e+02 -1.7699760963647793e-01 -5.9429228820121716e-01 -6.7231810395046793e+01 -1.6935115281269926e+00 -1.3035528486235259e-01 -3.8689700769269388e+02 1.4128681691237663e+00 -3.9910845529736971e-01 1.7135154098997184e+01 -5.3784552415004128e-01 -3.3928823115771983e-01 1.5816268608585085e+00 4.5981345846949806e-01 2.5012310318349351e-01 -9.7293472220226218e-01 2.9722705614887057e+00 -5.7071600115316867e-01 2.7966672514997214e+01 -2.7198137481293067e-01 4.6634939540237386e-01 8.8377712619707847e+00 -1.5182043310419833e+00 -1.5544781842911064e+00 -7.4963716107928008e+01 8.9551934941381395e-01 -1.8626958318699410e-01 -6.1893159511622692e+01 6.0816935044599436e+00 7.6882668998755421e-01 -7.3315460883867090e-03 8.7606603276168282e-01 2.1264162320398334e+00 -1.6999416859322878e+00 4.4376432480150321e+00 6.5282703846431351e+00 -6.1012643342953069e+01 -3.8635893568471291e-01 1.8101337712091856e+00 1.4310741970406854e+01 1.7725222520243344e-01 -2.8670904045490535e+00 6.6801262867319417e+02 2.0724060248857743e+00 -1.9574046475791418e+00 -2.1343672577707625e+02 9.8042044973279996e+00 -1.2969726431220330e+00 -1.2873368870965483e+00 2.4974294711952391e-01 8.5392960868726675e+00 5.1248487100868552e+00 3.7661835421597594e+01 2.1451360869155206e+01 5.4514430135127600e+02 -2.1323452558479428e+00 5.1272477470089424e+00 2.0910312810280494e+01 1.0090241905863864e+00 4.4606026878062588e-02 1.0115820465747140e+02 -2.3610070295051928e+00 -1.2743217409654086e+00 3.8650056111941012e+01 8.3578523493694279e-01 -5.6954321267363106e-02 -1.8107186591317372e+00 1.0610196622317092e+00 1.3717619112331361e+00 -6.8150561369406637e-01 4.3979699573830500e+00 4.9710614887373374e+00 -2.2717014783161442e+00 -7.3684588866530498e-01 -7.5223127777463095e-02 -2.9215090347308063e+01 4.1820405926020676e-01 5.7249568184243727e-01 1.1396259074866879e+02 -2.3816227744657086e+00 3.1750812669916662e-01 -1.5850887498653899e+01 -2.2885901226346617e-01 1.9077619815103144e+00 2.5508368993400561e+00 -9.3452403348450885e-01 -2.4882664133820036e+00 -2.3471438002281726e+00 -4.8052988873977371e+00 -2.7619625731602544e+00 1.1691639681632449e+02 -5.0521013934352499e-01 -3.8111139820640805e+00 2.9423560282071367e+01 2.1433003434991855e+00 -1.6205441456987979e+00 -2.2510482647556441e+02 1.2460823965887515e+00 5.3658879883127564e-02 2.7361150164233987e+01 5.7677833935465062e+00 4.9348636671206814e-01 -8.7100701844684414e-01 6.3390072467502079e-01 4.4702808238398850e-01 -1.0681584802062050e+00 6.7365092753925815e+00 -1.6331909072579606e+01 -2.1298343014295988e+01 -3.8556428930033326e-01 4.0363424236553758e-01 1.0767921908262005e+02 -8.3149383946948108e-01 4.3597463537157459e+00 4.0456559249617840e+01 2.4645593149579641e+00 -5.7399157964033458e+00 1.6598669825209640e+00 1.0389398315153314e-01 1.4210514522667830e+00 -1.6067520127142005e+00 3.1776778028888715e+00 1.5704739703446113e+00 9.0577290105053443e-01 -1.0408279036090789e+01 4.1303642317127964e-01 2.6172964951464098e+02 2.0623719477822160e+00 4.5703245358279769e+00 -7.6133927274668409e+01 4.7306010202697681e+00 7.5772438684458177e+00 5.3181139877235239e+02 7.5776057235210871e+01 5.9238508125796212e+00 9.6433597451242929e+02 8.1669257714628287e+01 -1.8340374088080857e+01 1.7707694531420401e+01 -3.4034154086339115e+01 -2.4315962414636452e+01 -1.4907666737445535e+01 9.3429776727966242e+01 2.5773954697183268e+02 1.1723688878572766e+03 -2.3415422917322129e+01 2.3578292935576140e+01 2.3228918930539368e+02 -1.8655161781109872e+01 1.0818243653526385e+00 
      </Row>
      <Row Index="175">
        1.8874827322240708e+02 5.0939641311399042e+04 1.1090048446789456e+02 -6.8475902847880235e+01 8.3148436829680941e+03 1.3983486840527576e+01 -1.5663735013550422e+01 -2.2516231761242625e+02 8.1681985886669338e+01 -5.2707857030306059e+01 -4.3889232523506053e+02 -2.2616898289588107e+02 9.6568999454662617e+01 2.5751216508024463e+04 8.8591266021118713e+00 4.7008927741599564e+01 -2.1735485200043622e+03 -1.4486132898674964e+02 1.3737676779568793e+02 7.1123024250843358e+04 -4.6849871248939280e+01 -2.6494218893991544e+01 3.6403373940693462e+04 -2.1972385389787854e+02 -2.9988257339782876e+01 1.5415597616006880e+02 5.0979710180326265e+01 -1.2084839058322814e+00 3.4564889266987052e+01 -2.6311961601257167e+02 6.9737782047342080e+01 7.5637230987337185e+04 4.3403203786737834e+01 2.0577262767084494e+02 -3.9981553435199316e+03 5.6344898834918524e+01 1.8674853992411499e+01 4.2094576596183586e+04 -3.5793251652397657e+00 -2.2969368762440126e+01 4.4593926950938248e+03 -2.6406988092487609e+01 -1.6508950265249268e+01 -3.6794000232064718e+01 3.5132778830364941e+00 -2.3406343671895229e+00 -8.6357724638055515e+00 6.0653741711621478e+00 -2.2243436543837845e+01 7.7303789866370298e+03 2.2177299736063901e+01 5.4089292710700647e+00 2.2892852989806215e+02 -3.9690811702880637e+00 2.4231351988083588e+01 4.9835929724015470e+04 9.7722846039828255e+00 8.6912526824216911e+00 -3.7666497272044398e+03 6.8660343630584066e+01 1.4056851792895031e+01 -3.5335898910891046e+01 9.3495660209428024e+00 -3.8176672675429927e+01 3.7950532844843110e+00 2.1264046283641756e+02 3.6728974194226794e+01 7.2000938507060200e+03 -3.2708258024410043e+01 -3.3837930075620079e+01 -2.8007253401548232e+03 -1.1888910072765952e+01 -2.4246188538383240e+02 6.6078512803622303e+04 -8.6010967810098009e+00 8.3543857348022073e+01 1.3440493205174806e+04 9.3063034030613494e+01 6.6471705198828204e+00 1.6493380321884206e+02 -8.9085077453291319e+01 8.2655785274740538e+01 9.2780433916818765e+00 -2.4491818401083037e+01 -4.7275132326285643e+01 -3.0719032490995714e+03 5.0044688676409805e+01 -1.2356610357430918e+02 1.2052046176795816e+03 4.8864876899205228e+01 -1.6247426955929768e+01 -1.0134755702966970e+04 -2.3223192436499858e+01 4.0676757274152806e+01 -2.5329905069844026e+03 1.8099772165922531e+01 4.7599118184385588e+01 3.5874454091518601e+01 1.3961804974918437e+01 -1.3095325490667165e+01 4.4114181521337741e+01 4.3855587168272336e+01 1.3120573523864323e+01 -8.6254852865760913e+03 -3.8565874082565642e+01 -2.4557698083081959e+01 1.7329098397105518e+03 -3.5856054123541981e+01 8.4095790013816440e+00 -1.0590551531216013e+04 5.0397293847372566e+00 -5.1726313843128082e+00 8.1350318120308875e+03 7.5128038847760763e+00 -1.4009590993238817e+01 -2.9550848173165832e+01 -1.4097451928285409e+01 -2.2155199650244413e+00 2.6726996970988694e+01 1.7975195746368627e+01 -8.0371848227059672e+00 2.6937993153184652e+04 -6.1995813675887803e+01 8.4076417322685302e+00 -1.9254623425474856e+03 -1.6978308136622218e+00 -3.5630411188190010e+01 -8.4865421990536677e+04 -1.4487603103596257e+01 5.9181848121438634e+00 1.6364569757323556e+04 6.3974383027788917e+01 -1.0110611357808921e+01 3.1376795044379833e+01 1.6090420648283384e+01 -2.7385760981560452e+00 1.2343798257651542e+01 -7.7240821754016906e+01 -8.2023264480929356e+01 3.9305423820409254e+04 -5.2482091329125069e-01 1.4722248246916934e+00 2.4759794737436396e+03 1.2877067214420094e+01 9.4295938598708744e+01 -2.3376663436075905e+03 1.7317733567560936e+01 -1.0066382765761773e+01 1.1849757988678426e+04 -1.2553400280800446e+02 -5.3386694397132089e+01 8.2235122120044650e+01 4.6760020732969735e+01 2.2208826162709101e+01 -4.3962037847077545e+02 -4.3877154173083704e+02 8.1935221890568755e+01 7.3350363872603048e+03 8.6645150910702625e+01 1.2251474537386184e+02 -3.1852323641079311e+03 -4.6401743132561933e+01 1.6733049047357053e+02 6.7242340345866134e+04 -7.5896134735953865e+01 3.9692778098029703e+02 2.3476950346699788e+05 9.5016036609115690e+02 -5.6550194023203403e+02 -4.5402964284537779e+02 -3.1839535173122454e+02 2.6826397298098163e+02 -7.8162903662341682e+02 -5.1876177223645755e+02 1.1723688935167738e+03 4.7517357666201977e+05 -1.2221226073319849e+03 -5.0532488272341652e+01 8.4305966003750596e+04 -1.6929733485711677e+02 1.9508993256023477e+04 
      </Row>
      <Row Index="176">
        1.4220873453183895e+01 -2.9765553612094254e+02 -5.7420245523651054e+00 -5.6089648742650233e-01 5.0479573328389279e+01 -1.5469584593434647e+00 9.1259035256208563e+00 8.3866642743590063e+00 4.0048831844515211e+00 1.7131423439995459e+01 -9.9983883456201283e+00 -1.0879634406722943e+01 1.4527826090404474e+00 -1.6177861720247927e+02 -3.7839569487665500e+01 2.4410321446968908e+00 -5.3750912242965775e+01 -9.6782824375017924e+00 -1.3307653155656023e+01 -2.3574992525054049e+03 -5.0474525634253382e+00 2.4430042722541057e+00 -1.1326754373573152e+02 -2.2467763491302790e+00 -6.9005246702405643e+00 4.1409044785621703e+00 -1.4730583830791932e+00 1.0000477377729375e+01 8.2219257287990288e+00 -5.4485361446428939e+00 3.3749491611321503e-01 8.1603936277783816e+01 -3.6613550604049223e+01 9.1502278150497318e-01 -5.1641346537898201e+01 -1.1181848311191114e+01 3.1477776588367590e-01 -1.1699665702507600e+03 4.5216391580033388e-01 8.9652746355191937e-02 5.2958634783561394e+01 1.0031058132511816e-01 5.9310886275992658e-01 -1.8907273288333215e+00 -3.3320448956378357e-01 -3.8075559354519584e-01 1.2562319066202150e+00 2.7200978049052367e+00 4.8679358385881955e-01 -7.4544683018444630e+01 -2.8485602201126667e+00 -1.4254812220752910e-01 -2.6715064086920599e+01 3.9310160154293783e-01 1.2622825569407610e+00 5.0247163604952402e+02 7.0723514884367944e-01 -2.2781069677851349e+00 2.3058375788282405e+01 -9.4824835238534888e-01 -1.4656451053981243e+00 -2.1077256116360843e+00 -9.7386869389059427e-01 -3.0131641654170664e+00 -5.2918385465216033e-01 -5.6111095337696497e+00 -5.1974824646208617e-01 7.1871253904349942e+01 1.1916017290318365e+01 -3.2921186444053490e+00 1.4746194785241386e+01 3.6531968468345752e+00 6.6258013007250085e+00 1.7740130651195191e+03 6.8844101201285923e-02 3.5317927396927526e+00 -2.5870081875955862e+00 8.6168009524435902e+00 -2.3374557452700664e+00 4.4644506870326239e+00 -1.3820401752546729e-01 -3.3986621800252934e+01 3.7977615832794172e+00 6.9012245250463167e+00 -6.9035197186803288e+00 -3.7960987712940550e+01 8.1236010307759258e+01 -2.3401423335579612e+01 -6.9519970508325628e+01 2.4361728858651404e+01 -3.2067462012936403e+00 1.8736698999815712e+03 2.5596910476206745e+00 1.5633481984352215e-01 -2.4410305161956785e+01 -2.6328683350608717e-01 1.3987318959764252e+00 1.1792010586116248e+00 3.5414357390984108e-01 1.3915534430987009e-01 -8.8283692809426384e-01 -3.4554961234280057e-01 -2.4524048031025103e-01 5.5609929048954200e+01 1.0876933895725827e+01 -1.0841430758914328e+00 -5.1164452645812162e+00 4.6547965167081884e+00 -1.5895105807784375e+00 2.7711843736717547e+03 3.6972219647819315e-01 6.1630581104870430e-01 -1.4172506309304924e+02 3.5637049508636665e-02 -2.6429012035580399e+00 -1.7434277800761038e+00 2.0989031730598242e+00 4.6595018477030692e-01 6.5061566136841975e-01 -4.0572022423683620e+00 1.4815569076972679e-02 1.3101223814601508e+02 1.6016981590508408e+01 6.1978365953751791e-01 2.8198417145086864e+01 1.6121136290625770e+00 1.6168103375814411e+00 4.7940430787994865e+02 -4.0943965712660457e-01 3.5097875991507976e-01 -4.5349127517067700e+00 -5.4493564335834321e-01 -1.1455883100825872e+00 1.5817469823814463e+00 3.8743486854903608e-01 -3.0731786209207712e-01 -4.6278441369335610e-01 1.3172325274064747e+01 2.3726112797609744e+00 -1.6636101395506921e+02 1.0581741623852743e+00 1.6019290036541634e-01 -3.1857216568341187e+01 6.4204415395690262e-01 9.1532814009659873e+00 -2.3424888437243590e+02 -9.6284022296064435e+00 5.0568098711206844e+00 5.3010682875496593e+02 4.6233394815247379e+00 6.7034151697192712e-01 1.6812868009261596e+01 1.6032858472044893e+00 -6.4869863289088414e+00 1.9334557936483066e+00 -1.1075325756656200e+01 -3.7290467254618989e+00 -3.4572427560748633e+02 3.1194055939574348e+00 -1.8335444128808376e+01 -1.9986898439185248e+02 3.4505784399480888e+00 4.6899219559754783e+01 -8.2449408419100337e+02 -4.0100082546366238e+01 1.4294272551979759e+01 -4.9729603508465686e+02 -8.4532796131691157e+00 4.6014428057341433e+01 -2.1018185981726504e+01 1.2967530117616079e+01 3.7867931774201168e+01 -7.3960080911650117e+00 1.3925741748528901e+02 -2.3415422940783174e+01 -1.2221226007392452e+03 4.5480015842181024e+02 -6.3289878299356133e+00 -3.5093400638792446e+02 1.3695515632295070e+01 9.2068619538088399e+02 
      </Row>
      <Row Index="177">
        3.5107646484459529e+00 -2.0254614294042085e+01 6.1070417358332296e-01 1.5440424245870177e+00 -6.7346967654562249e+01 9.0624745230538650e-02 9.0177391335967272e-01 -3.0522019491365882e-01 3.8640020245922884e+00 1.0509509301808251e-01 6.3125098657579883e+00 1.9464295725830993e-01 -9.0351410216440620e-01 9.0773241446472298e+01 -4.8741121751076832e-01 -7.5974124858280234e-01 3.2836756541186780e+00 3.0164123450405462e+00 -2.0952803087021774e+00 8.2251087305525488e+01 3.7692294299558178e+00 3.6248043368746408e-01 -5.3437297688907996e+00 -1.5017893106534048e+00 -1.8435833344334593e+00 3.0811133332046996e+00 -9.3531413881426140e-01 -2.3531723536094553e+00 -4.1345273540265595e+00 -6.0939856568245947e+00 -1.1666623025158422e+00 -5.2449239370565252e+01 -1.6683559674600543e+00 1.0163123577005528e+00 -2.3934292711708451e+01 -3.7584882004934084e-01 -5.8674866594485309e-01 -2.8324604030979367e+02 3.1345140702625951e-01 -8.2293151265406905e-01 1.1886185172137118e+01 2.9602012373331377e-02 9.7806078268251717e-02 4.4446312006547473e-01 -3.2876522209459580e-01 -4.1130431258520517e-01 2.7061667058215377e-01 1.0788278913152283e-01 -2.0119191438608564e-01 -4.5713455969139261e+01 -8.1212657295564039e-01 1.6315053112222557e+00 3.0673618358309014e+00 -2.1365598502356029e+00 3.6474674568250975e-01 -1.3979925096915940e+02 6.8248473933540765e-01 -1.7773839549789727e-02 -1.5507698961042738e+01 5.7655869135586357e-01 3.5219162415560135e-01 -9.3577114326708255e-01 3.3763155247572740e-01 7.0782114561417586e-02 6.7031042557263731e-01 3.4290723326915185e-01 7.6477042691369945e-01 -1.0446420623475865e+02 -9.3639581504007197e-02 3.6259790792367070e+00 -1.3145657326895318e+01 2.8448214538438954e+00 -3.1602548736856413e+00 -3.0802543304426990e+01 -4.1040646724689172e+00 -1.2904919310952443e+00 1.8739421689604505e+01 7.6358343181647603e-01 -3.3786579127583538e+00 -2.2961061868571662e+00 -1.7201195309650137e+00 4.3165548149249329e+00 1.4386695995728189e+00 6.9032193864169198e+00 9.1182044591532474e-01 -7.2581166104116576e+01 1.6673073379830423e+00 4.9740591990066729e+00 3.0709997848334655e+01 4.0105220418241885e+00 -4.2570447765831432e-01 1.8844053341805466e+02 -1.2668716147730450e+00 2.8864273567131704e-01 2.3101027524016629e+01 -6.1028395995983198e-02 -1.1511070984255412e+00 -2.2779346642529674e-02 6.5589137676135945e-01 6.1932815433283395e-01 -1.5509863188097484e-01 2.0616187904345651e-01 4.9875365790922466e-01 1.0810657595462317e+01 -4.2204076673296242e-01 -1.5395835261171698e+00 -1.6470986029999892e+00 2.1245553601610681e+00 9.6114241808933798e-02 2.4093615552022584e+01 1.3303606724954875e-01 -2.6666807343742960e-01 3.3600532661096167e+00 3.5374608559030207e-01 5.0540796755561246e-01 -6.0570720778238751e-01 2.4039457912594671e+00 7.5376590205352301e-01 -4.8462864728071509e-01 -5.9794684502433881e-01 -4.0067070495084067e-01 6.1503285369595460e+01 9.1296478191549113e-01 -9.8820128510120639e+00 -1.4718508934576988e+00 5.2574534962681554e+00 -4.6399875539769297e-01 -3.3907968579663725e+02 8.2698093743592516e-01 4.0776503659311203e-01 3.5824134999521618e+01 8.4510174690993267e-01 5.0158229254589060e-01 -5.1875233759530204e-01 6.3144823962487173e-01 3.8425185917664351e-01 -2.5678237750200594e-01 2.3898971437370875e+00 -1.3923452010690909e+00 -1.2039332735384789e+01 -1.4292746033860659e-02 -5.7700799328742391e-02 2.7242809067142264e+01 1.1016750983984025e-02 -1.6233153574163595e+00 3.4964454750650475e+01 -2.0914426743805237e-01 1.0725214379135668e+00 -1.3351524631347183e+02 -7.9168337227006358e-01 -3.7894350104961654e+00 8.0273227244094425e-01 5.3005061564090283e-01 9.7546449234192423e-01 4.5362072104358759e+00 1.1850401810640800e+00 -1.1828870618073104e+00 7.9125901566448732e+01 -5.6474225407206546e-01 4.1383888868906027e+00 1.3757493544865508e+01 2.6245858891896461e+00 1.6711294659549765e+01 2.1994511867643368e+01 4.2661801723588425e+01 1.6347523475028581e+01 1.3769437152985375e-01 1.0490846388837326e+01 -2.4169166376111377e+00 -3.4555663407694865e+00 -2.0859672981494079e+01 -3.8521333324256375e+00 1.2598470868385983e+01 2.1909397690642315e+01 2.3578292942168673e+01 -5.0532487075903873e+01 -6.3289878263925630e+00 7.3956600583991303e+01 4.1390947648943074e+02 -3.3854726289232239e+01 -3.0622502793915902e+02 
      </Row>
      <Row Index="178">
        1.6211244107968494e+02 -1.6047930917612583e+04 2.1210754282871039e+02 1.0051557335092897e+02 -5.0411111828536486e+03 -1.9215682368416935e+01 -3.6025233350913823e+01 -1.9884266875912454e+02 6.0209835653282099e+01 4.5920133394161724e+01 -1.5003377494980339e+02 -3.0452431003120705e+02 1.0494106108608534e+02 9.3749589858212366e+03 -3.1099617281375103e+01 -1.0694320189067537e+02 -6.3092356947123571e+03 -1.0424631605920786e+02 -1.6907944836891062e+02 -3.8199193210748512e+04 6.0017759180913288e+01 -8.7377595900964991e+01 6.6652168274008400e+03 4.9237881717688055e+01 6.8452518214127281e+01 -2.5961039853785223e+01 -9.4725366042312714e+01 -4.6030816985740614e+01 -4.9920289236417688e+01 -4.9786388172547288e+02 3.2013493033443012e+00 1.1238785698676789e+04 -8.3161544799505421e+01 -6.9705610637852487e+01 -3.4752513118076222e+03 1.9183447414833824e+02 4.6657121062389479e+01 -5.4641264293322092e+03 -1.2662124274955147e+01 7.5463921533479947e+00 3.9720712952957115e+03 -4.8641935149162236e+00 4.6790054863901958e+00 -1.3059486256624950e+00 -5.9253242761913612e+00 1.8890353829683420e+01 -1.7884714858705593e+00 -3.4066440288664126e+01 -8.5675632850331027e+00 -7.4207341392445733e+02 -7.9493521517256340e+00 -1.5656891388343524e+01 6.7740859387507498e+02 -6.6084488889000681e+01 5.2832030439807795e+01 -4.8904109495593846e+04 1.5781558189954239e+01 5.2202505009427114e-01 -1.1804437122764297e+04 -1.3062913844778677e+01 1.2025692178973372e+01 4.2247718840202197e+01 1.0456702601170491e+01 7.3246811643284673e+00 -1.2476980413210185e+01 2.2787506954253820e+02 -4.5179013438122183e+01 5.0435866361358785e+03 1.6656593096982988e+00 2.5204358420163658e+01 -8.5450779140845225e+03 3.8464934845825439e+01 -7.2007961037999394e+01 1.3840814296104305e+04 -2.3198203010145721e+02 -4.5407390348540446e+01 2.0746623324643468e+04 2.6689214338171965e+01 -1.3797701616378157e+02 -1.5554470103755784e+02 2.2528755906864887e+01 3.7173974682050954e+02 -2.4084934258550425e+02 7.0892687168128919e+02 -1.4981647070352071e+02 -1.3657306848304292e+04 2.1055981824927659e+02 2.7826732484246179e+02 7.9254718980274038e+03 2.1570774685580011e+02 -2.0019357098719411e+01 2.0710958646666106e+04 -5.6568523926610681e+01 1.5178975326163595e+01 5.2454091168618479e+03 -1.3155917172753828e+01 1.1427036270667486e+01 2.4100169274854807e+01 2.0987752147943411e+01 -8.2012154071258010e+00 1.7516221262577119e+01 1.3278071504733219e+01 2.0041761272013503e+01 -5.1747789898889678e+03 -1.9513508085360570e+01 -1.6039877121785594e+01 2.9901082534877723e+03 3.7255188547955640e+01 -4.2579218413093940e+01 -9.5925849526465026e+03 2.0260733621144027e+01 4.0149612531081402e-01 -3.3630056258646255e+03 2.2174661388364711e+01 6.0760120996005753e+00 -1.6793976845209272e+01 1.4827575089618108e+01 -6.2625382062907818e+01 -4.3532406996037025e+01 -1.3355003375863816e+00 -1.7936930812503533e+01 8.6180816924503488e+03 -1.0234503022892909e+01 -6.1658806610109878e+01 -2.7081683891050989e+03 2.0394892738512704e+02 -4.5199743583899817e+01 8.0074013238352214e+04 1.2492087352901706e+01 -1.8457781590337049e+01 1.0848778968684535e+04 4.2119135515486050e-01 1.6721696751306581e+01 -1.5156364520099260e+01 3.6427704853744274e+00 1.2218017909713581e+01 -1.5491558308158119e+01 -4.2200900201388322e+01 -2.0424540619302888e+01 4.4720211717234179e+03 -2.2704986147781199e+00 -8.8180472854016898e+00 8.6380081746913729e+03 7.3552561598941111e+00 -3.0428496037716798e+01 -6.2607374759110826e+01 9.5619850059447344e+00 6.3003316959412814e-01 2.9653190780763721e+03 5.9634656711716332e+01 -9.9857942351596265e+01 -3.4134414701095693e+02 -1.2933586146932640e+01 3.5780910445277732e+02 -4.2893358120966332e+02 -8.2328703395822373e+01 -2.9488478933160536e+01 -5.6452566559485804e+03 6.6913708013315556e+01 6.8831683283490293e+01 -9.9188323150918518e+02 1.4744262533421670e+02 4.7347283534241160e+02 -2.6003442656464365e+04 6.7875562730642287e+02 -4.6886721494036647e+02 -1.0633794914293656e+05 6.5703539845229898e+01 -4.4913308087282667e+02 -4.4136679719330061e+01 -2.1262424609202469e+01 -5.4652859848680737e+02 -9.1644120764959609e+02 -5.6892844220069924e+02 2.3228918958098802e+02 8.4305966423555772e+04 -3.5093400805905731e+02 4.1390947540597108e+02 2.3002657642134343e+05 -1.4501264253763404e+03 -3.2673986416417802e+03 
      </Row>
      <Row Index="179">
        -9.6996781291958687e+00 4.7070947100082753e+02 -1.8449727659581705e-01 -3.7899392486200929e+00 7.8169335564286655e+01 -4.3318460048235430e-01 9.2734929462640237e-01 1.7145497328598038e+00 -1.4584119663914310e+00 -5.7529617536724587e-02 -9.9088426332640385e+00 4.3481984210582612e+00 1.0881905927062401e+00 -1.0624637449581104e+02 -1.6225391345029518e+00 2.5270571064463585e+00 4.9837113136857319e+01 4.7507969835847046e+00 4.7118623570355549e+00 -4.7977741251780884e+02 -5.9735469331314928e+00 4.5267886563675628e+00 4.5891862814055521e+01 -6.1993418139415968e-01 -1.8596824653759270e+00 2.5709499369603361e-01 5.3653238107969004e-01 6.5956696919725832e-01 2.0234940750512069e+00 1.2069488023497826e+01 -9.6246562564731564e-01 -8.4105118961873671e+01 -7.4483478863663555e-01 2.5752294634740025e+00 1.2010217197904346e+01 -6.0163851676443780e+00 2.0068095140858055e-02 7.8539002057176549e+02 -2.4078790351749702e-01 7.7594746919882507e-01 -5.7873105735945686e+01 3.2879834035036026e-02 -1.7988975810570040e-01 -3.8297388855905279e-01 -1.5216665239625726e-03 -1.0709996620087558e+00 -4.6032691202961296e-01 -2.2577568495248759e+00 2.1017057693210384e-02 9.4973014480973092e+01 1.0442271556298834e+00 -1.4797211709452718e-01 3.0621758777093455e+00 6.6700022334541433e+00 -2.4802179891602449e-01 -7.3378088245596132e+01 -3.0043128375284676e+00 -2.4180023391092869e+00 1.1155648310894902e+02 4.2960569138825377e-01 -9.9280036366908320e-01 3.9295811105686695e-01 1.0067444001088042e+00 -5.0013096029934090e-02 -6.4233849375775520e-01 2.1438587382717831e+00 2.5484544583933832e-01 -3.1716485444881101e+01 1.2866745196807372e-01 -2.9720690610675753e+00 5.3655492294550037e+01 -4.3142188265792187e+00 6.6664296543375468e+00 4.5422645616144939e+02 7.2976520166464240e+00 -8.4412648965353598e-01 -1.5172388667416317e+02 2.1707380625037738e+00 5.5796057617652774e+00 3.1964053698458335e+00 4.8568928443587067e-02 -5.9257823308200628e+00 -2.1305560810122115e-01 -1.4041929259577179e+01 -1.3357226041869734e+00 1.6779333644547174e+02 1.0119306355879061e+00 -1.0456972442819120e+01 -5.4095786838623155e+01 -1.1956504122316868e+01 2.9300984135717059e+00 -6.0567743073784538e+02 1.9720492630178530e+00 -6.5579531132592628e-01 -1.3280907044978512e+01 4.6744294925503077e-01 4.6880896592452359e-01 -1.1772530433715467e+00 2.0046439046581144e-01 7.4990535210717013e-01 -4.2409318246583183e-01 -1.7469799402641892e+00 -7.1421850383583507e-01 -6.8778355679948248e+01 6.8857224478084600e-01 1.0062324131358142e+00 -1.7967189190150165e+01 -3.5272900896507302e+00 1.2646932646216591e+00 -1.0686923251200315e+03 7.2887605686097068e-01 1.0652192282740991e-01 9.5264698708678083e+01 -1.9016653844713716e-01 -1.0148315335669800e+00 2.8683290190202726e-01 -9.1170530194714061e-01 9.9943373187883733e-01 -1.5179971486713839e-01 3.0686429613231141e+00 4.2584185643843320e-01 -2.0144239102697378e+02 -9.2774496501343595e-01 3.8744149429772285e+00 -1.0727245367259535e+00 -1.3507466190404930e+01 1.0592140155635459e+00 3.3776454815543218e+01 -4.8427642521645176e-01 -3.6326230977391916e-01 -1.2225754401308481e+02 -1.5827257251114801e-01 -9.1475659137559262e-01 2.1081101410468328e-01 4.7439178000156690e-01 3.8192903509128939e-01 4.7890461784306737e-01 -1.0516504199277446e+01 1.0329323923108724e+00 8.3986902787586118e+01 1.4399839504011780e-01 -2.8077267055118860e-01 -5.2552582984155976e+01 6.3632857173535839e-01 5.4888489864351797e-01 1.3231809965574826e-01 3.5545580886992703e+00 -8.8316170242299963e-01 -3.1662626778040803e+01 9.2429268250552421e-01 3.9519428147064719e+00 4.1993084665346512e+00 -4.5160626222713041e-01 -4.9992463927347890e+00 -8.3669061576473958e+00 2.2930006302732338e+00 -1.4194256144288273e+00 8.5829445132048306e+01 -1.2443767780863890e-01 -4.1086219820919316e+00 2.0134409608358730e+01 -1.6485508363632864e+00 -6.2628238061689331e+01 1.5366339179348057e+02 -6.0416810496209514e+01 -8.6964352933342823e+00 4.8498944975343966e+02 -1.4798658930770330e+00 2.5385564266838138e+01 1.3639940748549447e+01 -1.0300567259267041e+01 6.3233578679098947e+00 -9.9435057382861514e-02 -1.1349515989421104e+02 -1.8655161776709974e+01 -1.6929733397738741e+02 1.3695515624126841e+01 -3.3854726284736266e+01 -1.4501264252432227e+03 9.7407013027714797e+01 9.3762375310217820e+01 
      </Row>
      <Row Index="180">
        -7.4784309264336571e+01 -5.7946379640107349e+04 3.7228605859455229e+01 -8.6046413300659367e+01 3.2523548988919633e+03 -3.0611642599201105e+01 -4.8168617702165420e+01 3.0234277698204096e+01 -7.6991199897289391e+01 5.1095207056648405e+01 1.5348840177438979e+02 -1.7605458588266629e+01 -3.6599819190353173e+01 3.8904353309567159e+03 -2.3851593184901276e+01 1.4349738339328769e+02 1.6272386704166877e+01 -7.4463932680471771e+01 -6.6431116324563789e+01 6.7476570168596372e+03 -7.0266312388721872e+01 -2.7981874266420675e+01 6.0130772341880693e+03 -1.8345769471843028e+01 -7.7222696561400880e+01 2.1641590715979078e+01 5.7485900296162868e+01 8.1196374683835757e+01 1.8583090590540928e+02 -1.2017032902723895e+02 -7.9188265250963923e+00 -1.2384768642704666e+03 -3.4806898479067740e+00 1.5928740764963095e+02 -1.4101828587070790e+03 -2.8801074505391455e+01 1.2765662366191918e+01 7.3292849882369919e+03 -7.0157951773628042e+00 -6.2502025661228799e-01 5.7492103065022093e+02 -1.3086260106983900e+00 -5.9129566112887915e+00 -2.5718377495421009e+01 -5.2410061630594100e+00 -9.7404286448272615e-01 -2.2143592437828374e+00 -5.1302328539350128e-01 2.9623319679622000e+00 1.3985384377121045e+03 -1.8479551194964188e+00 6.2754006482446130e+00 -2.1647199228100112e+02 2.7833425303024342e+00 -4.4844395413711027e+00 2.9896164246023865e+04 -4.9594579764278478e+01 9.8963919913321661e+00 -9.5862667698968335e+02 -6.8755286502482704e+00 1.9629159924495070e+01 -1.5063612099975217e+01 -1.3880536781275168e+01 -5.8849701281369562e+00 -4.4292811989755137e+01 1.1506287259308010e+00 3.9802334139531013e+00 2.9480468686124805e+03 1.3500520892061104e+01 -4.6074701007440126e+01 5.4707435123316736e+02 -1.4100994226129615e+01 3.2377745067556589e+01 -8.2996641199686128e+03 7.2576097794451016e+01 1.7858682490243569e+02 1.7617553404047571e+03 3.8648224291486144e+01 5.1178524779479517e+01 1.7947236469561949e+02 7.7901479937376507e+01 -5.4295875326877422e+01 6.8076733694143286e+01 1.0469829027487549e+02 9.0351965322065098e+01 1.0902664680932681e+04 1.9861905437410584e+02 -2.3510695448978913e+02 -6.4717113098732898e+02 7.0191151602557511e+00 1.6948980164652312e+01 2.1429020506016386e+03 2.0053181071310746e+01 -9.0020169374683974e+00 -4.8250754846552809e+02 -4.4958507191068975e-01 1.8469211050396552e+01 8.3091877600490989e+00 -6.1566682157916830e+00 -1.7356503553179209e+01 2.1991326629360628e+01 1.1042791860754505e+01 2.1615907573348068e+00 -2.5734723686913203e+03 1.7720679060441398e+01 -6.0651591438345349e+00 9.4529968990860652e+01 -7.8303988215284335e+00 -9.9641118580075272e-01 1.4357654419643455e+04 1.3238316483791095e+01 2.4039261002408239e+00 -4.3450877851567202e+02 -1.1801691378295800e+00 1.0359053901727748e+01 -2.1513424137059701e+01 -1.1749267416573730e+01 -1.8569594567472905e+01 -3.5589345035856240e+01 7.1404008902391070e-01 -6.9705992292610972e+00 2.9731486037225695e+03 2.4629379221334602e+01 2.8065415282466347e+01 1.8654149716083339e+01 -9.7914690189400062e+00 -2.0129438367393959e+00 5.7999261867848982e+03 -2.3785298564499044e+01 1.1358817717442435e+01 -1.2131518695147970e+03 -4.0551970088035887e+00 -2.0327758884923242e+00 2.0375330741348989e+01 -1.3632192890859301e+01 1.7253967455726524e+00 -1.7126608455819223e+01 2.3957209257301656e+01 3.1319277795828384e+00 -1.0998304923771793e+03 5.6854711060736918e-02 2.5828581510722870e-03 -3.3501236281216734e+01 -1.1792383006923046e-01 -1.0908199789580203e+02 1.2478277527794753e+05 6.3485387366354644e+01 4.6562428364269635e+01 1.6330174191843025e+04 -1.1896681969432166e+01 -7.1140289332759210e+01 2.1284207846571326e+02 5.1274170047379073e+01 7.9065703303660030e+01 3.6160822113023778e+02 -4.3896469313008367e+01 4.5056307265568876e+01 3.0753074338368242e+03 1.4563010198881864e+02 7.8705792370417839e+01 -2.2641598072843999e+03 -8.1052088274854214e+01 -2.5894328467842206e+02 -9.4870782168858586e+03 -8.6018382601806343e+02 2.1519972197293100e+01 -3.3697980952485836e+04 -5.7663133548936457e+01 -2.0588948390318183e+02 -2.7887772898567937e+02 5.7580299871914394e+02 -4.0678601916654679e+02 -7.8171074824456264e+02 2.2227328486660190e+02 1.0818247270653956e+00 1.9508993316754644e+04 9.2068619453936844e+02 -3.0622502842821996e+02 -3.2673987538729707e+03 9.3762375982177218e+01 6.3262010582988929e+04 
      </Row>
    </InverseHessian>
  </Weights>
</MethodSetup>
